#version: 0.2
Ġ t
Ġ a
i n
h e
r e
o n
e r
Ġt he
Ġ s
Ġ w
Ġ o
a t
n d
Ġ c
i t
o u
e s
o r
i s
Ġ f
in g
Ġ b
e n
Ġ p
a n
Ġ m
e d
Ġt o
a l
Ġa nd
a r
Ġ in
Ġo f
Ġ d
i c
l e
Ġ h
o m
i on
a s
Ġt h
Ġ y
i l
Ġ l
v e
en t
â Ģ
Ġ re
Ġ e
s t
Ġ n
r o
Ġy ou
Ġ I
c t
Ġ g
l y
Ġb e
Ġ is
Ġ T
Ġf or
e t
o t
u t
Ġ on
Ġ S
i d
a y
u r
u s
o w
c e
Ġ A
l l
i m
c h
Ġ C
i g
v er
a d
it h
Ġth at
at ion
a m
Ġs t
Ġw ith
o l
Ġ 2
Ġ it
âĢ Ļ
i r
Ġ M
Ġw e
s e
Ġa n
Ġ he
r a
Ġa s
Ġp ro
er s
Ġa re
Ġw h
i f
Ġ P
u n
il l
Ġ (
Ġh a
Ġo r
Ġ2 0
k e
u l
Ġ B
Ġc on
o o
g e
t er
es s
p p
he r
Ġ W
Ġc om
at e
l d
Ġyou r
m ent
es t
a b
Ġs e
o re
c k
r i
Ġ D
ĠT he
Ġd e
Ġ F
Ġe x
Ġ H
r om
ig h
Ġa t
Ġn e
p e
is t
t h
q u
u st
Ġs u
an t
Ġha ve
e m
Ġth is
Ġ v
it y
Ġ R
i ve
Ġ us
Ġ 1
re s
Ġn ot
Ġc an
Ġ20 1
o p
Ġw as
or t
Ġf rom
Ġ r
a in
Ġs h
Ġ L
i es
Ġ N
ar t
u m
. .
Ġb y
Ġ âĢ
e l
a nd
Ġ G
Ġa l
Ġ E
o s
Ġc h
Ġ u
n t
igh t
om e
Ġ O
Ġw ill
ou t
Ġ J
re d
Ġ le
al ly
Ġw or
Ġd o
Ġa b
o st
al l
ou ld
ar d
i e
Ġa ll
b er
o d
i v
u d
t e
p t
id e
c i
ou r
g h
in e
Ġp l
Ġs o
Ġ j
p er
Ġ k
u re
f e
r ou
Ġm e
Ġm a
ic e
oo k
as t
ct ion
it e
Ġa d
Ġb ut
e ar
a ge
Ġw he
Ġcom p
Ġm y
Ġh as
t her
ver y
l o
a g
Ġo ur
ab le
in d
a c
ar y
a ck
Ġo ut
Ġ en
Ġu p
on e
Ġm ore
a re
at ed
r y
Ġl o
ic h
r u
ĠT h
s o
or m
Ġthe y
c c
im e
Ġ U
oo d
Ġl i
Ġthe ir
i z
ou s
Ġcon t
on g
0 0
an s
k ing
Ġt e
d u
i p
a il
Ġon e
Ġ im
a ct
T he
âĢ Ŀ
Ġab out
' s
Ġan y
Ġm an
Ġf e
ion s
Ġ un
as e
an ce
ĠI n
Ġre s
Ġin c
Ġa pp
Ġc l
am e
ig n
Ġ qu
re at
Ġ Y
ul t
Ġwh ich
Ġo ther
Ġwh o
f orm
i re
k s
re e
i b
er v
ation s
Ġli ke
i a
Ġt ime
p l
Ġg o
o g
a ce
Ġof f
ĠâĢ ľ
ay s
f f
ic al
Ġp er
t o
Ġg et
n ow
Ġs ome
a v
Ġd is
n e
e p
a p
ĠI t
as s
u e
Ġal so
en ce
ou nt
a ch
Ġe v
i le
Ġ K
ve l
Ġp art
u b
Ġne w
Ġthe m
Ġ if
Ġt a
ing s
.. .
Ġy ear
Ġs p
res s
Ġh is
Ġa g
Ġp e
Ġbe en
Ġt r
Ġthe re
ĠW e
Ġa r
Ġwhe n
i al
Ġ V
Ġa m
ĠS t
Ġwh at
it ion
ic k
on d
or d
ent s
Ġw ould
Ġne ed
Ġ 3
Ġj ust
Ġs pe
Ġo ver
ar k
Ġk now
Ġth an
ĠC h
ou gh
or s
Ġp re
Ġs a
is h
nd er
Ġa cc
Ġc o
en s
Ġim p
Ġh ow
Ġ ro
op le
us e
Ġwor k
Ġhe r
Ġpro v
w n
il d
Ġre c
Ġbe c
Ġn o
Ġd es
Ġh ad
in t
Ġwe re
Ġm ay
Ġus e
Ġ -
o ve
ad e
at er
ou nd
l p
ow n
b s
rou gh
l ud
ci al
Ġcom m
Ġpe ople
ĠTh is
a k
Ġin to
l ic
re n
Ġhe lp
2 0
or y
Ġpro du
Ġs c
an g
u al
l i
f ul
Ġma ke
f ter
ver s
in k
it t
Ġe m
ir st
Ġp r
Ġs erv
Ġl ook
n ing
o se
w e
ment s
Ġit s
ĠS e
ol d
c es
Ġad d
Ġin d
Ġon ly
ct s
re nt
Ġe very
Ġm ost
ĠH e
Ġt ra
on s
a use
e nd
ar ch
at es
ic es
Ġb u
Ġf o
Ġbe t
Ġinc lud
Ġcon s
Ġw ant
at ing
Ġth rough
i an
Ġwe ll
he d
ter n
Ġu nder
Ġ very
ĠâĢ ĵ
Ġa ct
ie w
l es
ĠR e
Ġ "
is e
o v
Ġthe se
i ous
Ġse e
h ing
f t
ĠY ou
Ġsu pp
Ġf irst
Ġt w
Ġb ack
Ġp o
if ic
j e
Ġp h
Ġd if
ĠD e
Ġs he
form ation
Ġex per
rou nd
ers on
Ġre p
le ct
it ies
Ġ 4
g r
m er
if e
ic t
Ġ 5
m ber
u ch
Ġg ood
Ġc ol
Ġre g
c ess
an ge
) .
Ġman y
il y
er t
' t
d ay
p h
p le
se l
f ore
Ġre ad
Ġw ay
ro w
ib le
in ess
fe ct
t ing
c ed
he n
r it
is s
x t
Ġs y
Ġa fter
Ġf l
Ġg reat
il ity
o b
Ġ ke
ur n
y s
Ġc ould
Ġev en
c om
u g
os s
a w
Ġyear s
as ed
T h
Ġd on
l ine
Ġin formation
Ġg u
Ġ20 0
er m
p r
Ġre m
Ġb est
Ġo wn
Ġr ight
Ġsh ould
Ġthe n
Ġs m
Ġre l
u res
Ġa c
Ġn ow
Ġwhe re
al s
an y
Ġf ind
Ġin v
Ġb us
Ġtw o
Ġst ud
âĢ ¦
Ġm uch
ot h
Ġsu ch
ul ar
on t
Ġh igh
ĠI f
Ġbec ause
ow er
em ber
b le
Ġp erson
ol og
ic s
Ġde c
al th
Ġin st
Ġ1 9
Ġ &
t y
Ġ ent
Ġ ra
ur ing
g et
t s
ll ow
o ol
at ive
at h
ation al
Ġin te
e w
Ġst art
p s
Ġd own
Ġdif fe
Ġhe re
Ġre qu
Ġc he
Ġf u
Ġf in
ĠA s
Ġs et
Ġus ed
o y
Ġin s
Ġb l
Ġse c
it s
Ġl ong
he s
Ġd id
Ġc ar
u ally
om et
Ġd ay
o c
w ard
pe ct
ra ct
it ed
st em
Ġto o
ĠU n
Ġm ade
ĠW h
Ġdo es
h ip
Ġat t
Ġta ke
id ent
ĠA nd
Ġdes ign
Ġa v
Ġpl ay
Ġsa id
Ġlo c
Ġbe l
vel op
ri v
ri b
ĠC om
Ġexper i
Ġwor ld
Ġprov id
le ase
Ġp ost
Ġbe ing
Ġh ome
en er
al ity
Ġbus iness
Ġas s
ĠP ro
Ġs im
) ,
je ct
Ġ $
ark et
a ir
Ġm in
Ġtr ans
Ġsu b
c y
Ġdis c
Ġm on
i ed
ot her
Ġag ain
Ġm od
Ġbe fore
Ġth ose
ust om
d er
Ġf am
Ġb r
Ġre ally
Ġar t
g an
Ġl ife
Ġh im
at a
re st
l and
Ġb ook
n g
al e
Ġth ink
e b
Ġlo ve
an k
Ġ20 20
Ġe nd
Ġc all
Ġsh ow
Ġ 6
ch ool
Ġp ur
Ġp res
Ġd et
Ġs ur
Ġc re
Ġha nd
ch n
Ġm ed
ce pt
a z
v en
Ġe as
ar n
Ġn um
Ġwe e
Ġex p
ĠA n
u p
Ġv is
l ed
Ġsy stem
k es
iv es
W e
Ġa ut
iz e
Ġad v
Ġdiffe rent
in ce
Ġde velop
in es
sel f
a ke
i x
u es
r ic
Ġc ur
Ġcomp le
Ġo p
w ay
v iew
ion al
s s
ag es
Ġsupp ort
Ġwh ile
ction s
Ġre t
re ad
ar m
Ġfor m
at her
ou se
Ġfe el
Ġs omet
or k
n er
Ġb o
Ġe ach
Ġg r
a ve
at ch
i o
as on
Ġwe bs
w ays
Ġin ter
n ess
Ġf ree
g g
Ġpro cess
im es
Ġs ame
Ġc le
un e
Ġst r
Ġb lo
Ġm et
Ġc ustom
Ġp ub
Ġth ough
ĠM ay
I n
Ġpro f
ri end
Ġa round
Ġc are
ol ut
Ġl ist
ĠS h
Ġp ol
Ġfo llow
Ġs k
gr am
Ġf un
ĠF or
Ġl ot
an u
. âĢĿ
e ver
l ess
Ġs er
Ġst ill
Ġm arket
Ġus ing
v ed
as h
Ġch ar
we en
ĠS o
Ġav ail
Th is
Ġ1 0
en e
Ġc ount
Ġ ed
Ġex t
ĠB ut
Ġgo ing
Ġs ay
ire ct
Ġ201 9
Ġcomm un
ĠA l
iz ed
Ġl ast
v ing
Ġc our
Ġha pp
Ġc r
Ġ 7
Ġle ad
b e
Ġt y
Ġch ild
Ġhe alth
in s
Ġ i
Ġpl ace
Ġbet ween
o ber
am p
Ġb oth
Ġs ign
Ġ201 8
Ġf ound
Ġc or
Ġon line
Ġre f
Ġto p
i ent
00 0
Ġv ar
Ġke ep
Ġre al
Ġp ay
Ġd ata
itt le
th ing
Ġth ings
ĠB e
ĠN ew
Ġserv ice
et y
ĠThe y
t en
Ġte chn
i red
Ġ201 7
ou n
Ġfe w
Ġs ite
ĠF eb
ĠM arch
Ġpo int
anu ary
Ġexperi ence
Ġ 8
Ġimp ort
ar s
f fect
Ġavail able
Ġwebs ite
Ġwith out
st and
Ġl ar
Ġv al
Ġs l
Ġo pt
Ġ201 6
er ing
u c
ru ary
Ġal ways
ant s
Ġg ener
i vers
Ġp oss
ĠO ct
ĠJ anuary
od y
Ġinte rest
Ġte am
ce mber
Ġw r
Ġmon th
Ġm ain
Ġo b
at ure
in ing
Ġres p
ĠC l
Ġinclud ing
et s
Ġor der
ĠA d
olog y
Ġf act
ĠFeb ruary
Ġis s
Ġapp ro
ĠA r
Ġre ce
c o
a h
ic ally
ro ss
ĠJ u
Ġde f
it al
Ġsu re
t t
Ġt ry
ĠThe re
Ġl ittle
ra nd
pr il
Ġres ult
Ġprov ide
pt ember
Ġpl an
iv ing
Ġ ide
ove mber
2 1
ĠDe cember
Ġd uring
a ut
Ġcomp any
Ġserv ices
ĠA ug
Ġsomet hing
Ġ201 5
Ġpro gram
Ġall ow
v es
Ġbet ter
Ġqu est
ble m
Ġm ust
Ġf r
u nd
Ġf riend
Ġpart ic
Ġr un
ĠOct ober
Ġsm all
Ġcom e
Ġ 9
ĠJ une
ĠA pril
ert ain
Ġin t
mer ic
ur al
ĠN ovember
Ġst ate
Ġ '
Ġw ater
ĠSe ptember
Ġfam ily
Ġp at
Ġcon f
ĠJu ly
am es
Ġre st
Ġd ist
e ll
c l
ist s
al k
Ġcont in
Ġnum ber
in ed
\ \
is m
c er
Ġop en
ĠAug ust
Ġpro blem
ĠH ow
Ġex am
o ck
Ġbu ild
Ġin f
Ġd ays
Ġspe c
Ġf il
el s
Ġne ver
Ġst and
Ġprodu cts
er g
ĠL e
Ġ ve
Ġm em
ort s
Ġg ive
us s
Ġ201 4
Ġe ar
c on
Ġp ut
Ġ [
âĢ ľ
b ers
w are
Ġm ight
Ġp ass
em s
is hed
pp ing
ent ion
Ġpro per
Ġc ent
ĠA ll
a u
ĠâĢ ĺ
Ġh ard
ut e
Ġs ince
a red
Ġacc ess
i qu
Ġor gan
Ġwith in
or n
m e
ver n
ĠP l
Ġs chool
one y
ĠI nd
t on
Ġg ot
Ġfu ll
ĠT e
ĠA meric
lo y
Ġcl ass
ĠE x
ate ly
Ġimport ant
t he
Ġ .
Ġw om
Ġab le
Ġe qu
pe nd
Ġo ld
Ġs it
rou p
ĠO n
Ġan other
Ġth ree
Ġp ower
Ġb ig
Ġc ost
e red
1 9
Ġper form
r ist
Ġt ri
Ġ Q
Ġle vel
Ġ201 3
Ġpro te
re en
i er
Ġne xt
p loy
iv id
Ġche ck
om m
Ġd irect
Ġlook ing
Ġm at
Ġt est
l ing
Ġunder stand
Ġprodu ct
I f
ie ld
as es
Ġcont ro
ĠS he
Ġcur rent
i ents
1 0
en se
I t
Ġo pp
Ġqu ality
ic le
Ġl ess
Ġex pl
Ġl ight
Ġbel ie
j oy
Ġb ro
ĠT o
Ġinc re
er y
Ġprof ess
our s
Ġhe ad
Ġe l
Ġen g
Ġinv est
ĠS c
b r
if ied
in al
Ġre se
ra ph
ĠT r
Ġb re
or ies
en cy
Ġj o
Ġwee k
ar ing
Ġspe cial
ff ic
Ġw rit
Ġwor king
Ġo per
Ġg row
Ġle t
en g
Ġm us
Ġg l
ard s
r al
ot e
Ġoff er
m an
ent ly
Ġperson al
Ġin tern
ab ility
Ġ est
Ġm ov
l ish
Ġma king
Ġadd ition
Ġapp lic
Ġp os
Ġpub lic
ĠS p
t ed
h or
Ġl aw
is ion
Ġd i
ru ct
if y
Ġf ood
Ġv iew
c ing
cc ess
Ġp op
Ġt ru
ater ial
p os
ĠI s
ate g
Ġpre v
ir d
Ġ201 2
Ġph ot
Ġh um
le ction
Ġcon d
ort un
Ġbu y
Ġp rom
Ġto day
Ġg ame
ĠU S
ab ly
i um
Ġsec ond
iss ion
ren ce
Ġt erm
Ġch ange
Ġeas y
id s
i or
Ġare a
Ġind ust
Ġblo g
ivers ity
he re
Ġv ide
od e
Ġwh y
ain s
is ed
at s
Ġk ind
Ġvis it
o pe
lo ad
Ġ 0
Ġcomple te
Ġc a
Ġch ang
Ġc ase
Ġle g
, âĢĿ
g in
Ġs al
Ġle arn
it ions
Ġth ing
Ġacc ount
Ġdet ail
Ġcon st
Ġen joy
Ġe ffect
Ġp ract
m ed
id er
Ġcont act
Ġrep ort
Ġ Z
Ġn ame
Ġm oney
w ork
an n
5 0
u red
! !
ir on
Ġact iv
Ġm ill
Ġm ar
at or
Ġc ook
Ġun t
ou th
Ġimp ro
Ġme an
Ġb as
ent ial
Ġde li
Ġfe at
ac y
Ġcour se
a x
Ġb ased
Ġre view
Ġagain st
ll ing
ĠTh at
ĠO r
re am
c ent
Ġm aterial
Ġme et
ĠP h
ivid ual
Ġc ap
Ġpres ent
pp ed
ĠJ o
Ġwor d
ĠCh rist
ri pt
ĠF r
Ġa way
Ġcon ne
Ġt imes
Ġact ually
Ġlar ge
in a
Ġt urn
ĠC on
Ġha ving
Ġneed s
r on
f fe
Ġem ail
ĠW ith
p or
Ġc reat
ĠM y
um p
re t
Ġ1 2
Ġro om
p art
Ġc ertain
Ġas k
Ġs ing
Ġbe aut
is ing
Ġbe h
ĠB l
Ġde m
p ort
Ġloc al
Ġchild ren
ĠE ng
Ġa ir
ri es
ĠG od
Ġp ain
age ment
Ġ |
Ġper fect
an ks
Ġh ist
ĠâĢ ¦
ill s
Ġpur ch
Ġposs ible
ot t
b o
r ation
in ation
t ain
iz ation
Ġh ouse
Ġwe b
Ġan n
Ġp a
Ġto get
it ive
Ġstud ents
Ġtr ad
Ġtoget her
Ġb ene
W h
Ġw in
Ġde v
e x
Y ou
Ġunt il
ĠW hen
ï ¿
ĠâĢ Ķ
Ġof ten
e ad
Ġind ividual
iv en
ï¿ ½
Ġ201 1
iqu e
ĠC an
ĠC ol
a king
Ġ es
Ġp ar
Ġe ver
Ġt reat
Ġ1 8
Ġn on
ic y
so ci
Ġma kes
red it
vern ment
f er
Ġf ac
iv ed
Ġp lease
c us
ur y
Ġ Â
ĠC o
are nt
k en
Ġal ong
ĠR es
Ġme ans
e c
Ġp ast
as ter
Ġd ra
Ġl ive
Ġem ploy
Ġd one
Ġinclud e
at t
Ġrese arch
Ġpr ice
Ġne ar
Ġb it
Ġl im
Ġcont ent
ĠN o
u ro
u ck
Ġcontro l
Ġcommun ity
read y
Ġb ody
or th
Ġspec ific
ĠO ur
Ġd r
ut es
w w
ot s
Ġs w
Ġother s
ĠCom m
g ed
Ġp age
Ġbene f
an ces
Ġret urn
m in
ne y
te nd
g er
Ġsu ccess
Ġe lect
Ġget ting
le t
Ġso cial
o f
y le
' m
âĢ Ķ
Ġen ough
Ġor ig
Ġl ow
Ġm ind
s ide
Ġcre ate
a im
ra p
Ġd ri
er n
Ġg roup
Ġty p
Ġs ide
olut ion
Ġso ft
E R
Ġst ore
Ġqu ick
Ġbec ome
Ġ ...
o ice
ro om
Ġan al
Ġm ult
f act
ver al
Ġvar i
Ġal ready
Ġrec omm
Ġrequ ire
ord ing
Ġl ine
ĠA m
Ġ20 21
it her
Ġrecomm end
Ġcom es
Ġdo ing
ĠS u
ci ally
Ġf av
Ġfollow ing
Ġde al
Ġm ove
Ġev ent
Ġc ou
if ul
Ġsh are
i ke
Ġsh ort
Ġac ross
Ġj ob
Ġo cc
Ġre ason
ĠM an
Ġp ot
e e
Ġ3 0
Ġwor ks
' re
Ġp riv
Ġst ory
it ing
ĠP r
n ot
Ġen s
le ment
Ġnew s
oo se
and s
l f
ĠWh at
ĠThe se
Ġed uc
Ġn ight
Ġp ack
con om
ut ure
Ġex pect
v iron
Ġwom en
j or
c rib
Ġt re
Ġcount ry
Ġfo cus
Ġpro ject
Ġc lo
c u
Ġdid n
ir m
ĠS erv
os ed
A s
Ġm en
Ġs ol
Ġl a
b y
Ġ1 5
Ġh ot
u ll
ĠA t
Ġ vers
Ġoff ers
Ġf ar
o int
Ġse veral
1 2
Ġt em
3 0
h od
Ġle ast
ĠC ont
Ġ201 0
Ġcle an
ĠC ent
Ġcall ed
an e
Ġ ident
Ġf our
a i
Ġadd ress
Ġdoes n
Ġchar act
ur ity
id es
il i
/ /
Ġe t
c ript
Ġmem bers
Ġpartic ular
Ġta x
rib ut
Ġf ore
Ġon ce
ur s
Ġle ft
Ġh old
Ġthough t
Ġopp ortun
ce ll
Ġm om
Ġst e
Ġsh o
Ġcle ar
ĠD o
Ġc e
Ġh ig
c hes
Ġh ours
ĠM ar
Ġn et
us h
ro p
s w
Ġaut hor
m ost
Ġw ond
a ff
ro du
1 1
Ġresp ons
. "
Ġevery thing
Ġb rand
b al
if t
ir l
Ġf uture
Ġindust ry
u ff
Ġr ange
Ġre du
a pp
Ġvide o
an ies
Ġto ol
ĠUn iversity
le y
Ġd ue
at ic
Ġdevelop ment
Ġexam ple
Ġfriend s
Ġbel ow
s h
Ġstud y
Ġm il
Ġma jor
p ly
m m
Ġcom b
al f
Ġrec ord
en ces
' ve
Ġsome one
: //
ur ther
Ġco ver
Ġam ount
ĠA pp
c hed
viron ment
Ġsu per
Ġfeat ures
er r
Ġc redit
at ural
Ġr is
id d
Ġmonth s
Ġbeaut iful
ar r
Ġbr ing
ĠHow ever
ct or
Ġw a
Ġte ll
ward s
Ġmus ic
Ġdisc uss
Ġa ff
Ġty pe
au gh
p ar
ver t
f or
Ġhe art
Ġst ep
i k
Ġke y
Ġag ree
Ġprofess ional
Ġhapp en
Ġre le
Ġbelie ve
Ġfu nd
Ġstart ed
og raph
f ort
ul ation
Ġ1 00
Ġ #
Ġst ay
b ook
Ġyou ng
Ġwrit ing
o ver
Ġknow n
a pe
Ġp ie
Ġ ,
Ġh ope
Ġy et
led ge
is ter
Ġc al
our ce
i od
Ġc ame
ib ility
Ġup d
res ent
g o
Ġstr ong
Ġwho le
Ġ ess
Ġse arch
l ished
I N
Ġoff ic
ct ed
Ġe y
Ġto t
en n
ip s
ac es
l ight
w h
il t
ĠY our
Ġc ut
ĠCom p
Ġcustom ers
Ġinst all
Ġhum an
Ġgo vernment
an cial
Ġrel ations
Ġsp ace
Ġquest ions
Ġprovid ed
il ities
on es
Ġval ue
n ers
Ġiss ues
Ġo il
Ġmet hod
il ar
ĠC he
Ġtra vel
pe cially
je cts
Ġresult s
Ġab ove
Ġma ch
ĠAmeric an
it es
Ġg iven
our ces
Ġs ays
ĠM ed
i ans
Ġcomp anies
Ġp ri
c le
h n
Ġpro b
Ġinv ol
Ġany thing
her s
Ġapp ear
Ġc ra
ĠC O
\\ \\
Ġex c
Ġclo se
Ġf re
Ġc ult
ĠC ar
or ing
Ġbe gin
Ġcomm on
ent al
Ġsing le
Ġquest ion
g es
in o
ĠN ot
Ġan t
ir t
ĠM e
ck s
Ġcons ider
Ġc ity
I D
Ġman u
ar ning
ĠUn ited
Ġ1 1
Ġm ot
Ġread ing
Ġmanu fact
Ġimpro ve
ĠF l
ĠIn st
Ġprovid es
ic ult
Ġt al
Ġch all
on y
Ġs ound
Ġse x
Ġ X
ĠS te
Ġen c
os p
Ġme as
Ġse ason
Ġta king
ĠE n
Ġwhe ther
Ġ /
Ġm ess
Ġa ge
Ġcomp et
Ġs ci
Ġtechn ology
Ġvar ious
Ġf ace
Ã ĥ
Ġw on
r ict
Ġc ard
p ro
ĠO ne
g le
Ġe conom
ĠW or
ow s
id ence
ful ly
ĠP lease
Ġdif f
Ġser ies
Ġ z
Ġph ys
Ġag o
im ate
ive ly
ĠB o
Ġp ort
ore d
Ġl at
Ġp ress
Ġevery one
Ġsim ple
in king
Ġsu gg
Ġsugg est
erg y
ap s
Ġproper ty
om es
ra in
Ġdef in
1 5
Ġper iod
Ġte xt
Ġdesign ed
Ġre pl
Ġear ly
Ġs ize
c ome
Ġse en
ill ed
ast ic
Ġe ither
Ġtoo k
ĠE uro
u ation
Ġcl aim
. ,
Ġrece ive
Ġmed ia
fe rence
Ġb ad
Ġtra ining
Ġse lf
Ġg lo
ĠIn tern
R E
Ġd am
Ġac cept
Ġd ig
ĠS y
as ing
Ġf ield
Ġrequ ired
Ġl ater
Ġen vironment
Ġw ent
Ġmin utes
' ll
Ġse nd
Ġide a
Ġsim ply
ious ly
Ġan sw
Ġart icle
ĠG u
sel ves
Ġab s
Ġg ames
A T
ip ment
d e
Ġbuild ing
itt ed
un ch
Ġent ire
ne w
er al
ur ance
Ġun ique
Ġh tt
H e
op y
Ġw ind
Ġh y
Ġw ide
Ġ200 9
th ough
Ġet c
Ġdown load
Ġext ra
Ġhist ory
Ġne cess
Ġdetail s
Ġrelations hip
Ġfav or
Ġc amp
Ġb ed
og n
ang u
Ġqu ite
um e
Ġl ink
id ay
ĠP ol
ur ch
Ġam ong
Ġtry ing
pl es
The re
as k
Ġmill ion
Ġw atch
Ġperform ance
ific ation
Ġen ergy
Ġse em
Ġsa fe
Ġit ems
Ġes pecially
Ġv ol
g est
Ġma g
l er
itt en
Ġ1 4
m b
Ġ2 4
Ġso on
Ġp ict
c he
Ġrequ est
ĠS chool
.. ..
Ġl iving
le ge
Ġf urther
id ed
Ġens ure
1 8
Ġe le
Ġth ird
g s
Ġ1 6
Ġcr us
Ġfun ction
re et
ĠB r
Ġpop ular
us ed
Ġneed ed
Ġcustom er
Ġt alk
Ã Ĥ
Ġch oose
Ġal most
Ġam az
ĠM ore
Ġiss ue
Ġman agement
ĠR ep
S t
av ing
Ġfr ont
ag ed
Ġel se
ch ie
ag ing
Ġm or
re w
Ġn atural
S T
Ġcon cer
ru ction
ab or
Ġfil m
Ġsub ject
ain ed
Ġreg ard
Ġbl ack
Ġcom fort
Ġhapp y
ĠR o
Ġhow ever
ic ation
1 6
Ġwond er
st er
Ġinclud es
Ġs ent
a f
1 4
Ġyour self
Ġd ate
ob ile
F or
pl ay
Ġc rit
ĠEuro pe
Ġb ar
Ġass ist
A N
um b
in ks
Ġcomp ut
Ġstr ateg
A n
ĠC al
Ġare as
Ġe ff
ĠRe ad
Ġknow ledge
ĠA fter
i res
ĠN e
ight s
Ġpr int
Ġw ays
Ġve h
Ġwant ed
Ġmat ter
Ġpol it
Ġimp act
Ġp arent
re me
Ġsign ific
ach ing
Ġf all
Ġa ud
Ġse lect
w here
Ġm iss
Ġsh all
Ġ19 9
Ġex ist
y l
Ġbre ak
u ed
W hen
Ġsim ilar
ĠA ust
Ġdo cu
at ors
ition al
Ġprob ably
Ġcan not
Ġl and
1 3
Ġdiff icult
Ġproblem s
Ġoff ice
el t
ri ed
Ġopt ions
Ġc ir
Ġf ul
Ġpre t
at form
a ur
Ġres pect
ĠG o
res h
Ġwh ite
Ġf lo
ĠD es
Ġf it
Ġf ast
Ġspe nd
n am
ĠSt ate
Ġorig inal
ĠB y
Ġ5 0
O N
Ġcontin ue
Ġpartic ip
Ġmod el
Ġas soci
Ġeng ine
Ġcol or
Ġ )
Ġj our
ĠJo hn
Ġh ost
Ġto ld
Ġfin ancial
Ġn ice
Ġword s
Ġr ather
A R
Ġst aff
Ġd ou
x im
ens ive
Ġrep resent
le x
Ġst op
Ġcons um
Ġ2 5
Ġris k
, "
Ġpart y
Ġchang es
Ġlike ly
ĠSt ates
o on
Ġ :
Ġc ell
it ch
Ġta ken
i ally
Ġsk in
Ġany one
Ġph one
ĠQ u
Ġfor ward
Ġle arning
is es
d o
ĠG r
Ġcol lect
ĠS outh
Ġpre p
ĠM in
Ġpl ant
Ġpurch ase
Ġde pend
pp er
Ġtru e
Ġcharact er
Ġg irl
Ġv ia
ic les
Ġpret ty
ail y
Ġf ail
2 5
O n
Ġre ci
Ġev ents
re ct
med i
Ġdet erm
ĠD is
1 7
Ġus ually
Ġsec urity
Ġp ick
o id
it ut
Ġbook s
Ġcre ated
Ġre d
Ġst at
an ced
b all
Ġsoft ware
t ime
Ġis n
Ġapplic ation
s on
v ent
Ġlong er
Ġst yle
ĠC ount
Ġterm s
Ġor d
ĠP art
Ġtra ck
Ġcom ing
is on
g ress
Ġexp ress
Ġh alf
Ġde b
Ġse ems
Ġ1 3
ad a
Ġf ive
b ack
n ov
cell ent
z e
em ic
Ġg en
ab les
Ġwor th
Ġnot hing
i pping
Ġ1 7
Ġa chie
ĠS ome
Ġaut om
ĠP e
ĠT ra
Ġsignific ant
ver age
ro wn
Ġta kes
Ġadd ed
Ġup on
Ġgener al
Ġde l
Ġt ou
Ġs le
Ġmed ical
Ġn orm
ist ic
u ge
ub lic
Ġs we
Ġha ir
Ġin it
Ġex act
Ġf a
o k
Ġus er
ul es
Ġapp ly
Ġ ut
r ing
Ġg ra
em pt
Ġpol icy
Ġs ale
iz ing
Ġamaz ing
Ġinf l
Ġfo ot
ĠC ity
Ġs at
olut ions
Ġout side
- -
i ol
Ġsystem s
itt ing
Ġpa per
Ġlat est
Ġus ers
e es
ĠSe c
o le
Ġind e
i ence
Ġpos ition
f ace
Ġreg ular
Ġl angu
Ġ200 8
r s
Ġpri or
oo gle
ad es
p ose
ĠJ ust
Ġsal es
Ġse ll
Ġrel ated
il le
ver se
Ġwee ks
cl us
er c
Ġp le
Ġt able
d d
Ġk ids
ĠM on
ĠD r
Ġwr itten
Ġpl atform
Ġread y
it or
Ġeduc ation
Ġhig her
âĢ ĵ
Ġest ab
Ġh on
ĠRe g
ĠN orth
Ġv ac
Ġequ ipment
Ġaddition al
Ġwr ite
Ġ ill
Ġcom ment
a pt
Ġst ruct
ite ly
i et
Ġtreat ment
ic ro
un g
Ġp an
Ġbo x
Ġl ay
ĠP er
Ġa ction
ĉ Ċ
ĠHe alth
ĠN ational
min ist
ĠEng lish
Ġrece ived
j ust
Ġco ll
it c
Ġins p
ar get
Ġincre ase
am s
Ġcond itions
Ġcurrent ly
Ġl oss
Ġsu m
ĠIn c
Ġst ock
ĠU s
Ġle ave
Ġvari ety
Ġeas ily
O ur
s y
Ġmult ip
re g
m it
ĠA ct
Ġvers ion
Ġt our
he ad
g u
en ing
Ġrec ogn
Ã ¢
Ġthrough out
Ġr ate
m y
ĠA f
Ġprodu ction
Ġins ide
ĠTh anks
Ġfe ed
ys is
n ed
Ġshow s
an a
Ġan im
it er
g ing
Ġb ott
Ġacc ording
Ġ x
ar ant
ĠI m
Ġch oice
ĠN ow
a ction
cript ion
ag er
Ġm ass
Ġopportun ity
c ast
Ġro le
Ġd om
Ġloc ated
Ġwe ight
Ġro ad
Ġb ill
Ġs ens
Ġdeli very
Ġpoint s
Ġmean ing
le br
Ġstand ard
Ġde ath
Ġdes crib
Ġh ol
Ġpriv ate
ac ed
Ġmarket ing
g ree
Ġb i
Ġsa f
u x
Ġcook ies
Ġright s
Ġlook s
C h
w ise
Â ½
ĠA b
Ġper cent
Ġc ases
Ġcl ients
at ory
Ġrun ning
Ġmod ern
ĠU K
Ġactiv ities
Ġw alk
Ġd est
Ġtot al
ĠH is
Ġf ire
S o
Ġpart s
ĠP res
ĠE d
ou ra
am a
es e
ĠK e
Ġtyp es
Ġcou ple
Ġbeh ind
Ġm ix
Ġquick ly
Ġt it
Â ¿
re ci
Ġf ig
Ġmom ent
Ġmy self
ou d
ĠT w
s c
Ġpot ential
ict ion
Ġsit es
Ġc ause
ĠWor ld
Ġide as
Ġprovid ing
ain ing
A L
Ġde ep
Ġann oun
Ġp ers
Ġl ives
e f
Ġne g
Ġhe av
Ġpr im
at ter
Ġpract ice
ĠB u
Ġb al
Ġe ffic
Ġsk ills
Ġprote ct
n a
at ur
iv al
Ġg round
ĠP re
h ib
Ġdri ve
ed d
ĠH igh
ĠHe re
Ġleg al
ĠD ep
Ġopt ion
E S
A S
Ġon es
Ġm ember
ĠC or
Ġmaterial s
Ġs ong
Ġst ra
Ġfavor ite
ir it
Ġe p
ak es
Ġb ase
A C
et h
li er
ĠF in
O R
Ġex cellent
ĠS pe
Ġex cept
E D
op s
ĠAust ral
r ight
b ased
ĠY ork
o x
ĠS m
Ġnecess ary
w or
Ġm ention
Ġask ed
Wh at
Ġtr ust
Ġs ense
ie f
Ġc ode
Ġf irm
Ġrec ent
ĠSc ot
er a
op h
Ġmain tain
Ġco ol
Ġw ish
Ġs il
Ġmach ine
row s
Ġr ad
2 2
av es
Ġint rodu
m ing
Ġhigh ly
m as
ir us
ud e
ce ed
ffe cts
ut h
Ġbu ilt
ð Ł
Ġrec ently
Ġlead ing
Ġc am
en ced
Ġw all
p ut
Ġc y
Ġins urance
Ġinclud ed
itc hen
Ġsaf ety
Ġo bs
ir th
Ġfin al
Ġrem ember
li ke
ĠO ff
Ġsm o
g round
m s
ĠSt ud
Ġte ac
Ġset t
ic ated
Ġgrow th
ec ut
6 0
Ġallow s
Ġdra w
Ġpat ients
Ġglo bal
I C
m ission
Ġim medi
Ġinst ead
Ġc oun
Ġsc reen
Ġdefin itely
am b
Ġdis e
V ID
ĠG e
Ġeffect ive
Ġcomplete ly
M y
Ġd aily
t ers
Ġit em
. )
Ġloc ation
Ġfl ow
ab y
T o
h a
ĠW ill
Ġintern ational
er ve
ĠE m
Ġf ile
ĠAr t
Ġim m
Ġa w
Ġsu bs
Ġinterest ing
Ġcol lection
ren g
Ġinte gr
Ġthem selves
Ġdirect ly
Ġb all
Ġt arget
idd le
ĠAmeric a
O T
Ġext reme
Ġreg ist
Ġansw er
Ġab ility
Ġtool s
Ġcond ition
Ġwr ong
id ge
h am
ĠD on
Ġchall eng
Ġem b
Ġdig ital
Ġcl os
âĢ¦ ]
Ġse par
Ġhe ld
Ġrem ov
I T
Ġcount ries
Ġdeli ver
Ġs olution
Ġce lebr
Ġl if
Ġl ower
Ġpro jects
Ġs ix
Ġc as
Ġhelp s
Ġwom an
ĠS w
E N
ĠP ar
Ġpr ices
olog ical
Ġsa w
Ġl ic
4 0
p ri
Ġs un
Ġd riv
Ġwork ed
Ġcost s
ĠAd d
Ġst uff
n al
f l
Ġintern et
k y
Ġbenef its
Ġcomput er
ĠF rom
air s
h ood
Ġnet work
Ġhe ar
Ġf ix
in ary
Ġto wn
Ġit self
Ġ4 0
on se
Ġcon c
c il
Ġc opy
Ġexper t
Ġspe ak
ĠA ut
Ġus es
olut e
ĠScot land
Ġmin im
Ġappro ach
al es
l im
Ġcont ract
et er
ear ch
ur g
y ear
Ġad vert
t ies
A nd
Ġw ood
ĠAf ric
ĠWh ile
Ġse ction
Ġatt ack
Ġl ost
ac hed
Ġg ives
Ġm atch
Ġh uge
r ay
Ġhand s
Ġmultip le
ough t
ĠO f
ci ety
Ġbo ard
ĠP ark
ĠInd ia
Ġoffic ial
Ġm other
Ġlevel s
Ġde p
Ġdec ision
Ġpie ce
as te
Ġmanufact ure
Ġcl ick
iv ity
Ġm obile
Ġqu al
Ġsa ve
I S
Ġ â
Ġl ate
r am
Ġlangu age
Ġindividual s
b or
Ġth inking
ir ing
Ġst ri
Ġgo es
Ġcertain ly
ĠG oogle
Ġlead ers
Ġcor rect
Ġtou ch
Ġf resh
Ġsub st
h old
est s
Ġch ance
Ġn ational
Ġent er
re l
rou ps
Ġlim ited
ĠB ar
ĠW est
ĠTh ank
in c
ĠServ ice
ide red
ĠCount y
e al
Ġs ource
Ġful ly
b and
Ġg iving
ens ion
Ġl ab
Ġv iol
Ġa ffect
er ous
Ġc and
Ġw ar
Ġpur pose
Ġs qu
Ġpos itive
Ġd ed
h aps
Ġs olutions
Ġspe ed
Ġdis play
m on
Ġinterest ed
Ġnot e
u le
ĠA cc
v al
W ith
nd s
ĠBl ack
ĠI nt
Ġatt ention
iz es
Ġprev ent
as ons
if f
Ġn ature
Ġpr in
Ġapp reci
ĠH ouse
Ġ200 7
A l
Ġstud ent
Ġres ources
Ġmor ning
ĠF ace
Ġat tend
ĠServ ices
Ġadv ice
ci ous
H ow
Ġdo or
Ġim age
Ġphot os
Ġenc oura
c ies
pt ion
Ġin form
Ġf ine
Ġcir c
Ġsum mer
Ġsit uation
Ġst reng
Ġprogram s
Ġr ound
Ġveh icle
Ġgr ad
Ġa verage
Ġplay ers
p re
Ġc ert
Ġparent s
he l
8 0
ag n
Ġcons ist
ĠM c
Ġdev ice
Ġwonder ful
Ġlo an
Ġr out
v ant
Ġgu arant
Ġp ath
Ġsomet imes
e k
ib ly
Ġbl ood
ess ion
Ġplay ing
Ġg old
n y
it able
Ġof fe
Ġ2 1
Ġdo g
erv ed
Ġphys ical
Ġh or
Ġs n
ĠCh ina
ĠT V
ro ll
ag s
at ives
ĠD ay
ĠThe n
Ġlo ans
ĠCO VID
Ġrequire ments
B ut
Ġsur pr
Ġp red
Ġget s
Ġcomm er
Ġanal ysis
Ġb ud
Ġre v
Ġc ross
Ġre nt
A ll
g y
is f
id ing
âĢĿ .
al y
Ġcare er
Ã ©
b it
9 9
Ġd ry
ĠCent er
us iness
Ġatt empt
ap an
ig ation
Ġdocu ment
Ġcon cept
Ġf air
z y
Ġprom ot
ard en
ĠG erm
Ġ ver
Ġs us
Ġhtt ps
Ġcons idered
Ġreg ul
Ġpre m
Ġm ount
ub e
2 4
Ġexact ly
i ver
Ġacc ur
her n
Ġar ch
Ġsay ing
Ġ *
ĠT H
Ġdec ided
ĠPres ident
du ct
ĠChrist mas
Ġinvol ved
ĠÂ £
ĠH er
ĠC r
Ġh it
Ġsupp ly
s u
Â Ģ
Ġpl ans
Ġsc he
Ġs old
is ions
Ġf ight
Ġd iv
Ġlo ad
Ġhealth y
ed eral
ur b
b ody
Ġa ware
Ġfe ature
Ġpay ment
Ġpub lished
ĠAl so
Ġf elt
g ar
y ond
Ġinst ru
Ġin nov
Ġob tain
or g
Ġreview s
Ġre ach
ar ily
2 3
ren ces
ĠP a
Ġactiv ity
Ġd ark
Ġresp onse
ch an
Ġcomple x
Ġtru ly
Ġg e
Ġthan k
Ġb ra
art ment
Ġf ab
Ġg roups
Ġd ream
Ġgo al
ve y
Ġw arm
Ġthan ks
Ġsh ipping
Ġe arn
a ign
li ed
ish ing
Ġex erc
ĠG et
it ter
Ġ Ġ
Ġst ories
Ġc at
ĠF e
ĠAn y
ĠV al
Ġmeet ing
ill ing
Ġunderstand ing
ĠA c
ĠE l
ĠB rit
ÂĢ Â
Ġbeh av
Ġanal y
Ġstart ing
Ġim ages
n es
ent y
Ġre lease
ar ies
Ġin j
w ood
he st
ĠA ir
Ġcar ry
Ġpart ners
Ġcent er
ĠE very
Ġav oid
Ġd ru
ĠB ook
ĠC B
Ġabs olute
ant ly
Ġinde pend
p es
Ġcomm it
w ord
Ġmay be
Ġg reen
it ute
ĠIntern ational
om s
ĠA re
on st
Ġen h
Ġcour t
ĠCh ar
ĠH ome
Ġk itchen
Ġfor mer
ĠB ro
Ġpl aces
Ġimp lement
Ġdevelop ed
Ġcons ult
n s
Ġrest aur
Ġpolit ical
Ġsle ep
Ġlo ved
es ter
Ġtrad itional
Ġconne ct
Ġsh aring
ru it
m a
Ġa part
Ġtri ed
Ġpa id
Ġdiffe rence
ograph y
Ġj ud
it ation
c ul
Ġblo ck
ĠAs soci
ww w
Ġ +
Ġcon vers
m ore
Ġem erg
ffe e
Ġto wards
Ġfeel ing
Ġb irth
Ġey es
\\\\ \\\\
Ġhe ard
R e
ac hes
Ġad ult
Ġrespons ible
Ġgu ide
ch ange
Ġc ash
Ġwas n
rough t
Ġess ential
ĠC ons
us es
Ġfre qu
Ġachie ve
Ġ ðŁ
k er
Ġad minist
Ġre ve
Ġbusiness es
Ġbec ame
if orn
Ġuse ful
it ary
Ġmess age
Ġinfl u
Ġsl ow
bo ard
Ġwe l
am ed
ĠN et
Ġapplic ations
an c
ra ft
Ġn ut
Ġpat tern
Ġal tern
Ġcreat ing
ou l
Ġob ject
Ġtem per
Ġwa it
ĠF ree
Ġcont ain
ĠM ost
Ġe ffects
il es
Ġpro gress
Ġorgan ization
eng th
Ġlo g
ĠC our
ĠSu pp
Ġ ing
Ġemploy ees
Ġw al
ĠG reat
Ġprev ious
Ġtri p
ĠH ar
Ġchar ge
Ġb rows
Ġhe at
ĠA g
Ġpost s
Ġim ag
Ġimp ress
Ġprofess ion
Ġst ress
s p
Ġd ire
sy ch
Ġa im
Ġop in
Ġst ru
ĠD irect
Ġplan ning
il ies
Ġgrow ing
Ġcult ure
Ġnorm al
Ġdist ribut
Ġm is
ĠS er
ond on
iforn ia
Â ®
Ġt er
ur ning
Ġs on
ar a
Ġassoci ated
ib r
Ġappro pri
he t
ic ed
Ġd ress
Ġbro ad
Ġadv ant
ĠFace book
ĠJ es
ĠAm az
om en
Ġcommer cial
w ide
or age
Ġcom ments
ri al
Ġb ank
Ġdam age
7 0
ĠK ing
ĠJ apan
Ġg ave
' d
en ed
Ġf em
Ġp en
ĠM us
Ġnot ice
ĠB est
Ġ[ âĢ¦]
u ate
Ġcrus her
Ġown ers
Ġro ll
Ġe at
Ġm ark
A M
an cing
ĠL aw
an cy
se qu
augh ter
Ġregard ing
Ġp ow
A t
osp ital
Ġb ath
Ġeff ort
en ge
Ġsh op
ash ion
o ff
as hing
ĠS im
ar ter
pl ace
Ġbe gan
Ġinvest ment
u k
ro te
Ġsat isf
Ġde part
ĠDep artment
ren ch
a res
Ġde ad
Ġass ess
ĠS ci
ar i
Ġ ult
Ġh our
Ġinter view
ĠF irst
ad d
s et
ĠCan ada
Ġte le
ĠG l
Ġde fe
d own
Ġflo or
Ġm id
Ġoff ering
c are
Ġexpect ed
nd ed
Ġad just
ĠM r
Ġ2 2
Ġh us
r ast
ĠTr ans
Ġresp ond
Ġconst ruction
ag ue
Ġar riv
ic ations
du c
Ġoffe red
i am
od ay
Ġg as
ĠU p
Ġr ates
ĠR ed
Ġne igh
att le
Ġf ant
or ge
ĠComp any
ore s
ĠG ener
Ġ ;
Ġrele ased
ate ver
Ġextreme ly
id ents
Ġ ri
Ġac qu
Ġmov ing
ic a
Ġf arm
ĠD av
Ġdem and
Ġdise ase
Ġs ort
Ġst ates
v is
Ġpress ure
d om
Ġh ous
Ġc ateg
ĠG roup
se c
ĠSe e
Ġrepl ace
Ġmeas ure
Ġsp irit
ĠS an
Ġfl av
Ġtrans fer
A P
Ġpro pos
ĠD el
Ġwe ar
om ing
Ġth ous
Ġp ages
Ġ6 0
ke y
m itted
Ġre li
Ġ- -
Ġreport ed
Ġs av
Ġ2 3
Ġd y
Ġg ift
un t
ron ic
ind ing
ĠComm un
Ġimmedi ately
Ġhist or
Ġb aby
Ġsuccess ful
Ġprote ction
Ġcontin u
Ġeas ier
Ġl iter
Ġem ot
Ġmov ie
ic ks
Ġact ive
ĠCal ifornia
i pped
Ġev idence
ĠL et
Ġt ips
Ġk new
Ġsci ence
Ġs am
z z
Ġsm art
Ġbe yond
Ġb le
Ġk n
Ġbas is
Ġpre fer
p ite
ic ate
Ġste el
Ġcamp aign
Ġcomp on
pe cts
Ġd ating
err or
ur t
Ġbas ic
ĠC oun
ĠE ven
ĠW ar
Ġopportun ities
ist ics
Ġlot s
o ke
Ġl ack
Ġreg ion
v est
ĠS und
ĠR uss
ĠB usiness
ĠTe chn
a ks
ĠO ut
O ne
Ġaff ord
Ġca pt
s es
Ġcont ribut
Ġ âĢĻ
Ġbegin ning
Ġwant s
Ġocc ur
et ic
Ġfin ally
ĠM arket
Ġt en
ĠL ondon
Ġb rought
E O
Ġf ra
Ġp et
Ġpict ure
S h
Ġtal king
Ġgl ass
Ġse lection
ĠTr ump
E C
o ly
ĠFr iday
Ġl inks
Ġnum bers
ĠDes ign
Ġf at
Ġstra ight
ĠJes us
an ch
Ġeconom ic
Ġorgan iz
Ġv irt
Ġut il
Ġw ife
Ġsp read
Ġpro ced
Ġex ecut
ous ly
ain t
Ġlar gest
Ġf ather
Ġr ules
o ot
Ġh omes
ĠP ost
Ġey e
ĠNew s
Ġro ck
Ġbenef it
ĠPro f
Ġredu ce
Ġsci ent
Ġcomfort able
Ġsp ot
Ġg ar
il s
Ġopt im
am m
Ġgu id
edd ing
h ouse
P S
2 6
Ġche m
Ġfe et
Ġal one
Ġsh own
Ġpower ful
Ġturn ed
Ġjo in
Ġwee ke
Ġfr ame
Ġcl ient
Ġtr ade
Ġcol lege
ĠM any
iv il
Ġfam ilies
b on
Ġchang ed
ĠWe ll
Ġc old
O S
Ġd ro
Ġsur face
l ies
r ate
at o
U S
ĠAmaz on
Ġexperi enced
Ġrel ig
Ġelect ric
in ated
ĠG ood
al ing
id a
Ġhus band
Ġinf o
Ġcl in
Ġacc om
Ġre asons
à ¤
Ġsp ent
Ġhelp ful
Ġ2 8
Ġma xim
ĠEurope an
B e
Ġmod els
2 7
Ġvide os
a ult
ĠM od
Ġex tend
il ing
Ġb atter
Ġn ation
Ġschool s
Ġprin ci
Ġser ve
p en
Ġ =
Ġswe et
ĠAustral ia
Ġc ry
ĠAs s
und red
v ille
Ġhelp ing
Ġex clus
c ol
ri ve
Ġjour ney
Ġparticular ly
r is
Ġhot el
2 00
Ġident ify
Ġlook ed
ĠM et
Ġide al
ĠP at
Ġpol ice
Ġinc red
Ġme chan
lo ck
Ġdev ices
Ġl ed
Ġtit le
Ġest ate
m ail
Ġar r
A fter
por ate
ĠP riv
Ġhig hest
Ġcl ot
2 8
ĠM ich
Ġtr uth
pos es
Ġtrans port
Ġset ting
Ġphot o
Ġref er
ly ing
ĠO ther
Ġ2 6
Ġde gree
Ġb and
ĠE ast
E T
Ġinst itut
Ġsh ared
te e
ond ay
Ġu nd
IN G
Ġincre ased
ac ity
b um
es tern
ĠE duc
Ġ200 6
Ġhim self
ĠCol lege
Ġp ull
Ġ @
E x
Ġrem ain
Ġprodu ce
Ġdou b
Ġ19 8
Ġinc ome
ak er
hen s
L L
er ia
Ġf ear
Ġover all
Ġare n
am ing
Ġw rote
Ġfin ish
ĠPro gram
Ġappropri ate
Ġpost ed
Ġpl us
Ġst age
Ġbud get
Ġstruct ure
Ġreci pe
Ġev al
Ġstreng th
Ġhelp ed
for ce
Ġjo bs
Ġocc as
Ġc ru
Ġv ict
es ome
olog ies
Ġincre asing
ic king
ove red
Ġstud ies
c ause
Ġple as
r ated
Ġh op
lo g
ident ial
Ġpart ner
Ġnear ly
Ġth reat
Ġcreat ive
ce l
Ġcap ital
Ġsur v
Ġpur poses
Ġsec ure
Ġs ust
we ll
Ġact ual
Ġallow ed
Ġser ious
ro l
ist ry
Ġsp orts
Ġother wise
Ġplay ed
Ġprocess ing
al d
ĠInd ian
Ġplay er
al t
ĠSund ay
Ġstate ment
Ġing red
Ġres ist
Ġfil es
Ġord ers
Ġstep s
h y
Ġal though
Ġgener ally
ed s
Ġconne ction
Ġl ines
Ġstru gg
A D
Ġdo ll
Ġgo als
h ol
Ġw ild
Ġapp oint
" .
Ġpict ures
rap y
f ree
as c
ord er
Ġcont ains
Ġ2 7
in y
Ġmethod s
Ġpart ies
ĠCl ick
ĠP ort
Ġl ength
Ġst orage
Ġlist ed
Ġun it
Ġco ffee
ub s
ang ing
Ġy e
o ices
do or
Ġgu ys
Ġa ward
ol f
Ġwe ather
Ġcon ven
Ġcan cer
od es
Ġt ick
ra w
ic ing
Ġpre c
2 9
Ġgreat er
Ġh arm
ĠPol icy
pect ive
Ġcomp ared
Ġown er
Ġsur round
in ate
as y
ĠU se
ĠS en
un k
or row
an i
Ġcon v
Ġcol le
Ġview s
Ġm iddle
ĠL a
Ġbott om
ĠWh ite
Ġst y
ĠB el
Ġv ot
Ġprim ary
Ġco ve
e ed
Ġthere fore
A r
l in
al ed
_ _
Ã ¯
P h
Ġfor ce
Ġpat ient
3 5
Ġpl ants
Ġt rou
Ġg rand
Ġha ven
Ġc ards
ĠL ear
Ġsho pping
i ant
en cies
u gh
ines e
âĢĿ ,
re ed
ĠE ar
Ġsee ing
ĠW ind
it iz
Ġno vel
Ġcand id
Ġlo ck
oc r
Ġrep orts
Ġh undred
Ġb orn
Ġcould n
f ord
Ġdou ble
il er
Ġ ir
i ber
ĠR em
Ġdisc over
Ġra ce
and emic
ĠD ist
Ġso ciety
Ġst ream
at ically
Ġde lic
Ġpe ace
Ġexist ing
ter m
Ġdem onst
Ġsy m
et t
O U
ound s
Ġtop ic
Ġpie ces
ĠSy stem
Ġd en
Ġfa ith
arr ant
por ary
in ner
Ġart icles
Ġwebs ites
Th at
Ġs and
ĠM onday
Ġrele vant
ing er
Ġstrateg y
Ġeffic ient
Ġheav y
Ġtechn ical
Ġcra ft
Ġbl ue
Ġproper ties
ĠTe x
Ġsl ight
Ġcharact ers
ĠC le
Ġa head
Ġper haps
B C
Ġear lier
Ġannoun ced
Ġf an
Ġrest rict
Ġpr ay
ĠW he
Ġhtt p
Ġexperi ences
ative ly
Ġf urn
Ġpo ol
Ġwho se
Ġrem ove
ĠSu per
ĠS atur
ĠO b
Ġman age
Ġch urch
ic o
it ude
Ġn ames
com ing
Ġent ertain
Ġpass ion
Ġfind ing
ĠSt reet
er o
Ġrequ ires
ook ing
Ġtrans l
ĠH ot
Ġestab lished
7 5
Ġch ann
us ion
ra el
4 5
Ġorig in
te xt
m ark
Ġrep air
ic ip
Ġb reat
Ġtra in
g al
us ing
Ġdec or
ĠD em
Ġexper ts
A A
Ġabsolute ly
ic ine
p m
Ġc ast
Ġcoll abor
Ġfact ors
s hip
Ġgu ess
Ġob v
Ġback ground
Ġgirl s
Ġp u
Ġp sych
oo s
Ġb rain
Ġb ur
Ġupd ate
ĠG old
Ġweeke nd
Ġhappen ed
l a
nd ing
Ġsh ip
ĠF rench
du le
Ġass ign
qu e
ten ance
Ġpo or
iqu es
Ġmention ed
y ing
ĠI r
Ġstat us
Ġret ail
Ġchall enge
land s
Ġl uck
H i
Ġaff ili
im ent
Ġes c
ĠE ach
am ent
Ġal bum
ĠS ince
Ġv oice
p ress
Ġwh atever
I P
g en
ĠCour t
Ġfriend ly
Ġatt ract
Ġpain t
Ġcove red
ĠG reen
Ġd ang
Ġsu ff
p a
Ġstand ards
Ġm icro
Ġf ashion
Ġdi et
ĠO ver
Ġfe es
Ġt ree
ĠS k
e ch
3 3
Ġrel ax
g age
ĠCl ass
Ġd aughter
Ġt im
Ġs en
i ation
ri ef
Ġhon est
Ġm aster
Ġpop ulation
Ġg one
Ġant i
Ġm o
ĠRe c
Ġr ich
Ġmov ed
Ġg arden
Ġcrit ical
ite ct
it ure
Ġb ul
ĠL ord
Ġbuy ing
ĠWh y
ap ter
Ġtest ing
Ġold er
ĠJ e
Ġre ality
stand ing
i pe
Ġd at
Ġpriv acy
Ġfig ure
Ġteam s
f ield
is c
Ġpro s
B y
Ġf lex
Ġun f
os ing
ĠOn ce
rou d
Ġprodu ced
Ġtra ffic
ĠI I
as ks
Ġd ur
Ġac ad
P ro
Ġdriv ing
Ġfollow ed
Ġcommun ication
ĠIntern et
Ġent ry
ĠDe velop
ar c
Ġexp and
ĠM a
Ġb an
Ġmil itary
Ġded icated
P lease
Ġd rop
Ġlim it
Ġlar ger
Ġg raph
Ġdisc ount
Ġann ual
Ġlearn ed
ĠChrist ian
Ġmove ment
se e
Ġke pt
ra b
ĠC ustom
Ġp andemic
Ġval id
Ġcol ors
Ġr at
Ġf ol
Ġar gu
ĠBo ard
ĠC are
Ġte aching
Ġcell s
ĠSatur day
Ġinc or
The se
ro id
Ġad op
Ġpl aced
ĠF ind
" ,
Ġhand le
1 00
Ġst ar
ĠIn ter
Ġgu y
i j
un n
ĠCB D
Ġadvert ising
Ġst one
Ġun less
Ġcan n
ĠP al
ens es
ĠOn line
Ġadvant age
Ġadv ance
bo x
Ġmil es
ĠPe ople
ĠH ol
ru pt
Ġsmo oth
ĠP C
ĠSe lect
ĠD ata
Ġsh ape
ĠY ear
ven ue
ĠBrit ish
v ision
rib ute
ph one
ĠCh urch
Ġindepend ent
ĠIn formation
re m
ĠOff ice
Ġb ag
Ġcomple ted
ĠMan agement
Ġeff orts
Ġchalleng es
ĠTex as
Ġwould n
ct ors
a el
ĠA P
ĠEduc ation
f ast
Ġcent ury
M S
Ġw edding
Ġbut ton
D o
Ġm ist
Ġb ought
ac ing
a ctions
Ġre pe
Ġ2 9
Ġexerc ise
o llow
os ure
Ġsc ore
ĠCoun cil
ĠCh inese
Ġcap acity
Ġm er
C om
em y
6 5
Ġmet al
Ġprofession als
Ġw at
y m
Ġpack age
ortun ately
N o
Ġvac c
Ġbal ance
Ġm ission
Ġl ands
Ġear th
Ġte nd
Ġkeep ing
ĠS ch
Ġf ill
Ġbro ther
Ġwind ow
b u
Ġinvest ig
Ġh om
ugh t
Ġknow s
r im
Ġestab lish
Ġon to
Ġappreci ate
Ġfin ished
Ġbill ion
Ġval ues
ĠS pr
Ġform s
k now
Ġdis app
ĠPl ay
Ġclean ing
ent ed
Ġf ans
ashing ton
Ġcre am
ĠM or
ul a
Ġopen ing
Ġadv anced
Ġwin ter
Ġlaw s
O M
L C
ĠS a
Ġcomp l
Ġv ill
Ġele ments
Ġthough ts
ol ic
ĠB ra
Ġc ab
Ġra re
Ġdescrib ed
use um
Ġ8 0
ĠT op
il ed
ĠFl or
Ġli br
r ig
Ġdet e
ĠUS A
ĠBe cause
Ġlet ter
Ġdec l
ĠI T
Ġwa iting
or ial
Ġsho ot
Ġhol iday
Ġb ow
ĠRe view
3 1
i ency
ad ing
ar ge
Ġst o
Ġorganiz ations
ĠWe b
wor ks
Ġadv ent
Ġep is
L E
Ġdeterm ine
Ġwork ers
Ġme ant
ĠIs rael
Ġbeaut y
Ġclass ic
Ġtemper ature
Ġthous ands
ĠA nt
Ġexpl ore
Ġupd ated
f it
Ġmot or
ĠAfric a
om an
Ġsol id
ĠRes earch
Ġdo ctor
ail s
ve re
â Ħ
Ġsc en
re y
re hens
Ġhapp ens
Ġadd ing
ĠA N
he m
ĠEng ine
ol ate
m iss
Ġm ort
ad s
Wh ile
Ġim pl
Ġche ap
i os
Ġwel come
Ġcr is
Ġcommun ities
ĠPl an
Ġmem ory
Ġpract ices
Ġref lect
Ġbig gest
9 0
ĠChe ck
ĠT erm
Ġb oy
ri age
Ġca used
o very
ĠR el
ĠL ife
Ġcl osed
Ġrem ind
Ġsex ual
ad y
ent ially
Ġpresent ed
ĠW ord
Ġdi agn
Ġoper ations
Ġle aves
it ors
ĠAssoci ation
ĠT y
Ġf ederal
Ġsh ot
ĠR et
ĠIn s
Ġn amed
ĠP ay
Ġs ources
am ily
Ġclaim s
ĠA v
Ġeconom y
ick en
Ġgo vern
re es
Ġtot ally
l s
Ġcall s
Ġbec omes
Ġt aste
Ġg ain
ic ies
is hes
Ġ9 0
ive red
Ġpass ed
Ġserv ed
is l
Ġopin ion
Ġfl u
ĠRep ublic
Ġcirc um
Ġw arrant
Ġsust ain
ĠGener al
âĦ ¢
5 00
Ġqu ant
Ġrelationship s
ĠL ove
Ġcar s
Ġconne cted
Ġbrows er
Ġ ign
fe rences
Ġex change
ar ks
Ġdire ction
Ġpl enty
ĠPh ot
g a
Ġbed room
ll ed
ĠW ashington
Ġdec ide
Ġhigh light
ĠW ed
Ġbr ight
y er
ĠS ing
Ġfab ric
ĠAn n
Ġlo se
Ġselect ed
Ġcann ab
ĠDav id
st on
Ġb on
ĠM ac
im b
tern al
Â ¯
Ġlead er
omm od
Ġprovid er
ol es
Ġsp ring
Ġmain tenance
ĠJ ew
Ġfant astic
Ġun c
ĠV is
ĠF ound
se mb
ĠM em
Ġcam era
Ġconf irm
Ġregist ered
Ġgr ant
ĠI N
Ġclear ly
ic on
Ġ200 5
ĠP ublic
ap ers
Ġcal cul
ll er
Ġrespons ibility
st ate
Ġfe e
Ġem p
Ġpro t
om b
Ġnum erous
Ġingred ients
Ġp roud
ĠEng land
Ġmed ium
or ry
u ps
Ġcomb ination
Ġfor get
g n
ify ing
Ġro b
Ġp ark
ĠL oc
Ġoper ating
Ġcomp ar
ĠDe c
Ġsit u
Ġsepar ate
Ġprep ared
S S
ĠJ ack
Ġenjoy ed
ĠC ong
ro s
Ġse lling
oo p
ues day
Ġsec ret
Ġgl ad
Ġe th
Ġapp lied
os is
Ġser ver
Ġfl at
Ġwor ry
C l
Ġfam ous
h ow
ĠB ank
Ġchang ing
ud d
ab ilities
ĠS ub
Ġbehav ior
I ON
z a
Ġst ick
Ġagree ment
Ġinte nded
Ġra p
Ġcent ral
Ġrecommend ed
Ġaw esome
Y our
Ġdevelop ing
Ġsound s
it ar
Ġc art
Ġinit i
Ġm ental
Ġdetail ed
ĠM o
Ġa ctions
Ġcoun ter
Ġn av
Ġth us
Ġclass es
Ġto m
ĠM ake
Ġex hib
Ġt on
Ġb oo
um ber
Ġch at
Ġjour nal
Ġbrand s
Ġbe g
t ra
Ġr an
is ation
g ment
Ġmost ly
erson al
E M
Ġwatch ing
c raft
Ġtyp ically
Ġreli able
Ġest im
ĠMon th
erv ation
ĠPa ul
Ġtechn iques
Ġad apt
Ġse ven
ĠW ater
ĠM ag
ĠV e
3 6
Ġw ine
Ġfund s
? ?
O L
act ive
Ġcour ses
Ġmajor ity
Ġshow ing
* *
Ġ3 1
Ġcl oud
Ġdiscuss ion
ĠAl though
Ġaltern ative
Ġ ice
ĠH y
U n
r d
Ġexc ited
r ics
ag ram
ĠS T
b l
ĠIt s
Ġdel ivered
un ction
t op
ĠRo ad
Ġanim als
Ġn or
Ġpol icies
Ġh ospital
ot a
ĠF ood
Ġst reet
ll ig
Ġenh ance
Ġsmall er
Ġfore ign
ĠAn ge
ĠP ower
ul ated
um an
Ġrecord s
C C
k ed
hip s
ress ion
I M
Ġsche dule
ĠC ap
Ġst ation
y n
Ġpl astic
Ġdis p
est ic
ck et
Ġf ish
Ġmeas ures
Ġdesign s
ĠRe al
Ġc ore
? âĢĿ
um in
urs day
Ġappear s
if ts
Ġbec oming
Ġ7 0
Ġproper ly
Ġdist ance
Ġup gr
Ġchem ical
Ġ >
ĠL ake
Ġfac ilities
Ġsu gar
Ġaud ience
D A
N ow
Ġgood s
Ġt ask
in ct
Ġinit ial
Ġe ight
ri er
un ning
Ġcon cent
Ġmaxim um
Ġind ic
Ġacc ommod
Ġmult i
I V
N A
Ġdru g
h i
Ġread ers
Ġwill ing
Ġal le
Ġd ut
ĠE v
Ġblo gg
ĠL ike
Ġprof ile
ĠB ay
Ġwas te
E L
r ical
ĠH el
Ġpred ict
w ith
b ut
ĠV iew
Ġag ency
ĠV ol
Ġpres ident
!! !
Ġminim um
3 9
3 4
Ġcl ub
ĠPriv acy
Ġthem e
Ġv ary
Ġart ist
ĠH all
Th ank
Ġe gg
The y
ĠS ur
k a
ĠC ur
it ness
Ġs ession
nes day
se y
ĠInst itute
ad o
Ġrem ote
Ġdec isions
on av
Ġoper ation
Ġencoura ge
Ġfem ale
go ing
ĠM icro
Ġl ux
Ġsur g
Ġcomm itted
Ġdocu ments
Ġguarant ee
on a
r or
ĠL o
Ġpres ence
Ġroom s
Ġc itiz
Ġprocess es
Th anks
n et
ĠGo vernment
Ġcl imate
Ġc ivil
ĠF ore
Ġaccur ate
Ġupd ates
ĠD own
Ġexc iting
Ġd ied
Ġc up
Ġle aving
Ġbr ings
ck ing
res p
um n
ĠB ig
ĠM al
Ġcomp rehens
Ġany where
Ġr id
Ġinstall ation
ĠS am
ĠC am
ĠU nder
ĠFlor ida
Ġ19 7
Ġs now
Ġob l
Ġse m
Ġcontin ued
Ġspend ing
Ġteac her
Ġvis ual
Ġdepend ing
Ġth ick
Ġhy d
ĠO h
Ġbatter y
y a
Ġr ule
Ġve get
Ġse ctor
Ġg un
Ġreturn ed
ffic ient
un te
ri e
oc olate
Ġe ating
re te
Ġsym pt
Ġrem ains
ĠM ount
ir ation
Ġfocus ed
onav irus
i xt
Ġar m
N ot
Ġd u
Ġvisit ors
Ġdo gs
lud ing
Ġre ference
3 2
Ġde als
om a
p et
Ġcon text
ili ar
Ġla unch
Ġloc ations
ĠSci ence
Ġsu itable
Ġassist ance
ĠG lo
know n
ĠCont in
ĠT uesday
u able
Ġref und
Ġgu ests
ĠComm ission
ant ic
Ġout door
Ġto ward
N ew
am in
Ġcontin ues
Ġneg ative
Ġsw itch
Ġlove ly
ĠT oday
Ġexpl ain
Ġvis ion
Ġsc ale
Ġcons id
ag o
ci ent
i ers
ĠI S
Ġm ine
f riend
Ġde pos
ĠS al
9 5
ĠO pen
Ġinte llig
Ġspecific ally
Ġk id
Ġexp ensive
ĠE lect
Ġdri ver
Ġc atch
ĠM ill
D e
I s
Ġp air
ĠCh ild
ĠJ ames
f r
Ġslight ly
Ġstart s
Ġindust rial
ific ations
4 4
Ġsett ings
Ġform at
Ġspec ies
Ġarr ange
Ġp al
xim ately
Ġcons ent
l ist
Ġend ed
Ġman aged
el ess
Ġdoub t
n o
Ġ Ã¢
Ġcol our
Ġlist en
ĠS il
Ġcas ino
Ġfeel s
Ġ <
Ġk ill
ĠProf ess
Ġprev iously
Ġpl ug
Ġqu arter
b ed
Ġmarket s
Ġs pl
ĠW ork
ĠM il
Ġput ting
ĠCon st
Ġ ur
Ġman ner
Ġrestaur ant
Ġsu mm
ĠSpe cial
ĠTh ursday
Ġdat ab
Ġd im
qu ality
Ġwrit er
Ġde le
Ġarch itect
Ġmanufacture r
m en
h op
Ġsee king
Ġshow ed
Ġcircum st
ĠApp le
Ġveh icles
Ġse a
ĠY es
ĠJ er
an ish
Ġopen ed
ĠW in
p oint
Ġdisc overed
ĠR ock
Ġbath room
et te
ĠM ary
ĠS l
Ġdirect or
Ġtrans form
so ft
ĠB re
l ife
Ġill ust
Ġstore s
Ġas king
ĠAr ch
D F
ĠL at
b re
Ġcompon ents
ĠPro du
Ġess ay
Â Ń
Ġa p
ul ate
ĠWed nesday
ĠS un
oo per
Ġposs ibly
crib e
s pe
ĠT ime
Ġs ch
Ġsee k
Ġart ists
Ġso le
Ġsc ene
Ġprovid ers
m p
3 8
Ġcover age
Ġdelic ious
at ures
ĠCl ub
Ġconsum ers
Ġfun ctions
Ġeven ing
wh ich
az ine
Ġcon duct
Ġnot es
Ġdr ink
Ġfre ed
Ġteac hers
Ġset s
os ition
Ġwal king
Ġremov ed
Ġd er
cept ion
Ġs outh
ĠDirect or
Ġun its
Ġres idents
t ion
Ġspe ct
ĠThe ir
ĠR ich
Ġconcer ns
i pp
Ġw ww
Ġour selves
ak ed
P A
y al
ĠM ex
Ġc red
Ġh ar
a j
Ġw ire
ĠN OT
ĠR iver
S e
Ġmin ute
Ġth r
Ġv irus
ree k
Ġdes ire
Ġbe ach
Ġli qu
Ġreal ize
ruct ure
el ines
Ġstrateg ies
I G
Ġcompet ition
Ġcont em
Ġma p
Ġro of
Ġconf ig
Ġm outh
out hern
Ġte ach
Ġb ird
Ġf illed
row d
Ġra in
Ġ3 5
Ġm ale
Ġafford able
ĠSt ar
Ġs oul
w in
Ġbe ar
og rap
u ce
ĠWind ows
Ġneigh bor
Ġdes pite
ic ians
ĠGerm an
ĠP et
all s
Ġgener ation
Ġr ide
ĠH ave
Ġallow ing
co hol
Ġman ager
ĠComm it
âĢ¦ .
wh at
ĠSt r
ra ce
T S
Ġchar ges
ĠMed ical
or ney
Ġst ars
Ġdepart ment
Ġb ike
3 7
Ġ iron
e ared
Ġjo int
Ġf old
o ll
Ġautom atically
Ġbus y
ĠPh il
Ġintern al
R A
ul ations
Ġmanufact uring
Ġvol ume
Ġpro ceed
O W
Ġass um
Ġy es
Ġtre es
Ġfu el
idd en
ĠI D
ĠA M
Ġpo ly
Ġ Ð
n ight
ot ic
Ġsp ort
Ġlands c
ĠM at
Ġtrad ing
ri p
Ġcomb ined
Ġleaders hip
Ġappro ved
Ġtri al
fe ction
ĠTw itter
r ad
Ġlead s
t d
he nt
Ġcomm and
ĠD et
Ġdist rict
Ġprem ium
Ġfav our
Ĥ ¬
Ġprom ote
Ġserv ing
Ġla un
Ġfix ed
Ġqu ot
Ġinstru ctions
ĠL ist
Ġvirt ual
Ġf ruit
Ġpurch ased
ĠDevelop ment
Ġacad emic
f in
Ġfor g
ĠH ist
ĠS um
Ġdeb t
Ġtechn ologies
Ġmot iv
Ġaccount s
S ome
o e
ant a
est yle
um s
ĠM art
Ġmiss ing
Ġtop ics
ri an
Ġsong s
4 8
Ġj ump
ro y
ĠL ight
c ont
Ġc ities
Ġb ound
Ġb ond
Ġl abor
ĠSo cial
os es
Ġra ised
Ġsc hed
an ing
Ġfoot ball
ĠC amp
5 5
z er
Ġas pects
est ival
P l
Ġinstall ed
Ġenvironment al
Ġdy nam
h ab
Ġansw ers
Ġst ated
Ġperform ed
Ġprote cted
Ġr ub
l or
Ġwh om
Ġch oices
ĠB et
Ġkind s
Ġb rief
Ġcor porate
ĠðŁ Ļ
ĠI P
Ġinterest s
Ġ error
ï¿½ ï¿½
ort hern
ĠL im
te red
Ġj u
Ġmin ing
Ġph il
ĠCommun ity
Ġrun s
Ġto w
Ġco vers
a e
Ġsy mb
ur d
Ġflow ers
ĠWe bs
Ġa f
Ġfeed back
ĠR E
Ġsh ut
ul ed
Ġd inner
ĠMich ael
ĠCent ral
is co
ĠQ ue
ĠE qu
Ġpub lish
Ġcon ference
Ġse at
Ġ er
Ġro t
ad ian
rel ated
Ġen able
os en
i est
ĠDist rict
Ġcomprehens ive
in ations
\\\\\\\\ \\\\\\\\
ĠS ite
D es
ĠO il
Ġreason able
Ġch art
ĠIs land
Ġemerg ency
Ġsp o
Ġsympt oms
ĠTerm s
ĠF orm
Ġappro ximately
b our
Ġinj ury
ĠW omen
out s
Ġmar ried
ĠR ob
ĠC D
Ġmov ies
Ġcor ner
od ies
Ġ5 00
Ġown ed
ill a
Ġe lement
Ġcook ing
Ġqu iet
Ġleg isl
ĠSt and
Ġd ie
Ġinflu ence
Ġf aster
ĠM iss
ĠBl ue
Ġcult ural
ĠH ind
Ġacc ident
Ġpan el
Ġun s
Ġp ure
en cing
Ġanim al
Ġmen u
I L
ĠM ot
Ġinsp ired
Ġte a
Ġreci pes
Ġvisit ing
Ġm ut
Ġhe aring
Ġp un
Ġdes k
Ġ rom
Ġperfect ly
Ġed ge
omet imes
ĠB ill
al ian
Ġ200 4
Ġse qu
Ġexpert ise
Ġth row
Ġbe at
Ġcr im
Ġfac ility
Ġmin or
Ġexclus ive
Ġimport ance
ĠW ood
Ġseem ed
in ating
f ol
ĠF ire
Ġconvers ation
y ou
Ġeduc ational
ĠR oy
Ġpract ical
Ġapplic able
ĠM ark
ĠA C
Ġadult s
ĠC ook
ĠT ur
Ġo k
ĠE U
Ġth read
Ġg ather
Ġsen ior
Ġwe ak
ĠT ake
Ġconf idence
ak ers
Ġthe ory
Ġclin ical
Ġc op
ĠN Y
ĠM ain
m es
Ġprep are
Ġs izes
ĠP R
ĠA tt
Ġsu it
Ġn orth
ne ver
ic ian
p an
Ġres ource
ĠS ol
ur ies
Ġaud io
B A
Ġvict im
Ġinnov ative
ĠKe ep
Ġaccom pl
Ġlibr ary
Ġbro wn
Ġworld wide
Ġr ise
Ġcall ing
Ġpro p
Ġlic ense
ĠCommit tee
Ġc ake
l am
ĠAc ad
ul ous
Ġfam iliar
Ġprote in
Ġrap id
ĠAfric an
ild ing
Ġoccas ion
Ġapp eal
ĠC all
Ġb urn
Ġknow ing
ĠPro v
Ġmar riage
Ġful f
ĠOr gan
ĠB oth
ester day
o or
m et
Ġv ote
or ter
Ġreg ister
Ġst ret
ĠOn ly
Ġpay ments
Ġmag n
Ġcircumst ances
ce an
Ġinst ance
Ġel im
ess ions
Ġe lection
Ġscient ific
li ers
ĠB ack
Ġfact or
Ġcon du
z en
ed y
ĠJapan ese
Ġmil k
Ġincred ible
Ġdistribut ion
Ġfurn iture
Ġbut ter
ĠP M
Ġexam ples
Ġmach ines
Ġsqu are
Ġmonth ly
Ġm ir
ĠðŁĻ Ĥ
Ġadminist ration
erv es
ĠPr ice
Ġdec re
k in
Ġv ent
el come
Ġevent ually
Ġt ast
Ġfl ight
Ġcon sequ
Ġgr ade
p al
ir gin
ĠGerm any
ab led
ĠJ an
L e
Ġj oy
Ġsupport ed
ar io
ĠF amily
x y
augh t
ci pl
Ġvol unte
Ġcateg ory
Ġconven ient
ĠEar th
Ġsupport ing
Ġv s
tt ers
ĠFr ance
ĠH ill
ll s
Ġc rowd
het ic
Ġs ad
as er
h t
or ough
Ġsim pl
ĠInd ust
Ġt ight
Ġperson ally
ck now
A G
w ater
we ight
Ġpre gn
Ġm ent
Ġl ived
Ġne ck
Ġsign s
ol ars
Ġun iversity
ual ity
Ġsupp osed
Ġsc ript
ĠPro te
Ġsur vey
Ġrep ut
Ġr ing
st e
Ġepis ode
Ġp ush
" :
ĠM er
Ġma il
T C
Ġch ain
Ġbel ong
Ġco ast
ĠG rand
c les
Ġengine ering
ĠB en
ĠWhe ther
He re
Ġca uses
ĠFound ation
Ġcomp lic
Ġs itting
Ġbelie f
Ġcompet itive
Ġdec ades
ĠMay be
8 8
ag ers
Ġt ail
ĠD uring
Ġre ached
Ġthe rapy
ĠD ig
Ġsh ap
ĠCol or
Ġval uable
Ġag ent
Ġan g
Ġsc r
Ġregular ly
Ġn urs
Ġel ig
ĠK ore
ĠâĢ ¢
Ġme at
ĠT est
D on
Ġdis h
Ġmod e
Ġme al
ĠSec urity
Ġimag ine
l ines
i ance
Ġfood s
Ġannoun ce
Ġp od
ĠL ou
Ġbring ing
Ġs an
Ġconsum er
li ance
Ġ19 6
Ġelect ronic
ĠTechn ology
Ġaut h
p ot
Ġrece iving
Ġrad io
x i
Ġpers pective
iven ess
ĠPl us
Ġredu ced
Ġp ump
an o
Ġdeterm ined
ĠTw o
F rom
ĠSer ies
w ing
Ġlic ens
4 9
) :
Ġfreed om
ĠTH E
Ġsw im
Ġintrodu ced
Ġhold ing
Ġpay ing
ra g
e per
i us
Ġboo st
Ġreturn s
ber t
k i
Ġocc up
ition ally
ĠC ard
Ġt ough
Ġtest s
Ġrec overy
ĠEx per
S he
Ġjo ined
ut s
E very
Ġapp s
ĠMed ia
u ine
resp ond
Ġsignificant ly
as p
ind er
Ġhundred s
Ġcare fully
Ġ4 5
v ention
ĠR ober
ĠW estern
Ġconsid ering
app y
Ġcris is
Ġconf lic
pect ed
Ġde light
ĠPart y
Ġlab el
ĠS ign
ist an
Y es
Ġdef ined
ĠT or
ĠTh om
ĠLear n
Ġwor se
Ġt ag
Ġrestaur ants
Ġv it
O P
us hing
wh ile
rast ructure
Ġcrus hing
ain less
le ts
ĠCont act
Ġfund ing
Ġb attle
oss ible
Ġeffect ively
ĠUn ion
ĠAut hor
Ġappear ance
h tt
Ġauthor ity
it ate
Ġa cknow
ĠM aster
pr ise
Ġde g
Ġh un
! )
Ġmat ters
Ġconst ruct
Ġwe aring
Ġsh ares
Ġadv is
ĠAmeric ans
C on
Ġgreat est
Ġsign ed
ll a
Ġsur f
ĠA lex
Ġfail ure
ĠWh o
Ġdatab ase
and er
Ġcre ation
pre ne
ĠEn ter
Ġemploy ee
Ġbro ken
Ġconst antly
ĠF ull
uc le
Ġaccept ed
ĠCong ress
Ġhealth care
Ġeffic iency
ĠW here
P ost
ĠH am
Ġmess ages
we et
Ġtre ated
T H
Ġhous ing
oos ing
av a
ens ions
Ġcent re
Ġspe aking
Ġaut o
e qu
Ġsub mit
Ġbl ess
ic ial
Ġyou th
4 7
Ġed itor
Ġiss ued
i at
ib ilities
amp ions
ĠWebs ite
ĠT om
J ust
Ġpar king
Ġmanufacture rs
Ġd ial
4 6
er ies
Ġwin ning
S A
or ation
Ġmain ly
Ġa id
re prene
j o
in i
Ġfield s
Ġsam ple
Ġequ al
Ġch ocolate
Ġaffect ed
ĠDem ocr
Ġs ides
ĠIn vest
Ġe c
Ġentire ly
Ġs ister
g reg
ro ad
Ġfe llow
Ġfol ks
Ġg ear
Ġext ensive
Ġun ivers
Ġlight s
Ġ20 00
Ġra nd
Ġsecond s
Ġch air
v in
Ġcut ting
Ġtest ed
Ġwe ap
Ġevery day
Ġfrequ ently
R ead
Ġt ut
ĠGe orge
Ġgu est
ast s
Ġk ing
Ġident ified
Ġtrou ble
ĠTe am
Ġhouse hold
dd en
ĠM el
Ġhistor ical
Ġfil ter
ĠPro ject
S C
ult y
e en
Ġorgan ic
ĠO ld
ĠL td
ar ian
ĠJ our
O D
ne ct
Ġcitiz ens
Ġrese arc
ĠAcc ording
ĠM ass
O C
ĠO ffic
J o
Ġis land
re ens
Ġcar ried
Ġpl ate
ang es
Ġk illed
Ġkeep s
I A
Ġdel ay
ĠP ack
aw ay
Ġg all
ĠW al
Ġper man
Ġbirth day
t r
ĠSh ow
Ġchann el
Ġ %
Ġal cohol
Ġcollect ed
ĠP ress
Ġdi am
Ġch icken
ĠRuss ian
ĠF il
Ġmass ive
Ġpleas ure
i i
Ġbo at
Ġlif estyle
Ġsymb ol
Ġmed icine
Ġlo ves
Ġphot ograph
u ction
c her
and a
ĠMus ic
ĠM ach
Ġreplace ment
g l
ĠL ong
ĠM en
Ġdes cription
Ġbig ger
n el
ou nder
Ġcab in
Ġaut hent
Ġm al
Ġimpro ved
Ġsu dden
v an
ar p
ĠBe ach
ĠD iv
Ġrand om
Ġturn s
Ġacc ord
urb an
ĠCar ol
u u
Ġnot iced
Ġam b
Ġident ity
ĠS to
Ġpattern s
Ġregist ration
Ġb read
Ġch osen
Ġf le
Ġse vere
os oph
os ite
Ġv an
Ġviol ence
ber g
s m
. !
ang ed
Ġcar bon
Ġapart ment
al og
Ġsh ock
Ġs ac
h and
ell o
p ay
Ġconcer ned
ĠGlo bal
Ġregul ations
Ġfor ces
Ġrelig ious
Ġsearch ing
u ated
Ġsal t
Ġra ise
I R
Ġlaun ched
ir med
Ġout put
rom e
Ġfact s
Ġco ord
Ġass ets
ĠĠ ĠĠ
Ġbreak fast
Ġarriv ed
atur ally
âĢ ĺ
Ġte lling
c a
Ġcommit ment
Ġsto pped
Ġg rown
) ;
Ġcomm ission
âĢĻ .
Ġwhe el
Ġexpress ion
ĠIt alian
Ġph arm
Ġproced ure
Ġin put
Ġtell s
Ġf ro
Ġdom ain
Ġw id
Ġsho es
P R
Ġfor ced
A d
ig ration
Ġinter ior
Ġinc l
ĠSt art
Ġro ot
I F
ĠU N
ĠN or
all ed
ren cy
it a
ĠLe ad
ĠC ode
Ġf ly
ĠT re
Ġtem pl
is her
Ġar g
Ġhappen ing
ph as
h us
ĠP ri
n oon
Ġwind ows
Ġstand ing
le ments
Ġte en
ĠL u
ĠVal ley
ic ago
sec ut
Ġ3 00
d en
ord s
C H
Ġguid ance
Ġo dd
ri a
ĠAustral ian
ĠHe ad
Ġauth ors
Ġj ack
Ġg ro
Ġproced ures
Ġcor respond
r um
Ġdoll ars
ĠL og
Ġre new
Ġconcer n
ĠV ict
ĠMin ister
ĠO per
Ġliqu id
ĠAb out
Ġpl ays
Ġneighbor hood
ĠSupp ort
ĠL ast
Ġsol ar
ĠS et
ĠC ov
im ately
ab et
ĠM ad
Ġcor onavirus
Ġapp eared
ĠAs ia
m ade
Ġwide ly
Ġn one
a it
ĠThere fore
ĠW all
Ġemot ional
Ġlay er
Ġmom ents
ĠCan adian
Ġex ternal
Ġs in
Ġsurg ery
Ġbe aring
ĠSo ft
Ġbuild ings
ĠF und
ĠSte el
Ġbas k
ĠC y
Ġclot hes
ol ve
Ġche ese
Ġadminist r
S P
Ġmo ist
Ġtw ice
Ġ200 3
Ġend s
Ġus ual
Ġdru gs
Ġdo ors
ĠL ibr
Ġta ught
Ġex cess
Ġemploy ment
Ġparticip ants
ĠC ert
Ġpro of
A pp
ir ty
ĠR ad
por ation
r ition
ĠC A
ĠB er
ĠC ond
ĠAt l
Ġgen uine
Ġwe alth
Ġpropos ed
ĠB as
I I
Ġofficial s
ĠCent re
Ġhous es
igh ter
Ġpost ing
y e
ĠL LC
Ġappoint ment
Ġprom pt
Ġper mission
ĠA rab
ĠFr anc
Ġc ro
Ġpass word
Ġl unch
com es
in te
Ġrout e
ĠG en
Ġhold s
p ass
Ġl it
Ġd ance
Ġte eth
Ġfail ed
Ġmon it
l ook
p on
Ġchalleng ing
m l
Ġs ick
ĠSc ott
Ġtru ck
Ġcomp ens
Ġpain ting
ÂĢÂ Ļ
Ġsupport s
lud ed
ĠT im
ĠAcc ount
Ġord ered
Ġapp arent
Ġentertain ment
ad ed
Ġsp ons
Ġte ch
Ġguid elines
Ġport ion
Ġc aught
Ġdist inct
id ays
ĠJo e
Ġnot ed
Ġman ual
Ġrecord ed
in os
ot ton
Ġm el
Ġun able
Ġobtain ed
Ġinv ent
Ġjud ge
ĠC ath
lo c
Ġresist ance
al se
Ġinstitut ions
Ġass ume
ĠN ov
ĠSo ciety
Ġbeg ins
! âĢĿ
c ar
ĠBu y
Ġwrit ers
Ġcontinu ing
ic it
ow nt
Ġtr ig
ĠL ab
Ġbehav i
Ġtax es
ĠA T
ĠD en
Ġn om
Ġfore st
ik i
Ġac id
Ġaccess ories
og a
Ġeng age
Ġser iously
ner gy
m osp
] .
Ġm ask
Ġoper ate
Ġsy n
ĠLe ague
ur ation
ĠP an
ĠE xt
Ġcy cle
ĠH and
row se
Ġconc rete
Ġmechan ism
Ġobv ious
Ġbon us
m ar
ĠAd v
Ġk ick
We ll
Ġ icon
ĠAd minist
Ġspe ech
Ġme re
ĠMicro soft
Ġh ate
rit ing
Ġreport ing
20 20
ĠContin ue
ĠA ccess
Ġu pper
Ġtra il
i as
7 7
Ġv en
ĠT em
Ġinde ed
Ġv oc
ĠRep ort
ĠB rown
Ġre venue
Ġadvent ure
Ġas semb
re al
A cc
Ġtre nd
Ġchar ged
RE E
Ġfor t
How ever
ens ity
Ġsitu ations
ific ate
Ġlink ed
ĠC at
Ġso il
Ġ id
Ġth orough
Ġsty les
Ġcheck ing
S E
ert s
Ġpresent ation
Ġfor th
ĠFin ancial
el f
p ret
ars h
int s
Ġtyp ical
Ġdang erous
ĠR est
Ġle ather
al a
Ġlux ury
ear s
ĠH uman
Ġhe ight
6 6
ĠE p
Ġcopy right
Ġw itness
os h
Ġli ber
Ġyour s
Ġr ough
Ġparticip ate
Ġpo ll
d ate
ĠI ll
Ġinf rastructure
c an
ĠSh op
Ġt ab
Ġextend ed
Ġmill ions
Ġill ness
ĠI re
Ġcontem porary
qu ir
ĠS and
Ġinvest ors
Ġrel atively
Ġst im
Ġcr ime
ĠTh ose
Ġclos er
Ġassess ment
ĠC EO
ail able
Ġqu ote
. [
Ġra w
ĠMan ager
ĠT own
ĠT imes
Ĩ Ĵ
osp it
ĠA ff
ĠB ible
Ġrem aining
Ġag encies
Ġsupp lies
Ġ4 8
C A
Ġvac ation
Ġt asks
Ġris ks
Ġag ents
Ġpow der
f ortunately
Ġy esterday
M e
Ġv ul
Ġfeat uring
Ġsurround ing
Ġg od
ic an
Ġguarant eed
u nder
ĠAnd roid
ot he
ig r
Ġdiffe rences
U N
ide o
Ġrel ief
ol ved
Ġfollow s
Ġprec ise
let ter
ĠB i
Ġprof it
ĠJ ul
ĠRuss ia
ĠP eter
Ġsil ver
id en
p ack
p at
Ġwarrant y
ĠInt e
Ġout standing
Ġ' '
Ġdis s
ol a
ĠÂ ©
Ġtre nds
Ġavail ability
Ġat h
Ġdi verse
Ġbo ys
ĠEx pl
Ġinsp iration
Ġsk ill
C O
Ġhe ro
ĠV irgin
Ġco ach
je ction
Ġdom estic
Ġe ase
Ġco al
Ġreve aled
Ġaccess ible
Ġinform ed
i able
Ġplan et
Ġimp ossible
um ps
G et
ĠSec ret
Ġ {
us hed
Ġmix ed
Ġd ining
ĠInst agram
Ġret ire
Ġsuccess fully
ĠBe fore
Ġqual ified
or a
Ġrefer red
Ġsp r
Ġfac ing
Ġsa uce
ri ble
Ġst re
ĠSec ond
ĠF ederal
Ġmort gage
ing ly
Ġadv oc
Ġsend ing
Ġw et
Ġdefin ition
Ġp in
L A
Ġafter noon
ck ed
ed ia
b i
U s
Ġ err
Ġnorm ally
ĠPre m
m ond
Ġsp aces
Ġp ed
Ġsubst ant
Ġwith d
Ġdisc l
Ġher self
Ġfeat ured
h ire
Ġlo go
ap est
ĠL os
Ġm ur
Ġad s
ĠNet work
Ġemail s
Ġye llow
Ġdest roy
4 2
Ġdisapp oint
Ġst unning
ot y
Ġwall s
Ġun like
et ry
Ġsp a
ĠM ont
Ġcra zy
Ġrecogn ized
e v
ĠR ights
Ġspirit ual
Ġag reed
Ġamount s
Ġh ire
ĠM ult
Ġshe et
th at
< /
B S
Ġpos itions
Ġsurpr ise
mer ce
Ġf if
0 1
Ġcert ified
wor king
Ġge nder
xi ety
Â °
Ġdep th
Ġflav or
w est
Ġar rest
Ġv ast
Ġfit ness
Ġfun ny
Ġcandid ates
Ġ: )
Ġstud io
Ġt ur
Ġinnov ation
Ġappro val
Ġrout ine
ĠCh icago
ĠSp anish
Ġab use
Ġexpect ations
Ġ ille
ĠâĢ Ŀ
Ġmot ion
ĠH D
Ġve ter
ult ure
Ġrent al
Ġli ked
Ġaccord ance
Ġplatform s
H ello
Ġan cient
ĠP ersonal
Ġcont rast
ony m
Ġco ck
O h
ĠOb ama
Ġa st
Ġpick ed
M ay
Ġpre par
g as
orge ous
ĠA gree
ĠE conom
C ont
Ġcondu cted
Ġdeg rees
Ġsupp liers
U R
h an
Ġat mosp
Ġem phas
ĠTr ust
Ġple ased
er ation
ĠS af
ĠSm ith
Ġstr ict
Ġele g
ĠJ ud
Ġclot hing
u a
Ġed ition
Ġg ifts
co ver
Ġup load
Ġpers ons
Ġcrim inal
Ġconsist ent
Ġsus p
il st
Ġfavour ite
S ince
Ġex ceed
Ġent hus
Ġpurch asing
Ġabs or
ĠW il
Ġpay day
Ġcrit ic
Ġcl ar
4 3
Ġfilm s
Ġmiss ed
Ġcon clus
P C
ord ers
Ġinvol ve
Ġposs ibility
ĠCont rol
u el
st one
ĠL ow
Ġrecommend ations
inc luding
are n
Ġfound ation
ear ing
Ġimprove ment
ac hel
Ġtechn ique
ig an
Ġargu ment
Ġph ase
b ur
ign ed
Ġexecut ive
Ġexpl ained
t ics
Ġon going
Ġdest ination
Ġch oosing
Ġconf ident
Ġcap able
Ġch apter
L S
az z
Ġconf irmed
el ine
Ġinc hes
om y
or able
Ġdri vers
ĠT our
ac he
Ġt ank
C T
ĠRoy al
ĠO F
M A
ag on
itut ion
Ġelig ible
Ġd ates
et ime
el lect
Ġdef ault
ĠN on
ĠH ope
Ġbas ically
Ġro w
res ents
Ġfe ll
r as
or al
ĠInst ead
Ġmount ain
ĠN E
Ġrecogn ize
Ġplan ned
Ġcre w
Ġintegr ated
ar row
ĠIre land
ĠS earch
Ġread er
F L
ĠDown load
Ġdef ense
ber ry
Ġg aming
Ġprint ed
Ġstand s
Ġinvest igation
4 1
Ġ3 2
Ġweek ly
Ġup coming
p o
Ġjust ice
Ġent reprene
ĠFr ank
Ġag es
Ġh ang
ĠU l
H S
Ġfeel ings
s he
Ġv ibr
Ġre ward
ĠM useum
Ġdiscuss ed
Ġfac il
Ġt urning
Ġstate ments
pa per
Ġhum ans
Ġfin ance
Ġsuggest ed
Ġent ered
Ġtra ined
Ġres erved
ĠAr ts
Ġless ons
ge nd
ĠWe ek
opy right
Ph one
ĠHot el
Ġmag ic
Ġh ook
Ġv ital
Ġg olf
V E
Ġre in
ĠF ollow
Ġpur su
Ġsol ve
Ġnet works
Ġt iny
Ġt ables
en a
Ġsp in
ĠA ud
Ġhor se
ĠT ru
Ġext ent
Ġdescrib e
ĠM ax
ĠV ery
b les
ra cts
Ġf asc
ĠD ou
Ġcons ists
Ġt iss
Ġflex ible
ĠM iddle
Ġdeal ing
Ġlist ening
Ġneg ot
Ġsurpr ised
ĠA ward
Ġsav ed
T ube
iz er
ploy ment
ĠD i
Ġsk y
ĠN av
com m
Ġtele vision
ĠAcad emy
amb ling
Ġ ?
Ġphot ograp
Ġcon ver
Ġen force
ĠB ur
ĠK now
Ġam end
ixt ure
ĠMex ico
Ġb es
Ġpolit ics
ĠH im
Ġresult ing
Ġdepend s
ĠVict or
Ġprim arily
Ġas pect
anu fact
ĠCr us
Ġgr inding
G B
Ġfr ust
Ġwor st
end ar
Ġb en
Ġtrans ition
et her
Ġcreat es
cl ass
T r
cl ing
ĠDig ital
ĠC reat
Ġsustain able
Ġse ed
Ġmon itor
unn els
ĠDe v
Ġj ew
Ġtrack ing
Ġvill age
âĢ ¢
Ġmus cle
co in
Ġs essions
ĠY e
ĠO N
ig ate
ĠCh ief
Ġexp osure
Ġorigin ally
Ġaware ness
Ġl ad
ĠH aw
Ġd ust
Ġob jects
Ġtrad em
ĠWill iam
ĠAN D
Ġn ucle
Ġn ative
Ġp apers
ĠIt aly
ĠSt ore
Ġrep resents
Ġatt orney
B l
Ġs orry
An y
Ġwas h
Ġstore d
Ġc ute
Ġshe l
Ġsm ell
ce ler
Ġgra b
Ġfair ly
Ġ3 6
h ost
b el
Ġvers ions
gr ad
Ġphil osoph
ĠM S
5 9
Ġphot ography
t a
On ce
Ġbask et
ĠSp irit
Ġp ipe
Ġbott le
Ġreal ized
Ġcompon ent
Ġn ic
Ġc os
ar ry
Ġres idential
ĠHind i
ĠL and
Ġbow l
M any
Ġhe ll
ing u
ut ch
Ġk it
Ġsu fficient
Ġc ooper
ĠCustom er
Ġprov en
ur se
, ...
Ġrestrict ions
Ġbreat h
U T
Ġatt ached
Ġimpress ive
Ġre ar
5 6
k ers
Ġbelie ved
Ġl augh
ĠS qu
Ġhost ing
ĠS ale
m al
Ġlist ing
Ġg rew
ĠL ook
Ġb odies
p ons
. âĢĻ
Ġsm ile
r ations
5 7
nd ers
Ġr ank
Ġsub sequ
Ġad m
Ġele v
Ġr ating
ie ce
Ġhard ware
Ġlight ing
ĠI d
al le
Post ed
Ġp hen
ĠL ive
ĠLibr ary
Ġhop ing
Ġindust ries
Ġri ver
Ġcelebr ate
Ġcont ained
ĠGu ide
Ġoffic er
ĠTh rough
Ġcru cial
v y
Ġli kes
ĠP DF
r ates
ĠJour nal
Ġth in
Ġincre ases
ic ity
Ġcomp are
ĠOr der
Ġvul ner
Ġresearc hers
Ġincred ibly
ĠSp orts
E n
i en
pp ers
Ġrelig ion
b urg
Ġj aw
Ġtr ick
Ġfl our
ĠC a
Ġmer ch
Ġl osing
Ġcook ie
ĠIs lam
miss ions
z il
ist ant
Ġdraw ing
c ers
ĠÂ »
ĠAnge les
ent le
Ġrep rodu
Ġreg ional
Ġform ed
i ate
H A
ĠT er
in er
Ġaccur acy
Ġserv es
Ġany way
Ġar ms
st ream
ĠEngine ering
Ġdesign er
Ġle tters
Ġwond ering
Ġtick ets
Ġtrans p
Ġpack aging
cu it
Ar ch
Ġres olution
Ġprinci ples
ac ific
ans ion
ĠJ ose
Ġmark ed
R es
ĠAn other
Ġlandsc ape
ĠM id
I nd
Ġâ ĨĴ
ĠSte p
w orth
ĠV er
Ġla pt
5 8
ĠEx ecut
Ġstret ch
P ress
ĠF ort
Ġaffili ate
Ġmin i
Ġdut y
Ġsh ower
Ġsome where
Ġfound ed
Ġf alse
Ġh idden
Ġattack s
Ġn ine
ĠChild ren
ĠF urther
Ġp ill
Ġind ex
ĠApp lic
S u
Ġhand ling
N e
ĠSpr ing
Ġclose ly
Ġfor um
Ġsh ift
Ġm and
Ġimpro ving
Ġdepos it
Ġcommon ly
l aw
ĠC re
st ood
if ies
ĠJ un
Ġus age
Ġvis ited
Ġimmedi ate
ĠF arm
Ġn aturally
ĠLou is
ĠE nergy
Ġfunction al
² Ð
M ost
Ġrem ark
r ating
Ġra il
Ġpro ve
Ġs ight
ĠW ay
Ġmembers hip
Ġblog s
Ġfl ower
Ġfore ver
og en
Ġdr am
Ġwhe never
C he
Ġconcer ning
Ġst orm
Ġcomp at
ĠB rand
ĠKe y
Ġsign al
Ġfour th
Ġcomp r
Ġauthor ities
Ġar rive
Ġposs ess
ĠÂ ·
Ġr ice
F irst
Ġconst ant
Ġsupp lement
ĠRober t
Ġem pt
ĠY OU
Ġcommun ications
ow ing
fr ont
Ġsuggest ions
Ġtick et
ig er
T A
ĠP ass
Ġfight ing
M P
ast ers
it age
ost er
Ġmeet ings
Ġcomp liance
Ġpr ison
i verse
ĠW ild
C E
Ġexp enses
Ġg orgeous
Ġnecess arily
Ġult imate
ĠO k
ĠE nd
Ġcateg ories
Ġbr ill
ĠG ame
Ġbe er
Ġin n
Ġtrans action
Ġar ts
fol io
ro ph
Ġch arm
Ġinst ant
ĠAgree ment
Ġz ero
ĠS on
Ġobv iously
% .
Ġoffic ers
Ġb anks
Ġexpl an
Ġnear by
Ġi Phone
Ġtal ent
Ġp orn
Ġtra ve
Ġenjoy ing
Ġch ief
ly wood
b ing
Ġmem ories
Ġ200 2
Ġmonit oring
Ġslow ly
ĠC ross
Ġso ci
t le
ĠA D
Ġsch olars
Ġgu ard
ĠW atch
y an
ĠF air
ĠCov id
C an
Ġclass room
pp y
Ġcompar ison
Ġev il
ĠS ometimes
ĠDo es
Ġyoung er
T oday
ĠWh ich
Ġdec ade
ĠPro per
âĢĻ ,
r id
k ins
Ġb ags
w ear
Ġvacc ine
Ġelect rical
Ġexpress ed
Ġs aving
as tern
Ġb ab
ĠIn f
Ġover w
ĠG ra
ĠD C
Ġluck y
Ġpartners hip
ĠHel p
Ġcl icking
l ong
Ġint ent
Ġp il
le vel
Ġreput ation
Ġopin ions
ra id
a per
to col
Ġsy nt
Ġrequest s
Ġinst ruct
ĠPro duct
Ġprom ise
ĠSt at
less ly
ĠN ote
Ġt all
Ġinter pret
b orn
ĠYou Tube
Ġsuff ering
Ġt error
d es
Ġcollabor ation
lo se
ĠU r
Ġgener ate
Ġpar am
Ġdynam ic
Ġsav ings
o h
Ġ `
ĠRe v
Ġn arr
ĠCo ast
Ġr ig
Ġintellig ence
Ġan xiety
ed ing
pro fit
ĠG al
Ġcoun sel
Ġa cts
Ġexist ence
ĠHist ory
g ers
ir ts
Ġh urt
ĠP ak
Ġfirm s
Ġcont ribute
Ġph r
ac c
ĠUs ing
Ġregard less
Ġtransport ation
eal and
Ġk m
ag ues
Ġb are
ult s
ĠNe xt
A b
ĠP ub
um es
Ġme als
Ġsp ray
Ġgu itar
Ġmag azine
Ġcommun icate
ĠEx am
ato es
Ġun w
om in
ep ing
Ġins ight
Ġc able
ul s
ĠD u
Ġinter act
Ġsuper ior
Ġ Ã
Ġ urban
Ġfact ory
ĠH ospital
c ons
ur ities
Ġcons cious
ĠTra vel
Ġc odes
Ġhe aling
Ġbre ast
ĠThom as
Ġdra ft
Ġpod cast
ĠM ike
ĠP en
Ġorgan ized
ple te
ĠJ im
ĠL ED
A m
p age
Ġman aging
Ġf ishing
ct ive
z ing
ain ts
Ġj e
ack s
Ġexcept ion
friend ly
Ġent r
Ġattract ive
Ġsens itive
ĠF REE
Ġsatisf ied
Ġequ ival
Ġestim ated
A re
Ġo ven
Ġstrugg le
ĠR oman
Ġequ ipped
Ġthe r
Ġlo ving
ĠTra ining
at he
ĠC ost
Ġtax is
Ġag ric
Ġrepl aced
s ite
Ġsu c
as ure
Ġw est
el ry
Ġpass ing
Ġobl ig
og ue
Ġdisplay ed
Ġexper iment
Ġair port
Ġin ner
ĠP enn
Ġcandid ate
ĠGe org
ĠIr an
ĠL ittle
EN T
Ġfig ures
ĠL in
Ġimplement ation
oun ter
ĠA S
Ġdes ired
0 3
ĠG irl
Ġpres ents
T e
ĠProdu cts
em ed
Ġspecial ist
Ġbeh alf
Ġremov al
Ġt ub
Ġdream s
Ġli ability
Ġadd s
Ġprior ity
Ġliter ature
Ġt ip
Ġsh ops
Ġb order
Ġk ne
Ġredu ction
Ġpr icing
ĠC as
Ġble nd
Ġconsider ation
ĠN C
Ġent it
Ġd ental
ĠD id
ĠDis c
ĠCon ference
ĠLim ited
Ġhon or
Ġhead s
Ġlicens ed
Ġgr ass
Ġeng agement
Ġexcept ional
Ġdise ases
Ġdefe nd
S p
Ġconsum ption
at i
Ġrel ative
ĠChar l
-- --
Ġinter face
ĠPol ice
Ġsub mitted
Acc ording
m arket
Ġinstru ment
Ġpass eng
ĠCh ris
ĠA R
ĠPar is
ate ful
Ġobs erved
Ġcl imb
ul f
ap ore
ĠZ ealand
int age
ĠB al
Ġis ol
at re
ld er
Ġdam aged
mer cial
ath y
ĠO pt
ast ing
Ġint ellect
__ __
ĠS ales
ra ge
Ġany more
Ġcount y
Ġliter ally
olog ist
â Ĥ¬
ograph ic
Ġ7 5
ou red
Ġwithd raw
0 5
ĠM att
Ġleg s
Ġch ose
ĠM P
abet es
ĠS P
Ġarchitect ure
i pt
Wh y
L et
ĠDe f
Ġcontro lled
Ġrec y
Ġh ospit
ĠUs er
g or
og ether
Ġbo iler
Ġpro hib
ang er
ĠS ar
Ġact ing
Ġin fection
Ġhe ating
be ing
Ġrespect ive
Ġpercent age
ĠCarol ina
Ġeng aged
Ġatmosp here
D S
Ġsh ipped
Ġcover ing
ĠE s
am ental
Ġdis cipl
Ġre act
Ġprint ing
Ġst uck
Ġsome what
ĠE r
hold ers
ost on
ĠK en
ĠðŁ ĺ
pe l
ĠW ould
I m
ĠMarket ing
ot al
Â ©
Ġcorrect ly
K e
Ġwin ner
ĠD og
t es
Ġdo ctors
ili pp
Ġperman ent
3 00
Ġno ise
Ġprefer red
Ġ200 1
ĠR ight
Ġsub jects
Ġaf raid
is k
li ament
be ll
ult ural
ĠKing dom
ĠT O
Ġstr ange
An other
ist ers
Ġb unch
Ġsuggest s
pro of
0 2
Ġbook ing
ĠC redit
Ġstrateg ic
A dd
Ġtom orrow
Ġfind s
Ġext ension
ĠCath olic
ĠG ar
t w
ĠH en
Ġrel ating
ĠExecut ive
Ġperform ing
Ġopp osite
er ate
Ġcontrol s
Ġ1 50
Ġm ile
Ġoverw hel
ĠB all
Ġant icip
Ġachie ved
Ġprodu cing
Ġchann els
Ġincor por
Ġh ur
Ġl ies
B I
Ġcannab is
rent ly
ĠC e
on na
Ġsuc ceed
Ġreg ions
ĠSe ction
Ġdirect ed
Ġerr ors
Ġupgr ade
Ġconflic t
Ġbl ind
as hed
Al so
Ġprogram me
Ġve nd
Ġd ivid
Ġevery where
ĠT ax
Ġle ts
Ġinvol ves
Ġre action
ĠPr in
Ġrequire ment
ĠMart in
Ġca using
Ġstruct ures
Ġtrust ed
Ġconcept s
Ġmus ical
ĠJew ish
Ġsched uled
in em
Ġst ainless
c ase
Ġy ield
Ġrec ording
Ġult imately
ra ction
c ific
st ery
Ġext ract
ĠP oint
y ers
ir al
ĠD ub
Ð ¾
Ġd ip
d f
Ġdur able
ĠVirgin ia
at ics
Ġf ru
is er
b ar
Ġbox es
Ġro les
Ġens uring
et ary
M L
Ġlangu ages
Ġhol idays
Ġexp ort
Q u
Ġprepar ation
ĠP o
ĠP ot
Ġpot entially
p erson
ĠC ir
Ġmar ks
p ir
Ġtravel ing
Ġg ard
ag raph
Ġst able
Ġredu cing
Ġen ables
Ġcry pt
ĠP u
Ġse eds
Ġminim al
Ġo re
ĠQu est
O ver
Ġfl ood
ĠP ract
ak en
ĠN umber
Ġille gal
am ps
F i
Ġb orrow
ĠTh us
ĠL ink
ĠG all
ond er
ĠPl ace
Ġgrad uate
Ġpublic ation
Ġd ownt
Ġbuy ers
l ive
Ġha bit
or se
ĠC up
R S
gg ed
ĠH ard
Ġto x
Ġn arrow
Ġconne ctions
Ġcapt ure
Ġcont aining
umin um
Ġt ack
r ich
ĠDis ney
Ġsam ples
Ġdeb ate
Ġdeal er
Ġout comes
L Y
Ġpl ot
Ġdr inking
ĠB lo
Ġexpl ains
M ore
c ue
Ġshould n
Ġtal ks
Ġw arn
Ġoff ices
ĠS uch
Ġsatisf action
ĠS ky
Ġprogram ming
Ġath let
ĠB ow
Ġcrit eria
Ġwant ing
r an
Ġpub l
ĠMus lim
Ġh at
ĠBra zil
in ent
Ġmat ches
ĠM ic
Ġprocess ed
ĠT it
Ġtreat ments
Ġlim its
Ġcamp us
Ġne ither
Ġgreat ly
S c
B ook
Ġcharacter istics
Ġsupp lier
Ġop ens
Ġz one
Ġdec ent
Ġb ars
7 8
form ance
Ġfra ud
ers hip
Ġfunction ality
Ġc otton
ĠM ade
ress ed
Ġhy per
av en
ĠWor ks
ne ys
Ġw ra
Ġform al
Ġearn ed
Ġb act
ur a
Ġcheck ed
ĠB ob
Ġ !
Ġmov es
ĠAre a
A Y
ri ers
Ġunder stood
t hen
Ġunder t
R I
Ġshoot ing
Ġcare ful
ĠF ather
Ġl ie
Ġsp oke
ha ust
u ous
ĠH oly
Ġin ch
et o
cl aim
in ery
ĠS outhern
Ġdis pos
c ular
ĠAs ian
Ġperson ality
Ġsche me
Ġpack ages
ad ow
Ġfore cast
Ġsc an
Ġp ink
Ġh all
Ġtrans mission
u ana
Ġport folio
Ġtrad ition
Ġp m
E A
u ing
Ġfil ed
ĠA ri
Ġtra cks
Ġm old
ĠN ever
v a
Ġb aking
Ġm useum
Ġh am
Ġse ctions
Ġhe s
ĠEn vironment
Ġgener ated
gy pt
Ġblo cks
Ġintrodu ction
Ġro se
ĠJohn son
Ġpurch ases
Ġter rit
es h
Ġf ing
Ġlist s
ĠC ast
Ġframe work
Ġbl ank
Ġdro pped
A meric
Ġincreasing ly
ĠStud ents
Ġg entle
ĠM anufact
9 8
if orm
ĠF ed
ant ed
Ġstr ing
P e
6 8
iss ions
ra cy
Ġas ide
Ġac celer
Ġm ob
et ies
ou ch
ĠA ng
ĠU t
ĠSm all
ĠO R
Ġvis ible
I nt
Ġgar age
cc er
br id
Ġless on
Ġd ent
Ġcomplic ated
Ġretire ment
Ġf its
ĠP ow
Ġd ad
Ġexper im
Ġenter prise
ul ing
Ġh ole
Ġlaw yer
Ġmaintain ing
Ġset up
G reat
lud es
ĠC P
Ġins ights
W he
l ers
iz z
part y
Ġt ill
ĠM ur
Ġexp osed
Ġnews letter
O r
in n
ol it
Ġrat io
Ġinc ident
hy d
V ER
ific ial
S pe
Ġst ake
Ġempt y
Ġsh arp
Ġb at
Ð µ
Ġrequest ed
us ive
it z
Ġdra g
n ic
Ġt un
Ġp ra
5 3
j a
A B
ĠP rom
Al though
Ġe ast
ĠC ra
Ġstay ing
ru ption
Ġaddress es
S te
el ly
ĠE nt
Ġf iction
Ġmat t
Ġstre ets
O O
ĠS EO
Ġhistor ic
Ġspl it
B u
in ch
ĠIns urance
o om
Ġm ixture
ĠT ry
ĠPr ime
ĠCo ll
Ġstrong ly
es sel
Ġtrans actions
Ġequival ent
Ġ4 00
Ġapply ing
ann a
Ġhot els
vent ional
on ed
Ġdeliver ing
ĠBe aut
r at
Ġwalk ed
ĠLoc al
Ġcarry ing
ĠN orthern
Ġsubs cription
ĠV an
ani el
ĠSen ate
Ġpull ed
ĠJe ff
Ġgr ateful
Ġwat ched
Ġtut orial
Ġspec ified
ĠPh ys
Ġleg it
Ġt or
fl ow
Ġcap abilities
ust er
Ġt ap
ol ar
ĠB oston
ĠY et
Ġ era
Ġlegisl ation
6 7
Ġins pe
6 4
Ġlif etime
Ġdriv en
Ġar ray
Ġassoci ation
Ġforg ot
Ġstrong er
ch arge
Ġal ive
ĠSm art
ĠL y
Ġalong side
= "
ĠCon f
ĠBo x
m aking
ĠReg ist
Ġrec over
Ġbenef icial
Ġutil ize
Ġf inger
Ġfund amental
ĠM ov
Ġt um
Ġtalk ed
Ġapp lies
Ð ¸
ĠS S
Ġnew ly
!! !!
Ġde ck
Ġre ly
ĠE state
on to
iz za
ĠS C
Ġcan cell
Ġaccompl ish
Ġobject ive
Ġegg s
Ġsurpr ising
i very
Ġdevelop ers
at ile
ĠEn joy
Ġrepe ated
ĠP acific
Ã ¡
Ġout come
ĠM obile
Ġind icate
Ġbelie ves
ul ating
Ġatt ach
ĠSing apore
Ġcon vey
Ġwh ilst
Ġfl ash
ck ets
Ġscient ists
Ġhyd ro
Ġbre aking
ĠCh air
ĠYou ng
ay er
Ġsl ot
st al
Ġpen al
m o
ĠS U
Ġcont est
ĠG ames
f its
Ġun us
ĠF un
²Ð Ĥ
Arch ives
ij uana
ĠB ang
a id
Ġ vert
rib utes
Ġrel ation
0 8
Ġt ube
Ġste am
ĠP age
Ġsc rew
ten se
ĠC H
Ġappro aches
ĠF riend
Ġun ex
Ġocc urs
Ġdis ability
Ġend ing
Ġy ard
ĠCrus her
ic ious
ĠN ight
Ġrep ly
gg ing
st ar
ĠPl ant
ĠV ideo
Ġsudden ly
Ġg ambling
Ġcont ents
Ġsecond ary
ĠT ri
gor ith
Ġbut t
ĠT able
ĠS anta
Ġjo ining
Ġdra wn
ĠH aving
Ġm ood
ĠOh io
ĠCol umb
Ġun com
vis or
ann ed
Ġw ave
enn is
f a
b a
5 1
Ġpr ide
G o
E E
ĠAg ain
Ġs ou
st ers
Ġbroad cast
ĠRe f
N N
ĠAr my
Ġto oth
ĠSe a
ct ure
lud e
Ġclos ing
Ġeval uation
Ġstudy ing
Ġcommit tee
Ġm ole
ĠLe e
pend ing
Ġent ering
ĠW i
Ġpassion ate
th is
the less
Ġp ul
Ġal ter
Ġprov ision
ĠWord Press
y stem
ĠS n
Ġsp ark
o ir
Ġbr idge
F C
Ġbrill iant
inte rest
Ġre form
W elcome
re f
ĠTh ough
ot ed
ĠSystem s
ĠS up
Ġra c
um a
il ly
ĠM O
ĠProfess ional
Ġal t
Ġnucle ar
Ġcons erv
Ġmass age
ĠP op
up id
i king
C o
b its
cript ions
ig s
Ġ3 8
ĠOr ig
ĠG arden
Ġmur der
Ġl ady
te en
Ġtw enty
D r
Ġoper ated
ĠSp ain
20 21
Ġtit les
Ġcomb ine
Ġfrequ ency
Ġconsequ ences
ĠK n
Ġgot ten
Ġmere ly
ĠMe et
Ġhard er
ĠSto ck
Ġinst ruction
N ote
et ch
M C
Ġgrant ed
im al
Ġhas n
Ġtr im
Ġcompens ation
y ard
Ġdeep ly
ĠN atural
Ġref res
ĠSt one
ĠE ss
ĠSoft ware
ivers ary
ĠQ uality
ĠV ill
Ġinj uries
Ġpo cket
Ġret urning
Ġoccur red
Ġne ut
Ġrapid ly
u ment
Ġenthus i
Ġunc ertain
E ven
Ġlapt op
Ġch ances
in ally
ĠSh are
is dom
Ġl ift
Ġrepresent ative
Ġag gress
ĠL ic
f rom
Ġm m
ĠProte ction
Ġd iversity
Ġcal endar
er ry
ot o
ĠColor ado
Ġst ro
ĠMed icine
Ġun known
Ġform ula
Ġprot est
in ter
c al
in ity
el ing
ĠGeorg ia
Ġobs erv
Ġalle ged
ĠUn fortunately
Ġin tense
Ġinv ited
al ysis
ĠTh ree
Ġcas ual
Ġman agers
Ġpro tocol
Ġt ired
5 2
Ġex haust
ac le
ly mp
ĠV iet
ĠE gypt
Ġadvert ise
ĠF ord
ĠRich ard
Ġbird s
Ġl y
Ġme ets
Ġveget ables
ian o
Ġexperi encing
ĠD aily
ĠF estival
ĠC R
ach i
ĠProfess or
5 4
Ġrev olution
re ction
if ting
Ġdiv or
Ġchild hood
Ġev olution
ĠSt ill
Ġm ic
C D
Ġinit ially
Ġt act
Ġor ient
Ġrespons es
ĠSecret ary
ĠG reek
Ġeng aging
Ġg ym
T w
Ġesc ape
ul um
Ġrecogn ition
ĠMich igan
D uring
Ġinstitut ion
... ]
Ġgraph ics
Ġpar agraph
ug s
Ġvis its
ag ged
ĠLear ning
ĠSaf ety
ce ived
ph ones
qu is
nam ent
Ġmatt ress
ion e
v as
Ġadvant ages
Ġentit led
Ġintellect ual
Ġcert ificate
O f
ĠB iden
Ġfall ing
Ġdem ands
ly n
ĠJ ava
b d
ig en
Ġt ro
G ood
s we
Ġhe l
Ġdis hes
Ġimpress ed
Ġass et
oles ale
= =
] ,
Ġse ats
Ġsp ots
ĠF our
Ġnut rition
ĠB it
ĠSil ver
ĠTe le
Ġelect ron
et ers
ĠBu ilding
Ġautom atic
Ġre ject
P er
Ġj ur
i h
Ġad equ
Ġfocus es
ĠL ine
ig ence
i ary
ĠComp ut
ĠSh ould
am ber
ĠD I
Ġeleg ant
Ġcol on
Ġconven ience
ĠSw ed
Ġdire ctions
Ġcur rency
ĠPro cess
Ġstat istics
Ġpur s
Ġlarge ly
Ġne uro
p rodu
ĠR ose
b ro
ĠF re
Ġdeb ut
um er
ĠS at
9 7
ĠD an
orm al
ĠJ on
st ep
Ġl oose
ĠM ah
Ġinvol ving
Ġlist ings
Ġex ists
% ,
ĠS av
V D
Ġfac es
htt ps
ĠJust ice
Ġphen omen
ĠF a
ĠPer haps
ĠBrit ain
0 7
c ut
ch ar
ian a
Ġt rib
n ce
Ġs oph
P M
Ġ( âĢľ
ĠH a
Ġneigh b
Ġemot ions
ĠCl in
ĠJ ones
i ams
Ġt one
ffe red
Ġpack ed
i ors
h ome
ĠQue en
ĠLe g
Ġsuff er
Ġflex ibility
ter y
Ġsafe ly
ĠE st
ĠCont ent
Ġdon t
Ġcol ours
Ġins ert
Ġenc ounter
ĠF ar
Ġtiss ue
ĠP S
Ġlo yal
al i
Ġjew elry
r ick
Ġd a
Ġcent ers
Ġwere n
crib ed
r ite
ĠRead ing
Ġin du
Ġpray er
ol id
Ġo cean
ĠPh ilipp
Ġfind ings
Ġexpl oring
Ġair craft
ĠGo vern
ĠExpl ore
Ġreve al
ic ide
ĠA p
Ġr u
Ġag greg
Ġcol umn
ĠTy pe
ĠA I
Ġpl ain
it ches
Ġmist ake
Ġr iding
am ic
Ġde eper
ĠC ro
Ġad mit
Ġaim s
Ġf illing
Ġp ace
Ġsent ence
ter ior
Ġdra in
Ġju ice
Ġpow ers
Ġwe ird
w an
L ast
Ġdep ression
Ġintrodu ce
Ġgra ce
ĠAdminist ration
Ġdiv ision
Ġswim ming
Ġweap ons
Ġres ort
Ġind icated
ĠMc C
0 6
Ġint ention
Ġta pe
ail ing
Ġsole ly
Ġw ise
Ġinvent ory
Ġclaim ed
Ġworks hop
or ous
R L
Ġj er
Ġrespect ively
ĠComm on
8 00
Ġwire less
Ġm ath
Ġche st
Ġemploy er
ĠH on
le ctions
Ġattend ed
b an
ĠJer sey
Ġrec re
Ġexp ansion
ĠBe ing
ĠAg ency
20 19
Ġprep aring
[ âĢ¦]
Ġ` `
ĠO wn
l ow
Ġbet ting
qu est
Ġmaintain ed
Ġv essel
Ġtext ure
g i
ĠI ss
Ġs our
Ġst ead
Ġorgan is
ĠB on
ĠFranc isco
ĠAnd rew
od ing
Ġthe rap
ĠEx press
uck y
nd a
Ġse am
Ġevery body
Ġ3 3
Ġbr anch
ĠStand ard
d ays
Ġcomp lim
Ġhost ed
Ġob st
Ġinter action
art ers
d a
Ġg ate
r us
\\\\\\\\\\\\\\\\ \\\\\\\\\\\\\\\\
Ġp ounds
ut en
t ical
Ġok ay
che ster
ĠK ind
ĠCh ampions
Ġconclus ion
Ġpleas ant
ĠA ge
ĠF act
ĠH un
ĠHe art
ĠPr int
Ġco at
Ġthous and
Ġr ising
Ġal ign
Ġaccommod ation
st ract
Ġsc ope
He y
Ġscen es
ann y
ak a
b ury
c m
Ġla id
bur gh
Ġf lying
Ð °
ret ion
pr int
ĠK ar
ound ed
ruit ment
Ġnurs ing
Ġcert ification
' .
Ġpriv ile
Ġtele phone
e pend
ĠLat in
ubs cribe
0 9
Ġa wards
d is
ÂĢÂ ¦
Ġconv in
ĠM A
ĠE asy
Ġview ing
Ġm ild
viron ments
0 4
Ġequ ally
ĠI ra
Ġal gorith
oc racy
ĠD ie
Ġstud ied
Ġg ay
r ary
Ġdo se
Ġi P
Ġcolle agues
Ġtem porary
Ġlay out
Ġelectric ity
ĠLe vel
Ġ3 7
ĠMach ine
in st
Ġdi abetes
Ġr ural
Ġacknow ledge
Ġlow est
ĠSte ve
ĠMem bers
Ġstrugg ling
Ġapparent ly
ĠAs h
Ġess entially
Ġphilosoph y
ot ive
Ġfac ulty
Ġlay ers
ĠPak istan
ĠM ort
ĠP ur
zz le
ĠAir port
Ġsurv ive
Ġf iber
Ġcal m
Ġim per
i ac
ĠPhot o
ĠS us
ĠC ivil
ans as
od ge
R C
Ġran king
z ed
f all
Ġbro ke
ĠD NA
Ġencoura ged
Ġsome how
Ġwas hing
ĠO lymp
H ave
ĠMount ain
Ġinform ative
Ġper mit
Ġ ..
is d
o ch
Ġle ague
P re
ut y
Ġst ir
ĠSh ipping
j i
Ġres erve
ĠB an
ĠIr ish
Ġma c
ĠPr im
Ġcontinu ous
Ġto ler
Ġdoll ar
Ġst ages
as hes
ol ving
Ġquot es
cell ence
Ġsubs id
w ar
Ġbuy er
Ġfin est
ĠChar les
Ġm g
ĠGu ard
er as
P r
Ġf ib
Ġg iant
ĠR am
ĠUS B
Ġkn ock
ci a
Ġres id
Ġcreat ivity
Ġm asks
erm an
ro g
6 9
c or
x id
M ar
ĠB ed
Ġor ange
erv ice
m art
Ġg ained
ĠB log
Ġatt itude
Ġput s
ĠC ab
oun ce
Ġdr inks
Ġinvest ments
ĠJack son
in yl
F A
ial s
Ġw arning
Ġextra ord
Ġenforce ment
M an
Ġt ons
Ġsure ly
ĠAdd itionally
Ġtransl ation
ĠOffic er
ict ed
Ġtw ist
Ġcal ories
ick et
Ġsign ature
i ot
Ġbro ker
it i
U p
m itting
ĠW as
Ġdesign ers
br idge
Ġsmo ke
ĠT ool
Ġaccount ing
Ġintegr ation
ap ed
ĠB ul
Ġse ar
ĠL iving
Ġw ake
Ġaward ed
4 00
ĠM ember
ĠM D
ill ion
Ġsac r
Ġl oud
ĠL iber
Ġdiam ond
Ġrat ings
d y
Ġbel t
ĠJose ph
ig ure
Ġtempl ate
Ġ1 000
Ġ9 9
ĠD ar
Ġch ronic
an es
Ġsk illed
Ġprov isions
Ġblogg ing
W or
Ġin fect
ĠKore a
Ġg ap
Ġperiod s
ĠAn aly
ĠR en
Ġfocus ing
' '
Ġst ability
Ġexerc ises
ra ctions
Ġvictim s
ĠCon nect
Ġmar ijuana
Ġlat ter
Â ·
p ed
il a
Ġdef ine
Ġth inks
ĠSe ason
ĠN O
Ġtri ps
Ġ ~
Ġprinci ple
Ġadop ted
Ġrece ipt
Ġheav en
ĠVis it
ĠO S
N T
Ġhor iz
Ġb oss
Ġinter active
Ġpromot ion
Ġsh ots
ĠL i
ann el
Ġben ch
Ġassign ment
fe ctions
Ġdescrib es
Ġen vironments
ĠM ir
Ġparticip ation
Ġl ake
Ġse es
roll ed
ass ion
Ġph ones
ĠWith out
Ġtemper atures
Ġquant ity
? "
on ic
Ġdisc rim
Ġre b
u ct
Ġsus pect
ile t
Ġvict ory
Ġro ots
riv ing
ĠSen ior
ĠAut om
Ġcontribut ion
se x
Ġplan e
Ġfall s
Ġ3 9
o es
Ġun iverse
Ġauthent ic
ĠR om
Ġsal ary
ĠO K
Ġcontain er
Ġarriv al
ĠAut o
Ġsty lish
Ġglo be
Ġ6 5
ens us
Ġp ic
Ġcomp ly
M E
Ġse gment
Ġb one
ĠCl oud
ĠFin ally
se ll
Ġtarget ed
ĠC C
Ġacqu ired
Ġbr ush
Ġf est
Ġmed ication
Ġinvest ing
so le
Ġowners hip
Ġacqu is
Ġappreci ated
ĠI de
Ġcomput ers
Ġcon vert
ĠC ou
ĠP ut
Ġspeak er
ĠS her
Ġest imate
Ġdeli vers
ĠMod ern
ĠH appy
Ġrub ber
ru g
int on
li x
ĠF oot
re ts
Ġassign ed
Ġpromot ing
onym ous
Ġde emed
ĠChe apest
are t
ĠCor poration
Ġ ]
Ġorgan isation
Ġmor al
Ġst ations
mon th
Ġnav igate
Ġshould er
se m
he ast
Ġexclus ively
ri x
Ġhapp iness
ĠCount ry
gr ade
Ġed it
Ġbehavi our
Ġexplan ation
ĠR a
Ġk il
Ġpregn ancy
Ġsh irt
Ġab and
ĠS E
Ġex ch
D P
Ġpan els
Ġf estival
c est
Ġw are
Ġr ated
Ġh oney
Ġab ilities
ĠI ce
Ġdam ages
ĠF ac
Ġdistribut ed
cy cle
Ġh ide
s is
et he
Ġb old
" ,"
Ġh anging
Ġant ib
Ġinst antly
Ġdevelop er
Ġparticip ating
b ow
Ġg ene
N C
Ġdis pl
Ġsubst ance
Ġle gend
Ġk illing
Ġdemonst rate
Ġst ood
Ġmechan ical
Ġor al
Ġrepresent ed
en ess
Ġf ounder
ĠIra q
ĠN ame
ĠWe ight
ĠFor ce
Ġ Î
Ġphotograph s
aut hor
Ġgold en
Ġunus ual
Ġauthor ized
l ooking
p y
Ġimprove ments
ĠH as
h ar
Ġinterview s
Ġ3 4
Ġsc ores
Ġequ ity
Ġs ed
Ġb id
wor ld
Ġs od
ĠF all
Ġs ought
Ġhop es
Ġnight s
Ġt err
Ġag ed
rit er
Ġsem i
Ġmind s
Ġvirt ually
B ec
ĠK ong
ĠK im
ĠL O
Ġcan cel
Ġhead ing
Ġpro port
ck er
ĠCap ital
un a
ond a
Ġimplement ed
Ġwor n
ĠBook s
p any
Ġcomp act
Ġlad ies
ĠM other
Ġlet ting
swe red
un icip
Ġunex pected
i ag
T V
Ġre aching
ĠT urn
Ġfulf ill
ĠC ru
ĠDon ald
ul pt
Ġcur ious
room s
Ġsell er
Ġbu ll
Ġton ight
ĠEqu ipment
Ġcomp rom
Ġb ills
Ġrep airs
book s
Ġpublish ing
ol t
ĠH old
se ction
ĠAv ailable
enn y
Ġnut ri
Ġst upid
lim ited
ĠS H
ĠJ ac
Ġfac ed
Ġc ow
Ġmeas ured
at in
Ġspecific ations
The n
Ġre nov
z ona
ou ston
ĠR ay
Ġh ung
ous es
Ġcat alog
ĠT al
Ġind oor
Ġdiagn osis
Ġo ught
ĠJ ob
ĠE astern
Ġbl ow
Ġens ures
ĠS olutions
Ġheart s
st yle
Ġde ploy
z es
Ġst ack
if fe
Ġref ers
ĠB E
ra pe
ĠD a
Ġma ps
Ġroad s
p ower
Ġscreen ing
Ġregul atory
v iously
Ġtrans formation
ĠWill iams
ĠA LL
Ġpropos al
Ġs hed
it ative
ĠE vent
ĠP A
angu age
Ġrem ained
Ġfarm ers
ER S
Ġpre ferences
Ġh iring
Ġconsist ently
M O
quir y
us al
Ġprofess or
": "
ric ulum
Ġreview ed
ĠE mer
Ġstay ed
Ġspeak ers
Ġdifficult y
Ġw isdom
az e
Ġdis ag
ĠSp ace
ac her
Ġdeath s
s ized
Ġcont racts
S ee
ĠM rs
ĠL ooking
Ġinv ite
ĠStud ies
ĠSup reme
ĠCons ult
ur ious
u an
ĠMin istry
Ġp ets
Ġw estern
ffect ive
ĠW H
Ġno se
ĠSt ation
Ġwor ship
Ġfl aw
Ġoil s
ap ing
ĠS ep
ĠD ate
Ġsubstant ial
ad el
Ġsle e
! "
Ġ5 5
Ġc ats
w as
Ġco con
Ġdiscount s
Ġg am
Ġha z
Ġ199 0
Ġn ations
ĠSum mer
Ġl ens
Ġs ke
Ġk a
Ġacqu ire
Ġmat hem
Ġgu ides
8 5
Ġd il
Ġwor ried
Ġcoun cil
Ġwat ers
a fter
ab il
Ġ1 20
Ġperson nel
ib l
ĠNe ed
Ġj un
Ġke ys
van ia
ĠD rive
ĠF A
Ġbu ff
Ġimm une
Ġmist akes
is a
Ġbal anced
Ġy ards
Ġpe ak
Ġmanufact ured
Ġso ccer
Ġdut ies
Ġthem es
Ġexhib ition
ĠPart ners
ĠQu ick
p iece
Ġh its
Ġimm un
ĠRepublic an
Ġy oga
Ġdisc retion
Ġrepresent ation
Re g
Ġiniti ative
ĠTr ad
Ġstream ing
âĢĿ )
Ġun iform
ĠC ase
ĠCom ments
Ġdele te
Ġro yal
ĠRo om
Ġed iting
ĠE ll
Ġter rible
Ġeval uate
Ġcontribut ions
Ġwork out
Ġcomb at
ĠD ue
ĠH ong
Ġgro cer
T P
Ġen emy
Ġsur ve
ste in
Ġpersonal ized
Ġmy th
Ġb rowse
ĠA L
ĠC ome
Ġover se
Ġclo ck
Ġrare ly
! ,
est one
ino is
Ġn ail
our se
Ġsubsequ ent
ĠM ess
Ġle af
Ġdivid ed
Ġcour ts
E ach
amp ion
ĠR s
ĠJo in
Ġ199 9
Ġpo ker
, .
ab eth
F r
Ġbo ot
Ġbrows ing
ĠDiv ision
r un
Ġa x
ĠB C
g iving
ah a
atch ing
Ġs outhern
ĠMod el
or gan
Ġord inary
G u
ĠDel ivery
ĠM aterial
v ity
omet hing
Ġpl acing
Ġwrit es
Ġser vers
Ġle ase
Ġtal ented
Ġdes erve
Ġp itch
Ġemot ion
Ġreci p
Ġcop ies
Ġar my
Ġattempt s
Ġaddition ally
ĠRem ember
it is
Whe ther
S O
Ġlike wise
Ġban king
6 2
ĠT oy
ĠD ark
Ġhol es
Ġsmo king
Ġb ub
Ġst om
Ġbo ards
Ġsurf aces
ĠEvery thing
ĠH T
Ġpre cious
G A
Ġd ies
le ep
umb ing
athe red
Ġfo am
Ġmus cles
Ġrepe at
Ġf ont
Ġcompat ible
A ut
Ġman if
d s
ast y
ĠO p
Ġrom antic
Ġassemb ly
Ġfr anch
ĠH P
Ġsome body
ĠSe x
Ġreg ulation
Ġann oy
Ġrele ases
Ġan swered
ĠT am
Ġopp osed
Ġemerg ing
Ġdete ct
Ġinspe ction
Ġc ig
if ier
Ġcut s
Ġfem in
Ġconfig uration
Ġentr ance
Ġsc reens
Ġsurv ival
Ġpe pper
Ġloss es
Ġadv ise
Ġwhe els
ig eria
' ,
ac ular
Ġres olve
Ġwork place
Ġshap es
Ġrec all
Ġal uminum
Ġapp li
Ġdocument ation
7 9
Ġper mitted
rem ony
h o
ĠRe ci
ĠO nt
Ġchemical s
Ġal arm
Ġmake up
ate ll
Ġconsult ation
Be fore
Ġsu ffered
Ġam en
ĠCol lection
Ġfew er
Ġjur isd
ay lor
Ġbeautiful ly
Ġv intage
ĠTr ade
AT ION
Ġpoint ed
Ġpregn ant
bre ak
Ġproduct ivity
ĠTor onto
Ġto ys
in ar
yl vania
ĠEm ail
st s
Ġmoist ure
hes is
Ġbre aks
ist ent
ors es
ĠK ent
Ġoffic ially
Ġref rig
Ġsk i
Ġlight weight
ĠEvery one
Ġwood en
the w
ĠU k
ĠA wards
ĠB ush
g ent
it ched
Ġcir cuit
Ġmount ains
Ġsupp lements
ĠS elf
al o
Ġgovern ments
Ġd ough
d ep
ac on
Ġexam ination
âĢ ³
gh an
Ġconvers ion
Ġ4 2
t ail
ing ton
Ġdecre ase
Ġreg ards
Ġeng ines
Ġver ify
Ġdang er
6 3
Ġconcent ration
Ġfl ights
r itten
ĠN ic
Ġcelebr ation
Ġc her
Ġ2 50
Ġpr ime
h our
ĠArt icle
iam i
le g
Ġpow ered
ĠN ut
Ġsleep ing
Ġm it
ĠD O
Ġenjoy able
Ġco aching
Ġd ual
Ġab und
âĢ ĭ
Ġelect ed
es ides
Ġce ment
ĠPer fect
Ġro lling
lo ved
U L
word s
Ġab road
l ined
m at
ĠB udd
ĠG row
Ġdiscuss ions
Ġan gle
ĠH arr
do ors
ed ge
rou s
Ġopp on
Ġdes per
ĠB a
Ġdriv es
os a
Ġven ue
Ġcocon ut
ry pt
Ġspe ll
Ġcas inos
Ġpain ted
Ġcy ber
Ġmatch ing
Ġgraph ic
Ġres ume
Ġres idence
be red
ht ml
ut ter
v o
ĠPriv ate
Ġen abled
ĠK itchen
Ġhighlight s
Ġindic ates
Ġa est
Ġform ation
Ġwe igh
Ġref err
Ġfab ulous
Ġpri ze
ĠP y
Ġsubs cribe
Ġnegot i
ĠFin ance
ĠTH C
ĠD rag
Ġc u
st ra
Ġcor n
Ġobject ives
ĠV en
ĠHen ry
p orts
Ġfa ult
Ġtre m
Ġcontro vers
Ġspecial ized
Ġbear ings
Ġt ort
Ġjud gment
Ġa er
Ġdr ama
Ġin hib
ad ium
Ġfasc inating
Ġl aser
Ġelse where
ĠS em
ĠStud ent
F eb
ĠS ir
ĠP sych
ĠL A
om ic
Ġman ip
ast ed
Ġvert ical
Ġsign ing
6 1
Ġgar lic
Ġhy p
Ġimportant ly
Ġvolunte ers
Ġrest ore
re r
ĠT reat
Ġthorough ly
ia h
ĠW alk
Ġposs ibilities
ĠAri zona
ĠAnn ual
f unction
ĠF ox
at ers
Ġgen etic
Ġcon ventional
Ġstock s
ie ve
Ġexam ine
Ġhad n
Bec ause
Ġexp ense
Ġheav ily
h ops
Ġh ub
W S
Ġsol o
Ġland ing
Ġmeaning ful
Ġexpand ed
Ġcomple tion
Ġstri ke
Ġdownt own
Ġc ul
Ġg onna
im p
ĠD aniel
ĠIndust ry
Ġemploy ers
Ġcomp an
ĠF L
u um
iat ric
P art
Ġvulner able
ĠTe ch
Ġra ising
Ġimpress ion
Ġtarget s
s ylvania
il ty
g ments
achel or
d ney
Ġfing ers
ĠA part
Ġf ert
Ġprotect ing
E P
ĠDes pite
ĠProper ty
ĠHaw ai
f ers
Ġmin eral
Ġr anging
Ġcam eras
ĠL abor
8 9
m od
ent h
Ġch ips
air y
D is
Ġfrequ ent
ĠEx change
an while
Ġexp lo
Ġsex y
ol ly
Ġremov ing
ĠStr ateg
Ġinstru ments
Ġprodu ces
Ġshe ll
ĠAuthor ity
Ġt ie
ab ling
Americ an
Ġprodu cer
it u
Ġcar pet
C ol
ĠS O
Ġact ively
Ġamong st
Ġcampaign s
qu ire
Ġnew est
Ġun ion
ag en
Ġret ain
Ġmove ments
Ġli p
ĠHe ll
Ġadv ised
Ġdesk top
ĠS A
Ġsw ing
à ¥
Ġconvers ations
6 00
Ġwhere as
Ġra cing
Ġw ishes
Ġconnect ing
ke l
Ġnews paper
d on
Ġpoll ut
r ong
er als
ob e
Ġdist ingu
ĠC ateg
Ġch a
Ġbook mark
c s
Ġgener ations
Ġcheck s
Ġche aper
Ġrob ust
f oot
Ġfin ancing
Ġanaly tics
ĠMot or
m g
Ġtest im
Ġres ident
f ire
ĠD om
Ġfl ag
ĠSim ply
ĠB ath
ĠGold en
c hers
ĠL as
Ġbact eria
S ec
ay a
ĠA venue
E d
Ġsens or
Ġsupp lied
Ġintegr ity
ĠM om
win ning
Ġact or
Ġenh anced
se lling
est ed
S im
ud es
Ġelim inate
d ated
ort ion
ĠFr ont
ĠFore st
Ġf ake
ĠH ouston
ĠBu ild
Ġin se
ĠBro ad
Ġacknow led
ĠD oc
Ġart ificial
c ur
Ġdur ation
iz abeth
Ġdec line
Ġscen ario
th rough
Ġspecial ists
ĠR ub
Ġmod ule
ĠB ased
ĠRad io
ĠIll inois
ok ed
Ġ19 80
Ġremark able
Ġcomp osition
Ġarg ue
Ġent ity
ĠElect ric
ĠCh apter
Ġse asons
ot ion
Ġpo etry
Ġview ed
Ġcon j
Ġhand y
Ġvers us
ĠS ize
ĠChrist ians
Ġn orthern
) (
grad uate
ang le
ĠReview s
ĠAd am
x x
ĠC S
Ġal ert
st ore
Ġpr on
ĠE th
ip es
Ġdom in
Ġprinci pal
e ven
Ġp ig
% )
Ġunivers ities
ĠL ind
t ains
ĠSt aff
Ġaddress ed
ĠVe gas
1 50
Ġmod ified
Ġ9 5
ĠSqu are
Ġbe ef
T ra
c ore
Ġcou ples
8 7
Ġmir ror
c alled
Ġh ob
ĠC and
N S
ĠCond itions
ĠA ction
Ġann iversary
P al
or ic
ĠC apt
Ġacc um
Ġs orts
u ating
Ġre verse
Ġout s
Ġextraord inary
ĠC opyright
w all
ick ed
Ġover come
Ġover view
Ġhope fully
Ġdirect ory
ĠKore an
Ġoper ational
Ġar bit
Ġfru its
ĠB ad
Ġfant asy
ĠR od
Ġvers atile
Ġf ed
E G
ol is
bour ne
ĠA lp
ĠR V
Ġorganis ations
ay v
Ġte nder
h r
pl ed
Ġload s
ĠTrans port
Ġsumm ary
Ġsur ge
ĠMore over
ĠM ix
Ġaim ed
he alth
L ike
m ic
Ġentreprene urs
Ġcolle ctions
Ġcom pe
il ton
Ġv ine
Ġenc ount
ad or
it utes
Ġde ar
ĠHol lywood
ĠMe aning
ĠHar ry
Ġgr an
ĠA B
in et
ĠA z
Ġload ed
Ġbab ies
F ree
ĠC F
Ġtradem arks
ĠF ield
ĠCh oose
Ġk iss
ain e
il ation
Ġass ault
Ġp or
Ġcustom ized
Ġchar ging
Ġl oop
b est
le cts
Ġb ands
ĠG P
R em
Ġanaly ze
os pel
Ġw ider
os c
ĠK ids
ins on
Ġb urning
Ġm oon
ish ment
ĠR un
Ġfollow ers
ut ical
olog ists
2 50
id ers
Ġn erv
Ġst amp
Ġappoint ed
Ġestim ates
s uch
Ġefficient ly
Ġbelief s
und ry
Ġcir cle
Ġincor rect
Ġult ra
Ġground s
Ġphotograp her
ĠB oy
Ġflu id
Ġtime ly
ĠStud y
ĠW ales
ro t
Ġas ks
Ġb att
ors hip
Ġphys ically
Ġdiv ide
ĠB ody
p ire
Ġ à¤
Ġcra ck
ath an
Ġc m
Ġnarr ative
ask a
Ġaud i
v i
Ġsuper b
ol s
ĠB B
Ġad mission
Ġemploy ed
ll ers
om ed
Ġad min
Ġart work
aw a
Ġcl ubs
ord an
we ek
Ġcompl aint
ĠM oney
Ġut ility
ĠD am
Ġdivor ce
op en
Ġlo b
ĠG ive
Ġtri als
Ġcook ed
d ing
an th
ult ane
ot es
Ġmeasure ments
Ġcomple ment
ĠO cean
ĠPol it
Ġinfl amm
ĠPort ug
Ġobl igation
de f
Ġc aut
ĠB ase
Ġattend ing
Ġm ad
Ġc ogn
Ġp icking
Ġsequ ence
Ġengine ers
ĠStud io
ĠMal ays
Ġhospit als
ir a
ĠPar liament
Ġstreng then
Ġh ind
ous ing
xy gen
Ġpar ks
h igh
Ġcr ash
ĠL ess
Ġorder ing
g ener
ĠPenn sylvania
the re
sc reen
Ġhun ting
Ġreve als
if ted
Ġdevelop ments
ĠK at
Ġf ired
Ġmet ab
Ġdifferent ly
Ġcar ing
Ġa uction
Ġse al
ĠOnt ario
ann ab
ĠUn ivers
ĠPa per
Ġchar ity
Ġbul k
Ġinsp iring
Ġb ass
Ñ ģ
ĠSh ort
Ġce remony
Ġcult iv
Ġflo ors
ĠN S
Ġgall ery
Ġhar vest
ĠInd epend
Ġsc ulpt
Ġvari able
ge l
ĠVictor ia
Ġpract ition
Ġinsp ire
pp ort
ig ious
Ġhead ed
ĠCle an
Ġe lder
ĠPal est
Ġconfirm ation
ĠSt an
Ġloc ally
O ct
Ġqual ify
Ġabs ence
M I
Ġarrange ment
ĠP H
Ġ199 8
ĠP ast
Ġsl ots
ĠPr ince
Ġm ature
Ġsp are
htt p
Ġconc ert
ĠE lement
Ġsitu ated
ĠK h
Ġmach inery
Ġr um
Ġmed ic
Ġutil izing
r ator
Ġha bits
Ġco pper
Ð ½
ĠApplic ation
ĠDel hi
ĠAss istant
Ġpurs ue
Ġf t
Ġth ro
in als
Ġso ap
Ġinvestig ate
ĠDe ad
Ġhonest ly
Ġstop s
Ġsh it
Ġall erg
Ġcalcul ated
Ġshe ets
gu ard
Ġb io
In st
Ġr ust
ĠSc he
Ġun ne
Ġ19 70
Ġdesign ing
Ġball s
Ġbedroom s
Ġlock down
ĠD utch
ĠI C
ams ung
Ġsmart phone
arent s
Ġoccas ions
Ġp ushed
ĠG ard
Ġcrus hers
it zer
wh o
Ġmeasure ment
ĠF ast
Ġr ug
Ġmin ister
ĠL arge
Ġdisag ree
ĠM iami
ethe less
P P
Ġemp ower
Ġover night
l ink
Ġinc ent
w ich
Ġinter actions
p ing
e av
Ġen orm
ĠH or
Ġ6 00
a fe
te ch
Ġdis miss
Ġcar rier
Ġs ne
Ġcl ip
7 6
Ġvibr ant
Ġsing er
Ġb omb
Ġinj ured
ud i
ĠBl u
ĠP oly
Ġw ins
ĠD ream
Ġr hy
Ġtrig ger
Ġdis aster
Ġ4 9
Ġall oc
Ġâ Ĥ¬
Ġh o
ĠW riting
the y
AT E
Ġany time
ĠF OR
M B
Ġcomp assion
Ġapp le
Ġcap s
ĠH R
ĠDe b
Ġamen ities
k o
op er
Ġf ur
Pe ople
os it
Ġbo il
Ġbatter ies
P D
L oc
ĠF lo
ĠE sc
ino ids
Ġsus pend
es is
Ġst em
Ġcollect ive
Ġv ib
Ġport able
Ġbl ame
alle l
Ġiniti atives
Ġconstruct ed
Ġg al
p ers
Ġident ification
ĠO ak
ĠCh ange
ce nd
ĠF red
Ġqu e
p ost
Ġany body
Ġintellig ent
Ġsc ar
Ġno body
Ġaccept ance
ĠFurther more
W here
Ġc ord
Ġsupp ose
Ġd ump
Ġrem em
? )
Ġpopular ity
ĠAP I
E ng
v ard
Ġp izza
ĠMet hod
G E
ur ches
Ġphr ase
Ġbrother s
ĠS ave
pl ant
Ġ riv
Ġhuman ity
Ġassist ant
Jo hn
em ies
Ġdisc overy
Ġp ushing
ĠJew s
Ġstom ach
ĠGr ad
ĠTh ings
Ġhome own
Ġch ampions
Ġunder lying
Ġadministr ative
ĠB aby
Ġ8 00
ĠMag azine
Ġder ived
o cc
ĠInte rest
Ġto ilet
ĠN urs
Ġtrem end
Ġlimit ations
C ar
Ã ¼
ĠUS D
Ġd irt
Ġmy stery
Ġgather ing
Ġoccasion ally
Ġdispl ays
Ġg re
Ġwal ks
ĠIn nov
Ġcool ing
ĠEm ploy
Ġres erves
Ġh orm
C ons
Ġce iling
p ur
Ġad j
7 2
le e
ĠEd ition
ĠBro ther
Ġprev ention
Ġp atch
ĠP ain
ĠS ug
um my
ĠSy dney
k ind
Ġed ges
Ġle nders
Ġcomplim ent
Ð ²ÐĤ
ĠN FL
Ġlast ing
ĠSt ory
ict ions
Ġentertain ing
are st
ĠC reek
Ġgener ous
ĠRet urn
R ep
ĠG ro
s en
Ġg rain
ft en
ĠT R
Ġvot ing
Ġoblig ations
Ġbr an
adel ph
Ġconf used
Ġimpact s
ĠO x
b et
Ġre fe
ci ence
ĠCh all
ĠTur key
ĠM ail
ĠII I
istic ated
Ġprin ter
Ġcl oth
reg on
L ear
ĠI ron
Ġ urg
ist ical
Ġsing ing
Ġappli ances
Ġcomple ting
Ġre ferences
20 18
Ġsurround ed
ĠCle ar
Ġtransfer red
8 6
ĠP ers
Ġpres cription
Ġcult ures
os ystem
Ġarrange ments
ĠAr m
Ġresist ant
Ġcur riculum
ĠRes ources
on ly
Ġp add
ĠR ail
Ġmy ster
Ġterrit ory
ĠC ash
rop ical
Ġc ure
ĠP erson
Ġprotect ive
ĠColumb ia
Ġg rey
Ġrepresent atives
Ġpil ot
itut ional
ĠC ut
Ġsing les
sc ale
ch ing
Ġvisit or
Ġnerv ous
a o
Ġwork er
Ġdestroy ed
iction ary
Ġarrest ed
ism s
ĠD un
ĠF ab
ĠS D
Ġknowledge able
ĠExper ience
Ġweap on
7 3
ru b
Ġg athered
if er
Ġsh ame
ill er
Ġstri ve
Ġdro ps
ĠSchool s
Ġbasket ball
y es
ap se
Ġfif th
Ġex terior
L ove
Ġin fections
Ġprof iles
Ġh ip
Ġprof its
Ġtag ged
az a
Ġem issions
Ġvolunte er
ĠJ ane
Ġl es
ĠW elcome
ĠC T
ĠB ern
ce ive
Ġgr at
Ġsh ips
ĠDemocr atic
Ġdis abled
ace utical
Q L
ĠR on
ĠL ew
Ġend less
Ġhard ly
Ġexpl icit
ow een
Ġher itage
Ġc rown
c ard
Ġse ctors
? !
I LL
Ġvol t
Ġvit amin
iffe rent
Ġadequ ate
oo f
Ġass ured
Ġpublic ly
Ġplace ment
ĠD VD
ol i
Ġspect acular
ĠE X
ER E
av y
um m
Ġperform ances
Ġtable t
Ġinc om
Ġdepend ent
Ġin e
ĠTh ink
ry ing
aw are
Ġfeed ing
Ġannounce ment
Ġpro secut
ĠH omes
Ġsu ite
p ool
lo pe
ĠCar l
a ug
all as
Ġle mon
Ġsim ultane
ĠM ap
Ġfin ishing
in tend
im m
ĠM u
Ġargu ments
Ġestablish ment
Ġbre ed
el ve
ĠP ary
Ġbare ly
ĠM s
Ġacquis ition
Ġicon ic
Ġdemonst rated
Ġopp osition
ĠN igeria
Ġsold iers
Ġper m
Ġbu g
Ġgu ilty
iz ations
w a
Ġaccommod ate
Ġc ater
pt on
Ġfu ck
ĠG ree
ĠDI Y
min ute
Ġtem pt
Ġneut ral
Ġe uro
Ġoper ator
ile y
ĠInte gr
Ġold est
Ġfacil itate
ver ty
Ġearn ings
Ġparam eters
it ivity
el a
co pe
Ġprecise ly
Ġharm ful
M r
Ġcap ability
art s
R T
Ġign ore
c ure
ĠD iet
Ġacc used
ayv achi
Ġrec ru
Ġunivers al
b ally
re c
Ġt ours
Ġo z
Ġresult ed
ĠSci ences
ap es
ĠPary ayvachi
F F
m akers
ĠAl bert
ĠT aylor
adelph ia
Ġthreat s
Ġv ice
ĠS ure
Ġodd s
Ġdifficult ies
ĠFil m
Ġ rib
uck s
i y
Ġdecl ared
Ġbutt ons
Ġmod ify
Ġworks hops
Ġmerch and
Ġdist urb
ation ally
Ġdif fer
Ġsc ored
Ġlo gin
Ġf er
Ġ( $
Ġ6 4
ĠTra il
Ġpros pective
Ġfro zen
âĢ İ
Ġlaw yers
Ġoverwhel ming
Ġprohib ited
ĠSt ay
Ġout doors
Ġpo verty
for ward
ch ild
uu uu
Ġoptim al
a ft
rape ut
Ġend eav
Ġmarket place
Ġr ou
Ġref uge
I E
Ġcontact s
Ġfold er
B M
cess ary
9 6
ĠT ree
ĠBr idge
H T
Ġcorrespond ing
Ġp up
Ġrelax ing
Ġhy brid
Ġ \
Ġd ess
ĠBe ll
Ġrepresent ing
Ġeffect iveness
ac les
ĠOr d
W ow
ne ll
ĠP od
Ġw rap
Ġunlike ly
Ġcooper ation
Ġcred its
V iew
Ġg ir
Ġprom inent
Ġdis order
Ġcheck out
ĠEl izabeth
ĠK it
Ġtem por
ang ers
Ġang ry
umb led
Ġsett lement
ĠE C
Ġroll er
Ġbu nd
Ġepis odes
Ġla wn
St ud
AN D
ĠDemocr ats
av ed
ĠViet nam
Ġaccept able
ĠR yan
Ġvent ure
ĠA gr
at al
8 2
Ġcou rage
Ġal ike
od d
Ġtra iler
Ġapp et
ĠVill age
ĠChe m
Ġdig est
ĠComput er
Ġb inding
ĠC ore
Ġpl ates
ĠI mm
ĠL ady
Ġst rain
Ġele ctions
Ġbre w
Ġre ception
th on
Ġphys ician
Ġmag ical
Ġadop tion
ar on
Ġa ffects
Ġt we
ĠRep resent
Ġbene ath
irt ual
Ġinv al
Ġir rit
lf riend
Ġli able
Ġsto pping
Ġwid th
ĠWor king
M ake
Ġve gan
Ġsou p
Ġsh ade
ĠV it
ĠB ud
ab ad
Ġunf ortunately
ons in
, !
Ġsatisf y
ĠIm p
Ġindepend ently
ĠAd vent
am i
ĠNot hing
Ġrid ic
iag ra
Ġtri es
Ġvot es
Ġt ied
O ther
Ġt ong
ple x
A ug
Ġb other
isc onsin
ĠA h
act er
Ġbed s
Ġflav ors
ĠO l
Ġref use
Ġconf idential
Ġutil ized
n ame
Ġautom ated
Ġfil ters
Ġ 00
Ġcontro ller
7 4
Ġw aves
Ġr ational
Ġspe aks
Ġto y
Tw o
Ġp df
Ġcompet e
U D
ure au
ĠAl ways
Ġhost s
Ġbe ans
ol n
Ġspect rum
ĠM ust
Ġage nda
Ġt u
Ġsal ad
a a
M M
ĠH em
ĠU RL
ĠPer formance
Ġpar ad
Ġscr atch
Ġstruct ural
Ġproduct ive
Ġprint s
Ġc ant
Ġh orses
ĠE T
Ar t
Ġbase ball
Ġstrict ly
Ġwh is
Ġsl ide
Ġdis rupt
ĠBit coin
Ġw ard
ĠW ars
Ġinn oc
ĠIndust rial
Ġhe nce
i ology
is hers
ĠN ob
Ch rist
Ġtrou bles
at us
Ġprov ed
Ġkey board
Ġexc ite
ĠRest aur
R P
rop ri
Ġaccom pan
Ġdram atic
Ġoper ators
Ġv inyl
ĠL ock
Ġrespons ibilities
ak h
Ġwild life
Ġan cest
em ade
Ġl ol
ow ers
igr ants
ĠDie go
Ġcontract ors
ist ed
Ġinter vention
Ġl un
Ġbe loved
ĠS ource
Ġad mitted
ĠT ai
erv ing
Ġout er
ĠAn th
Ġrel ate
F ind
in ator
nes ota
ĠTe xt
Ġpublic ations
Ġsepar ately
Ġdr um
. '
r idge
Ġsoph isticated
Ġact ors
ĠH ills
Ġflo oring
v ation
g ov
Ġselect ing
U se
ĠV ice
ĠDo ctor
Ġg oogle
ch o
ĠB ene
Ġlog ic
u ates
m other
ĠH ig
Ġm ouse
Ġhor ror
ĠSe attle
Ġreli ability
ĠSing le
ov en
AR T
ro gen
ĠPhilipp ines
Ġ199 6
Ġspa cious
Ġrank ed
Ġload ing
Ġ4 4
co very
ĠCreat ive
Ġconsult ing
arm a
Ġfranch ise
Ġs ink
Ġart istic
ĠManufact ure
ab s
m ates
ĠC L
Ġoper ates
ou b
Ġparticip ant
Ġin ex
ĠN ations
Ġc er
ĠP ict
Ġpass es
7 1
r ine
ĠBr ad
fort able
ĠP urch
Ġver ified
Ġexpl os
ĠInd ones
Ġpro pri
ap h
Ġcompl aints
Ġun em
ĠCour se
Ġinterpret ation
Ġkn ife
b ie
w he
Ġout fit
Ġmet ers
Ġnet working
Ġdiscuss ing
ĠSar ah
own ed
re p
Ġrough ly
ĠC art
U ST
Ġd ash
Ġencoura ging
Ġspo ken
Ġlegit imate
Ġrefrig er
Ġdisappoint ed
itar ian
Ġcapt ured
igen ous
ĠR ome
o z
Ġw ax
ĠAn alysis
Ġsp an
Ġimm igration
Ġl inking
os ph
r ont
itt y
Ġcon e
Ġcons olid
i ro
Ġport al
ĠS ound
Ġredu ces
Ġaltern atives
im a
Ġcomp osed
Ġi OS
Ġrom ance
Ġmin istry
ĠA k
ĠO regon
Ġstra w
Ġleg acy
Ġshap ed
ell ing
Ġengine er
ĠF urn
Ġback up
ĠSy n
b ra
Ġcamp ing
Ġpromot ions
now ned
Ġwh olesale
iv a
Ġexpand ing
Ġaffili ated
ĠG as
Ġwell ness
9 2
ĠL ot
ĠNet her
et ts
ĠĠĠĠ ĠĠĠĠ
ist ance
Ġsub tle
al er
ct ic
or i
b age
Ġsu its
Ġcor por
ĠR and
Ġsy nd
Ġse w
Ġclass ified
Ġshort ly
M arch
Ġo xygen
ĠCont ract
S cript
Ġcontact ed
Ġapart ments
Ġfo ol
âĢ¦ âĢ¦
Ġrece ives
Ġrad ical
com merce
ĠAust in
Ġg ently
Ġs li
ĠEnvironment al
m ind
Ġen jo
Ġe ager
ĠM oon
au x
L ooking
Ġsett led
Ġche f
Ġdip l
Ġvend ors
Ġma ker
ivid ually
Ġgen re
Ġun cle
Ġtempl ates
Ġmix ing
âĢ ī
ad ays
Ġth y
ĠC li
Ġprom ised
unicip al
h ou
Ġgard ens
ĠJ r
o en
ĠBro ok
ow ed
be an
ĠB and
Ġt ension
ĠRes erved
Ġin k
Ġinst ances
Ġingred ient
or neys
inc oln
ĠSp ort
atell ite
ĠN AS
Ġtour nament
ĠClass ic
Ġwhere ver
f lix
Ġcomp os
... ,
ribut ion
ist a
Ã Ń
Ġo h
Ġf itted
ra ine
ĠT en
ĠB rian
Ġbott les
Ġattempt ing
Ġarr anged
se ys
Ġt ears
Ġassoci ate
ĠGall ery
F T
Ġpr iced
ĠEconom ic
get s
ĠGr ade
Ġvot ers
a ver
ĠE ric
Ġsign als
Ġ199 7
in ction
Ġdim ensions
Ġadvent ures
ĠC ould
as ion
id al
Ġdesign ated
oun ge
ĠCom b
Ġpsych ological
tr ans
ĠN ick
ap or
Ġsett le
id ity
Ġret ired
spe cific
Ġp our
he art
riv en
bu ilding
ĠB h
Ġp ants
ach us
ĠB at
Ġpe er
ĠP ick
Ġtreat ing
ĠJ am
semb ly
on ing
ĠCo ffee
Ġc inem
Ġrelax ed
Ġpain ful
st op
Ġstru ck
p apers
ow a
Ġpre ced
Ġcontract or
Ġn urse
Ġcent uries
enn es
ĠH ost
Ġsc ream
ty pe
ps on
ĠWin ter
Ġsubs crib
Ġdelight ed
ow ered
Ġjack et
Ġhes itate
Ġle an
Ġan ch
Ġtrave lling
itt ers
ĠLe ave
H igh
Ġloc ate
Ġanal ys
Ġd ys
Ġident ical
Ġbe ings
Ġreal istic
Ġfig ured
g ood
asc ular
v ance
Ġex cellence
ĠCom mercial
ĠH om
ing ham
Ġres cue
Ġdis orders
ĠN ature
Ġ19 60
ĠReg ional
Ġcompet itors
ĠSa fe
ĠPrem ium
Ġe ars
ul in
he im
20 17
Ġsacr if
ax y
IC E
Ġaggress ive
t able
Ġmechanism s
Ġre nder
Ñ Ĥ
us hes
ĠE mm
H aving
" )
Ġcru ise
Ġly rics
V ery
n ut
Ġa rom
Ġin ev
ĠW isconsin
Ġroll ed
ĠPhil adelphia
Ġcomp ound
ĠAm ong
ĠH ad
Ġoverse as
Ġli ver
Ġtra ils
Ġent ities
Ġgrocer y
ers ion
ĠR ound
Ġd ensity
ĠT X
Ġemphas is
Ġsp ir
ch ain
P N
ĠCon c
ĠGl ass
Ġbreat hing
Ġag ing
Ġsn ap
ic ating
ess ed
oc ur
Ġint rig
Ġc ust
9 3
ĠS ong
Ġbless ed
Ġvot ed
F e
Ġrecommend ation
Ġass ert
Ġcontinu ously
Ġt ent
Ġhand led
Ġdirect ors
.... ....
ĠWil son
g ate
Ġlabor atory
ĠCl inton
Ġnice ly
Ġre cept
Ġexecut ion
T ake
Ġsh ield
Ġun to
Ġpaint ings
ĠPlan ning
Ġagree ments
Ġb its
Ġtext s
Ġviol ent
ĠPh D
ific ent
Ġec osystem
Ġch airs
Ġs its
Ġ4 3
Ġport ra
in f
ail ed
Ġg ross
in ates
B ack
Ġfra gr
J u
achus etts
Ġdy ing
Ġbran ches
ĠD J
Ġpasseng ers
re nd
st ock
ĠS amsung
Ġcollect ing
Ġdur ability
Ġdiam eter
h ot
Ġac res
Ġfast est
Ġtim ing
Ġp y
ĠJ ordan
Ġle nder
Ġback ed
Ġt ire
Ġoffer ings
ĠBel ow
Ġretail ers
Ġre ct
Ġg reet
ĠMin nesota
ĠAgr icult
w riting
ĠAd vis
Ġl in
M D
9 1
E X
m n
Ġch ip
ans hip
Ġsp ouse
Ġre wards
8 4
ĠTh ird
Ġsh orter
ĠGovern or
ĠT rip
Ġrec on
Ġprodu cers
IV E
Ġsl ip
9 4
ĠAl tern
ĠCl a
Ġimag ination
Ġconst ra
Ġref used
Ġh orn
edd ed
Ġtra ce
st ic
Ġent ries
Ġadop t
Ġref lects
Ġprec ision
D id
ĠT alk
Ġt ear
ist ing
Ġblogg er
Ġnot ification
ĠAtl antic
Ġtransp arent
ĠW W
Ġint u
Ġcomb ines
ĠiP ad
ĠC hen
Ġenorm ous
Ġdiagn osed
ĠS now
ĠCan cer
EC T
Ġconserv ative
Ġsubst itute
Ġmerchand ise
Ġf itting
ĠDet ails
Ġo live
Ġun lock
Ġrestrict ed
ĠE ve
Ġspe cially
ĠCert ified
H ome
Ġl ying
ĠT otal
Ġrespond ed
ĠO pp
f ish
Ġmed ications
Ġm erg
U nder
ĠO s
Ġidentify ing
Ġdial ogue
C L
Ġdeal ers
Ġlock ed
Ġblogg ers
ig e
Ġcelebr ated
ing e
G ener
Ġreferr ing
Ġre ven
ĠB uff
Ġb ust
ĠPri or
ĠA G
ac ent
Ġpres erve
Ġg ang
Ġaccept ing
Ġenjo ys
8 3
ĠH onda
worth y
ĠAdv anced
Ġmotiv ation
ĠU V
s l
Ġbi ological
ĠT el
f ather
is ure
ĠE mb
Ġnav igation
Ġr ings
Ġcom edy
ĠLe gal
ĠI V
Ġad verse
ĠUn it
ĠD y
ag an
ĠB ru
arr ing
ĠD iam
Ġ0 1
Feb ruary
ĠE ver
Ġcomp ounds
Ġathlet es
ĠUs ed
Ġvis a
isc al
N G
bu ild
iff s
Ġgl ory
ou ver
on line
ĠT ony
bo ards
ĠM ind
p ersonal
Ġtour ism
ĠS aint
M T
Ġst ones
ir able
ĠR os
Ġc um
r ange
o pping
z ens
o ids
ĠFor um
rodu ction
Ġcount less
R O
ĠConst ruction
F ollow
Cl ick
Ġd irty
C omm
F S
oc key
Ġp it
ag a
Ġfacil it
C B
pl ing
Ġdete ction
Wh o
Ġpeace ful
Ġstim ul
Ġclin ic
Ġs ized
Ġtack le
ĠM uch
b ound
im um
ĠP interest
Ġcannab inoids
or ious
Ġen abling
Ġcou pon
Ġb ite
ust ain
ĠLin ux
ĠHall oween
Ġ7 2
P T
ĠL anguage
ĠMel bourne
uss y
Ġrequ iring
Ġtox ic
Ġ4 6
Ġsec urities
Ġware house
ĠS ix
Ġexcite ment
amm ar
ĠMex ican
Ġsubst ances
ĠN a
we b
cl osure
op t
ĠPh one
Ġblock ed
Ġ[ ...]
Ġvac uum
ades h
Ġh ired
ri or
Ġlo vers
Ġfavor ites
Ġgun s
ĠK ir
ĠMan chester
J anuary
Ġh iking
ĠStep hen
Ġst ays
Ã ¶
Ġagric ultural
Ġmotiv ated
Ġind ividually
Ġachie ving
Ġvari ations
Ġdes ires
ĠMa jor
Ġsustain ability
comm un
Ġtreat s
Ġprom ises
ĠMat thew
Ġelect ro
Ġadjust able
Ġentreprene ur
n atural
> <
ĠD allas
Ġglass es
oty pe
Ġup set
sem ble
Ġpo em
vent ions
Ġfil ing
Ġla undry
Ġking dom
ost ic
ĠApp ro
Ġplug in
Ġfr ames
Ġac ids
ĠMalays ia
Ġlaw su
Ġcle ans
Ġg ains
Ġcr imes
Ġt ang
ĠK enn
Ġlo cks
Ġincor porate
Ġt ags
ol en
Ġdis abilities
Ġtru cks
he rent
Ġn it
ĠAn sw
Ġdes ert
Ġthe ore
Ġp iano
Ġbr ick
che ck
ĠA li
Ġpass age
new s
Ġdem ocracy
g ain
Ġde fect
old s
Ġfort un
or ized
ĠNav y
Ġb oring
Ġinc ur
ik ip
Ġap olog
ĠC bd
Ġro cks
Ġdest ruction
Ġautom ation
Ġhand ful
anc ouver
Ġstro ke
Ġen emies
Ġre hab
un s
og y
Ġbo ots
Ġmod erate
ab a
ĠPrim ary
Ġint ake
ES S
Ġpl umbing
Ġbre ach
Ġrout es
ab out
Ġ8 5
D C
s ub
Ġst er
Ġan ger
Ġh itting
om atic
Ġpartic les
Ġqual ities
red ited
Ġ> >
s ome
ont al
Ġhy pot
im s
ĠL oss
Ġreason ably
Ġincorpor ated
Ġbound aries
ĠToy ota
Ġke en
Ġinstall ing
Ġt ires
l ah
Ġstri p
Ġpar allel
Ġc ous
ĠN ear
Ġcare ers
ĠTit le
Ġex ec
em ail
Ġ4 1
Ġend orse
Ġvari ables
ur l
eng er
ĠH air
ĠG reg
Ġmeas uring
Ġg rip
Ġspeed s
is ode
Ġlab els
Ġmount ed
Ġobs erve
ĠInt ell
Ġemb race
g ra
Ġp ad
Ġ5 2
Ġsepar ated
ĠGirl s
ĠJ enn
ĠRes ults
Ġex it
Ġnut s
Ġye ah
Ġcol ored
Ġins pect
Ġjurisd iction
ĠS ide
ĠL incoln
ĠInst all
Ġsurg ical
ĠG h
O ut
ĠMass achusetts
Ġagric ulture
Ġs q
ĠC ub
ĠAtl anta
Ġhead qu
Ġvari eties
Ġch urches
Ġbond s
ĠM agn
ĠD E
P oint
8 1
Ġweak ness
Ġk its
ful ness
ĠAff airs
Ã ³
ĠL ux
ĠN ation
ak i
Ġgrad ually
ĠBre ak
Ġisol ated
Ġv oices
Ġgrow s
l aim
ol ves
nt il
ĠNether lands
ah oo
Ġtail ored
Ġfail s
P G
Ġg ut
Ñ Ģ
B est
Ġha ck
pr ises
Ġtechn ological
op her
Ġle ak
Ġnot ify
Ġgir lfriend
ĠIslam ic
Ġg el
Ġcontribut ed
, âĢĻ
ent er
Ġthe sis
Ġbe aches
arr ass
it ol
Ġsp am
Ġconsider able
Ġquant ities
Ġdel ays
ĠSpe ed
Ġforgot ten
Ġdo zen
ĠD ave
Ġcar ries
Ne xt
B ay
Ġl ately
ĠB ol
AN T
Ġsusp ension
g ly
Ġvar ied
le te
am el
Ġdri ed
ĠIm pro
b ad
ĠB ull
ou ri
Ġwin ners
ĠElement ary
Ġun limited
Ġz ip
ĠInvest ment
Ġlo ver
Ġdon ation
Ġleg ally
Ġexpect ing
ater al
Ġsec ured
Ġexcess ive
Des cription
Ġconf ront
Ġtown s
Ġspo kes
Ġal ph
Ġviol ation
Ġalle g
ĠAs k
ĠG olf
Ġc yl
Ġmin erals
Ġir re
Ġh ood
Ġt att
ci p
Ġcom ic
H L
M ed
Ġp aste
Ġneighb ors
ĠCre ate
Ġaffili ates
ikip edia
Ġsupport ers
Ġcry stal
le nd
ĠA st
ĠD ur
Ġam id
Ġpat ience
ĠKe vin
Ġdepart ments
ĠB BC
is an
v able
Ġex empt
ĠDe ep
i ar
ip le
Ġra ces
Ġfor ums
ĠSh ab
Ġ199 5
Ġadd iction
Ġtour ist
Ġtable ts
ĠDis cover
ĠRel ations
ĠC raft
ĠCom plete
Ġmain stream
b es
Ġkne e
Ġpenal ty
ĠR h
ĠR og
Ġachieve ment
H D
Ġcabin et
Ġm as
Ġfle et
c re
er ior
Ġt weet
Ġs lic
Ġwa ist
light s
ĠYear s
Ġconvin ced
Ġnutri ents
itzer land
Ġse vent
ĠEar ly
Ġcos m
r ative
Ġadjust ed
Ġmar g
v ia
Ġg ig
ĠFore ign
Ġp ione
Ġaggreg ate
ag ine
Ġour s
ĠAtt orney
J une
ĠInd eed
Ġbeg un
Ġbar rel
Ġaccompl ished
Ġrefres hing
R ec
Ġind ia
Ġpharm ac
ac co
umb ai
Ġmanif est
at ical
el le
Ġtrans it
ĠDes cription
Ġprov ince
Ġact ress
Ġgu ided
ĠMed ic
Ġc ups
ĠPract ice
m arks
Ġcritic ism
Y e
Ġhas s
Ġbi kes
Ġsell ers
ĠEd ward
Ġpromot ional
Ġprogress ive
C P
Ġh ill
ĠC ape
ĠM and
Ġsc al
c ode
con f
k g
t est
Ġqu ery
Ġmem orable
Ġpot atoes
Ġcraft ed
es y
im ens
ĠBet ter
Ġth irty
ĠJ osh
Ġfund ed
Ġess ays
um ble
Ġd ancing
m ers
ĠUl t
Ġf ancy
ĠOr ange
Ġsho e
Ġre actions
Ġinvolve ment
Ġgr ay
ĠM E
ĠC ooper
Ġpo ckets
ĠMin i
ĠIsrael i
ĠM aking
ĠPhot os
ĠCook ies
ĠN orm
ot te
F O
ĠA pr
apt ers
y our
Che ck
f unnels
Ġtit led
Ġt ale
Ġread s
row ave
Ġexpl oration
Ġdelay ed
Ġliber al
ot hing
Ġhe m
ĠH IV
ĠB ear
est y
dep th
Ġprocess or
Ġboy friend
ĠCas ino
v ious
Ġproport ion
ĠC ool
ĠYou th
ĠComp et
Ġimplement ing
ã Ģ
se a
Ġr anges
ress ing
O k
ol k
ĠCast le
Ġind irect
Ġp ant
Ġden ied
Ġse min
ĠVal ent
ĠM ale
Ġgr ants
F P
Ġra ck
Ġeas iest
g reen
Ġhe al
Ġth rown
n ie
in th
Ġr ush
Ġsc rap
Ġgr id
ĠSim ilar
Ġdiscl osure
ĠD ays
les h
w art
x ide
Ġtradem ark
V C
d ale
Ġste re
Ġdeli ber
ĠEnter tain
Ġsu ited
ĠPrem ier
Ġwork force
Ġmar ine
ĠC old
ber ries
ĠB M
Ġpur ple
ĠIm age
Ġdisp ute
Ġconsult ant
ĠLew is
un ting
Ġbur den
Ġu k
Ġconsist ency
Ġsee ks
Ġ4 7
Ġworld s
Ġqu it
d em
Ġclass ical
ĠDou ble
Ġopt ional
othe rapy
ĠRepublic ans
us er
Ġpu lling
Ġw ing
Ġint im
Ġdress ing
Ġne at
th od
am ins
ke eping
Ġro d
ĠEd itor
Ġstead y
ay ing
ĠS W
Ġgr ades
ĠF uture
ĠT an
e lect
im mer
form ed
pl ate
Ġoff ensive
Ġcons ervation
oo ps
Ġpros pect
Ġaccompan ied
se ason
clus ive
Ġfree ly
Ġvolt age
ĠDe ath
h ist
Ġcl im
Ġnovel s
ane ous
Ġsu icide
ĠEv ents
Ġt ennis
ĠH ay
Ġh unt
ĠC orn
ĠB esides
Ġli ps
Ġpasseng er
pl us
ĠFe atures
ur u
Ġfall en
Ġdelic ate
Ġcont rary
Ġd ict
ĠSci ent
Ġhum or
d am
Ġdev ast
ĠDav is
Ġtr icks
m ont
augh ters
Ġma kers
Ġep ic
ag le
Ġincl usion
Ġf ence
Ġcolor ful
H is
Ġfr idge
Ġtrad itions
c led
Ġfab rics
.. ...
Ġpre st
be at
ĠWith in
Ġcogn itive
medi ate
Ġwra pped
Ġdest inations
ĠDrag on
g ot
Ġreg ime
Ġc ush
aren cy
ĠPalest in
l u
ĠR at
l ar
Ġdemand ing
Ġliter ary
Ġres erv
Ġre nowned
Ġpre ference
Ġhome work
L D
w riter
Ġpre tend
ĠComp anies
ocr atic
W ill
ĠL iter
Ġdes criptions
Ġdele ted
C opyright
ry lic
Ġgrad uated
ã ģ
ĠR us
f ly
ĠMic hel
ĠMort gage
Ġautom otive
ĠConst itution
Ġatt ractions
Ġdeterm ination
ĠRec ords
Ġch ampion
Ġsub mitting
Ġvari ation
w ill
ĠV eter
o ons
Ġam pl
Ġunne cessary
ĠTur k
Ġremind ed
Ġref lection
ĠSc ript
ĠE S
p res
Ġ3 60
Ġveter an
is ers
ĠP ear
Ġle cture
ĠV A
Ġrec ruitment
ĠA qu
Jo in
ĠB ry
ri ver
Ġdead line
ĠH an
ok er
are r
Ġstri king
Ġto ss
ĠF ant
d og
Ġdocument ary
Ġfunction ing
Ġhold er
for ced
Ġpolit icians
Ġdiscipl ine
AA AA
Ġper pet
ĠCo ver
ĠRe ally
Oct ober
ĠB lock
Ġres et
Ġ( "
on ia
ĠH ub
hold er
Ġtast y
ĠR SS
ĠS K
n ormal
B ased
Ġp ays
Ġsub mission
Ġseason al
Ġcon ce
ĠNet flix
Ab out
ĠK ansas
Ġshe lf
Ġcolle ges
ĠSt ainless
j ud
Ġbuild s
Ġp ills
Ġprop ag
ĠDub ai
ĠCh annel
Ġgen es
je ctions
Ġgener ic
Ġdiscrim ination
Ġaccur ately
C or
Ġprof ound
Ġlux urious
Ġsimultane ously
az ines
rapeut ic
Ġmet als
De cember
ĠJ ay
Ġremind er
Ju ly
er to
Ġre vers
Ġattempt ed
Ġsec rets
g ency
ĠLink ed
Ġpres idential
Ġcelebr ating
ĠScott ish
m aker
ask et
ĠFollow ing
Ġdu pl
ĠMem orial
S m
Ġglo bally
ĠHy d
Ġo d
Ġmusic ians
ĠOrgan ization
Ġposs ession
ĠB arn
Ġc ub
Ð¾ Ð
od ed
unn el
Ġinvest or
U C
Ġemb arrass
s ervice
ĠF ive
Ġinter pre
Ġt une
Ġprevent ing
ĠR aj
ĠIss ue
ish op
Ġtong ue
ĠC ry
Ġpop ulations
Ġnation wide
w alk
at ar
Ġclar ity
Ġtremend ous
Ġgr asp
Ġstake holders
Ġappreci ation
Ġread ily
ĠM oo
ĠO cc
F inally
Ġmagn etic
Ġ q
Ġthe atre
le ading
Ġret reat
ennes see
ass es
ĠB irth
Ġfre el
Ġdro ve
Ġs ons
Ġpo ison
Ġin her
Ġint imate
c os
Ġse wing
qu et
Ġfriends hip
Ġj am
Ġcle ver
Ġvol unt
Ġworth y
ĠBel g
Ġdownload ed
ment ed
ĠW ire
ĠTe a
c at
it o
ĠQuest ions
b oy
qu er
ĠJ ason
N D
ĠF ile
I B
Ġma x
Ġaffect ing
ĠMill er
ĠS ab
Ġshel ter
Ġexperim ents
g ame
Ġrest oration
Ġconver ted
m ate
Ġimpl ications
Ġh arsh
Ã ¤
ĠT ogether
ail and
Ġsupport ive
Ġhom emade
ĠBe h
ĠC ream
or ient
Ġpast a
Ġpath s
Ġaccom pany
ĠAn ne
c ount
Ġdec iding
Ġinte nd
Ġche er
Ġp ond
Ġar med
Ġinvest ed
Ġsignific ance
Ġbo ats
Ġprote ins
ar ation
ĠF at
Ġover look
L O
Ġn est
ot ing
ke e
Ġj ail
Ġgood ness
Ġst itch
ĠThe atre
ĠFoot ball
Ġview ers
Ġvacc ines
ĠT rib
ĠN HS
ĠV ancouver
Ġc rop
Ġsuggest ion
Ġsh ine
us cript
Ġc it
it udes
Ġcomplex ity
Ġconscious ness
end ed
Ġaff airs
ĠL yn
Ġpat io
Ġregul ated
am ous
AC T
ĠTru e
Ġcrypt ocur
A c
g mail
Ġhealth ier
Ġaud it
ĠP ed
I O
as m
ĠJava Script
m outh
Ġremind s
ĠLO VE
N et
U M
ĠF resh
A pril
ĠPart s
Ġep id
ĠUs ers
ĠMag ic
Ġfu cking
ĠC oc
Ġfun nel
Ġb in
olit an
Ġrepl acing
Ġb atch
Ġval ve
ĠM LS
Ġexpl aining
I ST
Th rough
ĠPe ace
ĠR oss
ĠK ate
er k
ĠJo bs
7 00
Ġsuggest ing
or ia
if iable
ĠE aster
Ġmob ility
Ġp est
ĠH o
ĠIn n
r itional
Ġtra uma
Ġrad iation
Ġcustom ize
it ual
Ġra cial
Ġcontain ers
Ġconc luded
pro f
ĠEm pire
Ġcharm ing
ĠBeaut iful
Ġdo zens
Ġmed itation
Ġperm its
e z
Ġinflu enced
ĠMary land
ĠGree ce
ĠW ant
N E
er ge
ate ur
Ġnot ion
Ġveget able
Ġpubl isher
as ive
Ġcor rel
ĠPat rick
Ġd airy
ro it
Ġhand les
He alth
Ġrecip ient
Ġt ile
Ġexperim ental
ci ples
ĠC ell
ĠSw itzerland
Ġl ighter
Ġpart ial
Ġadv ances
ĠEx p
igh th
Ġcur ve
ĠM ove
Ġfund ra
Ġdeterm ining
Ġorgan ize
ĠL aur
Ġspecial ty
ra ul
ĠL uc
Ġmut ual
T ags
e rest
Ġre de
ĠM ars
Ġassum ed
ĠAssoci ate
Ġgenuine ly
Ġcan vas
ic he
ĠF inal
ĠApp ly
ĠFriend s
ã ĥ
ĠHarr is
b ably
ru p
V A
ĠL ib
ĠB urn
ĠSim on
sec urity
Se ptember
Ġcand y
Ġcitiz en
Ġclos est
ĠP ath
Ġce re
Ġsymbol s
Ġcorpor ations
sh ine
AC K
ĠLic ense
Ġh al
Ġman ually
C S
ĠIndian a
ment ia
Ġfl ags
Ġdev oted
Ġpen et
qu o
Ġclean ed
ĠArch itect
Ġapplic ants
ĠUn like
op les
all ing
Des pite
r ons
Ġsa ke
li hood
Ġatt orneys
ĠAs sembly
Ġcou pons
quir ies
Ġm ater
iv ities
Ġclaim ing
Ġeval uated
Ġsh adow
Ġhere in
Ġcondition ing
s al
Ġs isters
on ge
d irect
c r
p read
iz able
Ġchart s
Ġel ite
ound ing
ens ed
Ġeth ical
ĠP O
ul ent
Ġne arest
pect ives
GB T
G O
d riven
ver ages
ĠH ung
b rew
Ġp icks
ix ed
ĠSp ot
Ġelectron ics
ĠB ureau
Ġwe ld
ab ama
ĠRes ort
v it
ĠD ise
ĠOx ford
Ġdef ic
Ġstraight forward
me ga
Ġsurv iv
Ġhand made
D ue
lish ing
Ġscholars hip
M on
ĠInd ex
Ġmagn ificent
ĠAdd itional
Ġqu ilt
ll ar
Ġsoon er
Ġar ising
Ġconf usion
Ġindepend ence
Ġess ence
ĠFe at
Ġcompe lling
Ġfa cial
Ġtast es
h u
ĠTechn ical
Ġte nds
Ġteac hes
ĠI owa
Ġ199 4
Ġvoc al
Ġuncom fortable
Ġcreat ures
L P
Ġreject ed
b ies
ĠDiam ond
ĠH ousing
m ay
ard less
Ġn u
Ġg host
ru e
Ġcustom s
Ġint ensity
Ġw age
ĠPost ed
ĠF DA
ov ing
Ġpu pp
ĠAct ive
Ġpollut ion
Ġthrow ing
ĠSwed en
Ġelder ly
Ġst abil
oc us
ĠG i
Ġbad ly
oun ced
Ġcam ps
ĠE D
end ing
ĠP itt
ph an
Ġaudi ences
ĠW onder
ĠN az
Ġdon ations
add y
lah oma
ĠJ ess
Ġre aches
Ġaddress ing
Ġdecre ased
U B
ĠMar ine
Ġc ree
ĠG ift
Ġpack ing
Ġinfect ed
Ġf ut
ar ity
ĠL es
re tt
ĠB ab
Ġbra ce
urd y
Ġrhy th
eb ook
ed u
Ġfoot age
Ġar ise
Ġb ol
um ing
m aster
T R
ĠS ac
Ġher bs
ĠCur rently
Ġd ivers
20 16
à ¸
Ġco ating
Ġsn ack
! ).
pl an
i per
Ġobtain ing
ĠH um
ĠDen ver
ĠM ath
pay day
ĠE le
ĠMet al
li est
yl on
ĠS weet
Ġ1 10
t own
Ġre loc
Ġtem ple
ĠSer ver
Ġfol k
ic ular
em n
ĠR ent
Ġign or
ĠV irtual
ĠIs lands
ĠH E
ĠH u
ib bean
ĠEntertain ment
Ġtw itter
Ġdress es
ĠSe veral
ĠThanks giving
ĠAssoci ates
K E
g ic
ĠClick funnels
am ine
Ġneed ing
ab ul
20 15
Ġpresent ing
Ġa qu
Ġterm inal
ĠC u
att an
Ġen roll
Ġval ued
Ġpet ition
Ġmand atory
ĠSpr ings
b led
ĠS ant
Ġbl ade
Ġev ident
eto oth
back s
Ġsh out
Ġcontin ually
ides pread
Ġcl ue
A ct
ĠCl ark
ĠPl atform
ĠIm ages
ĠImp act
ĠBow l
Ġalbum s
Ġintern ationally
Ġsepar ation
Ġconst itute
Ġrespons ive
Ġswe at
Ġthe ater
E l
Ġrem ed
ĠFe llow
oub ted
ĠAl ong
ĠInd ividual
ential s
oen ix
Ġun p
Ġw ines
ĠC ars
ĠSa udi
Ġlim itation
Ġround s
Ġun pre
Ġbas ics
Ġwel coming
arn ess
Ġeas tern
Ġdete cted
ĠRes erve
Ġneg lect
Ġrad i
as ant
Ġseem ingly
Ġnic he
ĠG A
ĠCol lect
ĠT ennessee
Ġhor rible
lo ans
Ġsh ades
Ġfl ows
Ġbul let
ĠCur rent
Ġdark ness
e y
al so
Ġwhe at
u ations
Ã ¨
Ġmother s
form ing
ĠB ron
ĠV ar
Ġgl uten
Ġ19 50
Ġphys ics
Ġdiv ine
Ġcraft s
Ġmus h
m ad
Ġorient ation
w ind
ĠB ag
Ġthere by
Ġded ication
Ġsol ving
Ġrob ot
ĠR O
ĠF ashion
X X
r int
Ġear ning
ĠBo ys
Ġp ix
ĠAd vert
Ġinflamm ation
ĠM ission
Ġed ited
ĠId ent
per t
Ġper ception
ĠCom pl
C ur
Ġh ills
Ġexhib it
Ġneigh bour
Ġeduc ated
ĠH i
ĠReg ister
ĠSy ria
elt a
Ġhass le
Ġlibr aries
T E
v id
Ġb out
th ur
out heast
Ġport ray
P E
Ġspons ored
O ff
t it
ik a
N ovember
P L
Ġtou ched
ĠW y
Ġther mal
Ġuncertain ty
an cer
Ġannoy ing
Ġbank rupt
Ġhar ass
ĠP L
ĠAnt on
Ġdress ed
Ġd ated
Ġform ats
Ġco ins
Ġl enses
ĠR ap
Ġb aked
Ġdes erves
Ġtro ops
Ġbr ut
Ġdefe at
Ġb icy
ĠDef ense
Ġatt ributes
Ġn a
Ġmill s
Ġthank ful
Ġsc ary
o vers
Ġt ropical
row ing
Ġregard ed
Ġt ies
ĠPh arm
Ġsl a
man n
Ġpers u
au ge
Ġdistinct ive
Ġemb edded
Ġline ar
j u
ar ound
ĠT oo
Ġch ains
ĠV ent
Aug ust
Ġb ones
Ġpen is
ĠSc reen
k m
H z
l ay
Ġpros pects
Ġf iscal
Ġser ial
Ġcomput ing
h ill
t ic
ign ment
ne cted
ari os
oubted ly
ĠR ain
reed om
pt ic
Ġtour ists
s k
Ġh oly
b urn
ĠK a
ath on
ĠP in
Ġexc use
Ġb ay
Ġp ine
ĠC ulture
Ġco aches
Ġfail ing
Ġthe ories
ĠSim ple
in burgh
Ġclean er
rit ical
Ġcontribut ing
T ech
Ġcalcul ate
Ġwe lf
Ġut ter
Ġproceed ings
Ġrepeated ly
ĠAm end
Ġrac ism
ĠDe fin
Ġconsist ing
ĠB alt
Ġadjust ment
Ġdeal t
e ous
Ġback pack
Ġcu is
Ġf et
Ġinstitut ional
Ġs atellite
ĠD raw
Ġshould ers
ĠGr ant
ĠK elly
Ġam er
Ġsc ared
Ġbu gs
pt ions
ne ath
ĠAss ess
ĠMor gan
spe ed
ĠMiss ouri
Ġincl usive
- )
az y
Ġd oses
00 1
Ġspread ing
Ġpray ers
oc y
un es
ĠH ur
on om
Ġsil ent
Ġwelf are
Ġpresent ations
Ġeth nic
Ġch ina
op es
ĠIndepend ent
Ġintegr ate
ĠAll iance
claim er
Ġcon sole
Ġ0 2
. |
p ace
Ġshow c
ĠAll en
ĠH al
Ġjournal ist
st ick
ĠHol iday
Ġf oster
ĠAf ghan
T ime
Ġwarm ing
ĠI L
ĠSt ra
ĠFurn iture
Ġan x
Ġpar cel
Ġch o
Ġanticip ated
s ize
Ġst olen
Ġdisc lose
Ġminim ize
Ġcor ruption
Ġret rie
Ġstat istical
ĠVol ume
Ġbes ides
Ġadvoc ate
Ġpra ise
Ġcompan ion
Ġtom atoes
z o
Ġbook ed
Ġimpro ves
ograph ical
Ġsqu ee
Ġexecut ed
ĠR ot
Ġaband oned
Ã ł
ĠW E
j ar
C al
Ġann ually
Ġexam s
Ġin hab
ĠN ative
az ing
Ġres on
Ġdist ancing
Ġlab our
ĠRE AL
id th
ĠS lo
ĠM ining
Ġclos et
ĠPay Pal
ĠJ oy
arch y
Ġ5 4
Ġ20 22
Ġfun eral
Ġcor ners
ĠB ond
Ġcollabor ative
\ /
h h
Ġshow case
ĠD ra
ĠOrig inal
Ġr uling
S ign
ĠB us
ort ed
ad vant
Ġmaxim ize
Ġcompar able
Ġo w
ĠBeaut y
Ġvan illa
ĠC os
ond e
Ġoccas ional
Ġign ored
Ġmag azines
ĠPu erto
xim ity
ro be
ig ue
Ġmetab ol
Ġsent ences
Ġcount s
Â ´
Ġac ute
IN E
ĠB attle
Ġsens ors
P res
Ġpre view
Ġnever theless
Ġgive away
ĠUt ah
c ulation
Ġconduct ing
Ġ3 50
ĠSt yle
Ġdig it
ren cies
a ul
ĠVal ue
Ġy arn
ĠR ick
Ġfear s
ust ral
omet er
ĠAnaly tics
Ġis lands
re ach
Ġte ens
Ġsear ches
E ar
ĠR A
Ġg em
let te
Ġhaz ard
U K
Ġair line
Bl ack
Ġmod ules
idd ing
Ġw idespread
Ġappoint ments
Ġp ics
ĠEs pecially
ï ¸
are l
ĠDesign ed
Tr ans
ĠMan ual
ĠA bs
Ġemerg ed
Ġd ot
ĠC her
Ġinfl ation
Ġcl ay
ĠMeet ing
c am
ĠEp isode
. </
ĠTh ailand
Ġexam ined
Ġprivile ge
is ons
Ġd ive
Ġr if
Ġbenef ic
Ġnot ified
G od
ĠM arsh
ĠPro p
Ġappro x
ĠS ad
Ġres olved
Ġoff ense
Ġunder ground
Ġhom eless
Ġmar gin
Ġh ike
Ġestablish ing
amp oo
Ġsince re
Ġg aining
ul ator
Th ose
Ġcontro lling
Ġacad em
Ġin quiry
io xid
ĠLa ure
s chool
Ch ina
ĠA ve
ci um
Ġsh ipment
ĠBer lin
Ġtw in
ug g
ĠIS O
e re
Ġaest hetic
Ġs ail
Ġan th
ĠAnth ony
Ġroll s
ĠB ird
Ġinf ring
n ai
r ors
Ġst umbled
Ġout break
ĠCommun ications
ĠB S
ĠAl abama
il itation
ĠB rowse
ĠEn h
Ġhe ated
Ġj azz
ĠCh icken
Ġa ug
ĠK y
Ġsuspend ed
Ġv ig
U I
a ired
ĠSy m
Ġin jection
Ġ5 1
Ġr ic
Ġemb ra
Ġlog ical
ĠQue ens
St art
ĠOff er
Ġp airs
Ġc iv
ĠF an
Ġout let
Ġfe as
Ġsil ence
ĠD at
Ġt iles
Ġd aughters
Ġcor poration
Ġunderstand s
Ġfl ip
IT Y
Ġsh ore
ĠSw iss
Ġdro pping
Ġg est
p in
Ġg y
ze ch
Ġse ating
ĠL GBT
Ġnew er
app ropri
ĠVe h
Ġint r
ott age
ĠCar ibbean
Ġaccording ly
ĠChall enge
com pass
Ġdent ist
Ġlegend ary
U E
Ġweeke nds
Ġpe ers
A E
C R
Ġf lesh
Ġdo ct
Ke ep
Ġrec ur
h ave
ĠHer itage
ĠN J
Ġman uscript
Ġrespect ed
Ġm art
Ġpost er
Ġthr illed
Ġalgorith m
Ġe co
tt es
Ġb orders
New s
Ġsport ing
Ġm igration
ĠCent ury
ĠD rug
ĠBar b
Ġhand ed
ĠBr ight
Ġt anks
Ġpl a
Ġreflect ed
Ġp el
Ġext rem
ĠPort land
Ġappeal ing
et ics
ie re
ĠG re
Ġbase ment
ĠA w
ĠR ather
ĠChampions hip
ĠP ills
ĠUl tra
ĠF o
ĠUp date
Ġp ear
ĠS i
Ġprem ises
Ġpsych ology
Ġth umb
Ġper ceived
ĠBl ood
Ġprofession ally
and al
ĠFe el
Ġfin ishes
h ard
Ġ0 3
gi ene
B O
ill ance
Ġchem istry
Ġbehavi ors
Ġphenomen on
ĠP il
Ġclos ure
Ġw ings
Ġab stract
ĠSu ccess
Ġham mer
ĠYe llow
L ook
Ġfra ction
ĠW oman
Ġal ien
ĠHT ML
Ġhob by
w hen
ĠD S
Ġspr ink
ĠG ene
ĠN ort
ĠL uck
ĠLo an
ĠOk lahoma
Ġacc idents
Ġ199 2
ment ation
Ġprom ising
nam ents
Ġaw ful
m atic
ov ed
Ġprem ier
ĠW A
ick ets
Ġloyal ty
Ġbreak down
ĠCap itol
ĠF le
ont in
ier ce
ĠP T
Ġclimb ing
ĠRegist ered
Ġsk ip
âĢĶ âĢĶ
Ġtow er
Ġsacrif ice
ĠB rew
Ġfl oral
Ġrecy cling
or ph
ĠNot ice
ĠF em
ĠLe on
Ġsell s
om er
Ġcons ume
Ġra b
Ġconsider ably
ĠN ik
ï¸ ı
S ub
Ġm ales
Ġobs ervation
Ġpu ppy
ribut ed
bu ilt
ĠG iven
ĠAnt i
Ġencount ered
Ġf ought
B el
th rit
bre aking
Ġge omet
Ġp unch
Ġbar rier
Ġwithdraw al
ĠCor porate
Ġg erm
ĠT ell
Ġcor re
at tered
Ġco in
raul ic
Ġtarget ing
b ird
âĢ¦ âĢĿ
Ġev olved
Ġstart up
Ġwarn ed
h ole
Ġhomeown ers
Ġadapt ed
A ss
at ility
ĠSt op
ĠHawai i
ĠE P
Ġnurs es
place ment
Ġsynd rome
ĠL iver
Ġch apters
Ġle isure
Ġform ing
ĠZ oom
D av
Ġr itual
Ġjo ke
Ġtransform ed
F orm
ap olis
Ġsa fer
Ġoptim ization
Ġtempor arily
F R
Ġ5 6
um bers
Ġp ension
Ġpract icing
ĠCapt ain
b lo
Ġexp ed
Ġneg l
Ġnot ifications
Ġtestim ony
ĠD or
ĠLead ership
sh ore
he ld
ĠSt ri
ĠAn imal
ĠIm port
ĠSte am
ĠG R
Ġbon uses
Ġrem od
op ic
F l
Ġpharm aceutical
ĠM C
ĠðŁĺ ī
Ġinv itation
uss ion
ĠK ings
ĠEmer gency
Ġmyster ious
ĠAm b
Ġadvis or
arm s
m ary
ĠTem ple
ĠW ine
ĠT arget
Ġlob by
av or
Ġthick ness
Ġdist ribute
Ġpu zzle
u ary
Ġimm ense
Ġtransl ated
Ġeng lish
Ġprev al
Ġvend or
ĠN ep
Ġpress ing
ist ically
Ġpres cribed
Ġthere of
Ġsynt hetic
Ġ199 3
Ġcost ly
ĠReg ion
g ie
Ġdim ension
n als
Ġstrugg les
D I
Ġat e
ĠL ad
Ġmon etary
G S
v ada
\\\\\\\\\\\\\\\\\\\\\\\\\\\\\\\\ \\\\\\\\\\\\\\\\\\\\\\\\\\\\\\\\
n ames
Ġreg ret
Ġpoint ing
ĠB oo
ĠIn sp
ĠF ine
ĠW at
ĠCo ach
Ġsh aft
â ĺ
T y
ĠFl ash
Ġdynam ics
be y
Ġtransp arency
Ġon ion
Ġtravel s
ĠL ut
Ġcancell ation
ï ¼
or ical
ar ia
b in
r ings
B R
Ġm esh
is p
i pper
ĠPr ices
c ateg
Ġven ues
Ġsubsequ ently
Ġv iagra
off s
Ġscen arios
Ġremem bered
Ġvis ibility
ĠCo al
Ġpal m
Ġbi as
Ġkill er
Ġemb od
Ġto ps
omm y
ony ms
Ġwat ches
Ġad orable
Ġexec ute
D ay
Ġtre asure
Ġassign ments
Ġabsor b
Ġmole cular
er on
ol ine
ĠCom ment
Ġc akes
Ġp ork
Ġp ussy
ĠM umbai
Ġpick up
Ġcl ips
Ġunem ployment
Ġn erve
ĠM ine
Ġmic rowave
re ll
ĠP resent
Ġinstruct or
Ġmar king
ĠMe anwhile
ĠCare er
ĠShab d
Ġsh r
Ġen zy
Ġhigh way
ĠRev olution
ĠChristian ity
Ġappet ite
ac hers
Ġmod er
Ġhung ry
S ometimes
Ġvessel s
Ġe Bay
ĠCam bridge
ĠD ad
Ġcar go
Ġcreat or
Ġprior ities
Ġpen cil
ĠA th
ĠCon vention
Ġminor ity
he w
Ġpursu ant
Ġwond ered
r in
ip h
Ġprogram mes
Ġn urt
ĠS L
Ġthe rapeutic
Ġmet all
cc a
ĠAnd erson
b n
Ġcross ed
Ġsens itivity
s ight
ion ed
Ġres ervation
ĠRem ove
u z
Ġtw elve
Ġhe mp
Ġfrust rating
ĠChair man
Ġcancell ed
Ġb ree
ĠR ace
ĠB ott
Ġj et
ĠRep air
b ian
Ġdis k
ĠAny way
Ġcabin ets
ĠS ov
pr ing
author ized
Ġdist inction
Ġbroad er
ĠTurk ish
ne red
Ġ5 3
ĠPol and
Ġm ice
Ġl bs
ĠG race
Ġste ep
ĠS orry
Ġco zy
Ġprev ents
Ġvol umes
Ġfarm ing
Ġst iff
Ġparticip ated
Ġvit amins
ĠR out
Ġdepart ure
Ġpropos als
ĠIndones ia
ĠA y
Ġprote cts
quis ite
Ġrenew able
ann ah
ĠS ett
roll er
ve t
ĠDo or
Ġnut ritional
Ġcer amic
an ne
ĠBe at
Ġpart ially
Ġcy cling
Ġqu arry
Ġtrans fers
Ġcoast al
Ġin box
Ġexpl ores
ĠP ra
Ġw ars
Ġpros per
Ġ18 0
Ġarriv es
ĠH ence
Don ald
ĠMoo re
Ġmotor cycle
Us ing
Ġeconom ics
Ġobserv ations
Ġinnoc ent
Ġsc ent
G e
ĠH op
ĠSur vey
p ath
Ġback yard
AS E
rat ulations
ĠG O
Ġwind s
Ġg ad
ĠM L
Ġhighlight ed
Ġw ool
D R
ĠOver all
Ġconf using
o bs
ĠV ac
Ġcra w
he lp
Ġqu eries
well ery
Ġsk etch
Ġbathroom s
Ġr amp
ĠCor p
, ,
ĠC V
Ġver ification
ĠCook ie
Ġcor rupt
ĠPay ment
Ġeduc ate
Ġaccess ed
Ġden y
as ma
abul ary
ĠT agged
Ġkind a
H er
ĠMet ro
ĠG PS
Ġlog istics
M od
Ġdraw ings
ĠCom merce
ĠKent ucky
ĠG round
Ġim pe
Ġdes p
Ġappear ing
Ġto ll
ad er
pos ition
Ġdraw s
ĠCons umer
ĠM as
Ġr ally
ĠMil itary
p ically
Ġassess ed
Ġund oubtedly
Ġbur st
ane an
ĠHar vard
Ġquot ed
Ġc ited
Ġencoura ges
ĠH it
Ġpat ent
Ġst urdy
ĠG T
ĠAny one
Ġfert il
O K
P ay
Ġb ot
Ġr ides
Ġle verage
ĠRestaur ant
9 00
Ġsil ly
ĠE V
ens ively
Ġtechn icians
ĠÂ §
Ġprior it
Ġgl oss
ĠCons ider
Ġdecor ative
Ġretail er
Ġintrodu cing
ĠHealth care
ĠNY C
Ġh int
ĠNot es
ĠC ertain
ĠG rey
Ġbet a
Ġcompet ing
ĠTai wan
Ġsem ester
ĠF ish
Ġ ),
Ġridic ulous
Ġhe ater
ced ented
hes ive
i kes
Ġl id
com ed
Ġel abor
oo oo
Ġprof itable
ĠAd ult
ĠGet ting
Ġunder neath
Ġcomp aring
ĠCh i
Ġexc luded
Ġlong est
iz ers
Ġfem ales
Ġdistrict s
ĠH art
ĠWi Fi
ĠUnivers al
ĠMult i
at ched
on i
Ġbelong s
ĠRo ll
Ġins ure
Ġattend ance
Ġenhance ment
Ġ ic
Ġrep ay
fl u
Ġim aging
ĠEx cellent
ĠLat est
on al
Lear n
Ġre vel
Ġvar ies
Ġupd ating
Ġtravel ers
ĠInnov ation
Ġbar riers
Ġre nd
ĠG ab
ĠF ro
Ġra pe
ĠMe chan
Ġdess ert
ĠT ower
Ġant ioxid
Ġpers pectives
OR D
âĤ¬ âĦ¢
Ġtact ics
Ġanim ation
Ġcon ferences
C ustom
ĠG raph
Ġguarant ees
Ġb ake
Ġth resh
Ġdist ract
Ġstruct ured
Ġvary ing
ĠAl aska
Ġgovern ance
ĠS ri
Ġgrand mother
Ġb ored
iv als
Ġdon ate
Ġinv ention
____ ____
ific ates
Ġaccess ing
Ġ7 00
Ġgener ating
E m
so ever
Ġpack s
Ġdisapp ear
Ġconj unction
Ġcompliment ary
ĠEnter prise
ĠMiss iss
ĠWh atever
ĠMedic are
Ġch amber
Ġphys icians
em an
ĠPart icip
ener y
ĠAr k
Ġmod es
AL L
ĠSupp ly
Ġdiscuss es
orient ed
Ġpropri etary
u ity
ĠT rain
ĠS ustain
ĠB L
bel ie
Ġst ating
Ġfro st
ĠS ens
Ġdam n
Ġhop ed
r ise
ĠOther wise
Ġcris p
Ġunw anted
Ġto b
ra c
re ated
Ġr anks
ĠG ulf
Ġadjust ments
ĠUp on
ĠG B
ĠDet roit
Ġsc oring
ĠG ate
Ġw ore
v ens
olog ically
Ġamaz ed
ĠEngine er
G r
Ġpract ically
Ġsol ved
ĠSch olars
l arge
Ġcr ust
Ġsh irts
gg er
ĠRes p
Ġremote ly
i aries
ol ph
Ġarchitect ural
Ġdef ensive
Ġcount ing
ĠC ow
ain ted
ĠU C
Ġstrength s
ĠArab ic
ĠB R
Ġun re
ĠFranc is
e als
Ġback ing
ather ine
ĠS omething
ĠB or
Ġspecial izes
le ans
ĠM T
ĠR ange
Ġphr ases
i ated
ĠOther s
L ife
Ġatt raction
Ġmet res
Ġnon profit
Ġrent als
Ġpri est
ĠCh rome
ĠSe pt
ĠO d
âĢ¦ ..
Ġshe ep
Ġar c
Ġbo asts
Ġreview ing
Ġm ock
Ġrelax ation
Ġbr on
enn a
Ġj ar
wh ite
T ER
ĠG M
Ġattack ed
Ġcream y
Ġwood s
N Y
Ġch rist
1 000
ell a
Ġp ipes
ĠDu ke
ĠN ice
Ġpartners hips
ĠOlymp ic
Ġoppon ent
ĠS ony
Ġ0 8
ogen ic
Ġcomm ands
pos ed
Ġconne cts
Ġdefe cts
Ġunder graduate
ĠClin ical
Ġp orts
ĠO ften
all ow
bs p
ĠPri ze
Ġtherap ist
Ġt v
Ġe book
g roup
Ġextra ction
ĠS M
Ġdiet ary
ĠD ry
st airs
oc a
Ġspir its
c ap
im ents
Ġflav our
le tters
ĠL if
Ġste ering
ĠUs ually
Ġtr ash
ard ing
ĠLinked In
ab lished
f und
ĠR ules
c in
ĠB achelor
ĠRes pons
cl osed
ĠSol ar
) )
ĠR ab
Ġnot able
ĠAnge l
Ġprotocol s
ĠD er
Ġt ar
Ġconv ince
Ġconcent rate
Ġexch anges
ig ma
ge red
Ġown s
ĠCh amber
Be ing
ĠCe lebr
pro te
ĠCert ificate
Ġst rap
Ġconsum ing
Ġcheap est
Ġan onymous
Ġfun n
Ġindic ator
Ġarg ued
Ġmet h
Ġcy cl
Ġo l
ĠMar ia
Ġpractition ers
ĠOrgan ic
Ġperman ently
Ġcon secut
Ġv iral
ĠS om
edd ings
Ġrespond ing
ĠB uck
Ġout line
ky o
Ġth rive
ĠN T
Ġret ro
Ġhold ers
Ġhe d
Ġdescrib ing
Ġl one
Ġequ ality
st rong
D own
o ft
ĠWh it
St ar
Ġdomin ant
Ġgr ind
Ġoptim ize
ĠUr ban
el and
Ġpres um
Ġglo ves
ĠNurs ing
ph p
vel and
Ġmount ing
Ġconnect ivity
Ġma iling
ĠLoc ation
ĠMuslim s
Pro f
Ġsmooth ly
Ġisol ation
u ced
ank a
Ġcard i
H el
e ks
ĠD ental
---- ----
av ailable
Ġgl uc
C le
v ol
ch ant
ĠL am
cipl inary
ĠMult iple
Ġacc ent
Ġf ond
d iv
Ġqu art
ach t
sh irt
Ġp ose
Ġper fection
ĠTechn ologies
B oth
Ġcomm od
Ġavoid ing
ĠS urg
Ġrece iver
Ġsh ake
ĠYe ah
Ġrefriger ator
Ġcomment ary
ĠJud ge
ĠT ips
op l
Ġsl im
op ath
Ġco inc
ĠDy nam
ed ed
Ġch ick
ĠAr gent
ĠI M
Ġaccess ibility
Ġlight ly
Ġjud ges
ĠR idge
Ġmon ster
ord on
ĠU ntil
ĠSt orage
Ġunpre cedented
Ġex pend
Ä ģ
ie val
Ġprov in
Ġresp ir
ĠLu ke
Ġprob ability
Ġdry ing
W A
ad i
Ġcontrovers ial
On line
Ġb er
ĠD ick
O b
ac o
Ġpu zz
ĠL ots
ĠTh ai
Ġcontact ing
ĠAlex ander
Ġb ump
20 14
Ġtra ins
ĠStand ards
ĠPy thon
Ġj unk
ĠPh oenix
Ġsatisf ying
sh ot
Ġcomb ining
ĠF alls
Ġout lets
Ġsun ny
Ġre ass
Ġpredict ions
Ġkey words
Ye ah
Ġl ining
Ġca f
Ġe ternal
Ġpro st
Ġel astic
Ġch ol
Ġinf in
f are
ĠSk in
ĠAn na
Ġflo ating
Ġdesper ate
Ġbr ass
Ġfund ament
point s
Ġlaunch ing
Ġfin an
Ġpredict ed
thrit is
Ġd ictionary
On ly
ĠP ink
iss a
ĠS F
Ġmet er
ch air
Ġpharm acy
Ġt urb
Ġup s
Ġpot ato
Ġrel atives
ing le
ĠO w
Ġt ens
ĠBet ween
ĠM all
ĠE ither
K S
ĠT a
ov a
ibl ical
f ox
Ġch rom
ĠHe at
ĠH oll
Ġtal ents
Ġse gments
ĠRet ail
Ġso fa
Ġkind ness
Ġdim in
Ġinf ant
it err
ĠL ane
af ood
Ġattract ed
Ġsend s
Ġgovern or
f i
Ġn aked
Ġseam less
ym ph
Ġdepos its
ir ates
ĠD elta
ĠF igure
Ġtax i
ĠPhot ography
Ġterr ific
Ġ10 1
ĠBrazil ian
ĠF R
Ġqu arant
el ed
Ġcompet ent
Ġpe oples
ig o
Ġillust rations
ĠR u
Ġgr ammar
Ġintu itive
Ġdis advant
app ro
ip l
Ġcomb inations
Ġsurprising ly
ĠValent ine
qu al
Ġinter rupt
f irst
Ã Ĺ
ing ing
Ġp ile
Ġle nding
col or
Ġc av
Ġp ound
ĠQ ual
Ġjun ior
Ġph osph
as is
ĠFlo or
Ġreward ing
Ġmedic ines
Ġj ury
ĠIn v
ĠUk raine
Ġprompt ly
Ġdispos al
ose x
igr ant
ĠKind le
w al
Ġurg ent
. -
Ġcompl ain
Ġtrad ers
Ġbra ve
er ver
Ġdem o
ĠAm y
ĠBrook lyn
ĠIntell igence
tra ck
Ġen erg
Ġbu ck
Ġdead ly
al ore
aw s
ig ating
Ġhind i
Ġu pt
Ġatt ain
cept ions
rop olitan
Ġwel comed
Ġkil omet
p ensive
Ġste pped
ĠCommun ication
ĠTool s
Ġl ined
rit ers
Ġwater proof
Ġbuild er
add le
Ġsurve ys
Ġtom ato
Ġz ones
Ġhapp ily
ĠShe l
Un fortunately
Ġupgr aded
Ġcont rad
ĠCharl otte
id ges
C ong
Ġbless ing
Ġlawsu it
Ġworks he
Ġstream s
ĠVis ual
ĠGal axy
Ġed itors
ON E
Ġorgan izing
Ġaltern ate
Ġthread s
aret te
Ġc oding
Ġdram atically
ĠBlu etooth
Ġl ounge
ĠR ico
ret ty
ĠPre p
ros ion
Ġthro at
Ġintegr al
ĠPh ill
are ttes
Ġmoment um
Ġassum ing
os ures
h uman
Ġrev ised
Do es
Ġwhat soever
Ġ6 6
Ġthreat ened
Ġeditor ial
Ġafter wards
Ġsw ord
ĠGu id
Ġthe ft
ĠC ards
Ġto dd
Ġ199 1
ĠOut door
Ġcharacter ized
Ġadj acent
Ġret ention
Ġcons pir
S et
ad ows
Ġst ove
ĠState ment
Ġbe ll
Ġbra ke
in ance
Ġsp at
ĠOper ations
r ison
Ġst atic
Ġriv al
iterr anean
B et
Ġhospit ality
Ġvirus es
20 13
Ġnon etheless
Ġm unicipal
ĠThe rapy
ĠK u
Ġd ub
ĠN ash
ag ger
Ġhoriz ontal
Ġb ang
Ste p
f old
et e
ke eper
Ġlearn ers
sh aped
Ġhousehold s
was her
w ritten
Ġoff line
OR T
ĠD ance
ĠH ERE
Ġprest igious
t alk
ĠM B
ĠD omin
u ke
ast ics
AR S
Ġle ver
Ġcirc ulation
Ġesc ort
Ġbub ble
j ack
ĠR SO
Ġinflu ences
ĠL ater
ĠRec ord
ĠMor ning
e u
Ġbur ied
Aut hor
Ġf are
Ġref ined
Ġbit coin
Ġswitch ing
ĠJun ior
ĠA BC
Ġcomment ed
R ed
ĠC zech
ĠK ay
Ġtrain er
ipp i
Ġattach ment
d ig
ch ron
ĠReg ulation
Ġth rew
Ġexecut ives
Ġs aves
Ġbu zz
1 20
ĠInc re
ĠM it
Ġje ans
Ġl ug
D E
Ġd ense
im ore
Ġ5 8
com mercial
Ġshock ed
ĠAff ili
Ġcom f
ĠCons erv
R et
ĠG il
Ġtax pay
uff y
Ġcrus hed
Ġcle ared
l asting
ur able
Ġtrad es
Ġgra vel
Ġabund ance
Ġcuis ine
Ġprec aut
Ġman ages
Ġrest ored
Ġwarm th
Ġcro ps
Ġopt ical
Ġve ctor
Ġfire place
Ġin ject
Ġcomp iled
Ġwal let
Ġd os
ĠT W
Ġtum or
m ount
ĠSp a
Ġ verse
Ġo un
Ġg rief
Ġkind ly
Ġoccur ring
Ġeth ics
Ġsc am
Ġpromot es
Ġve gg
ch a
Ġactiv ated
ĠCh ocolate
Ġorganiz ational
Ġr uled
Ġchalleng ed
mind ed
Ġl am
P s
Ġther m
ĠMaterial s
ange l
Ġnow here
Ġsn acks
Ġfortun ate
ĠRegist ration
Ġwor ries
Ġnews papers
Ġsix th
ĠL em
Ġapplic ant
th al
Ġrep orter
ĠNever theless
Ġbet s
Ġsci ences
Ġsen iors
ro lling
Ġpol ar
Ġfor k
ĠAd obe
Ġch ill
ĠSwed ish
ĠM ask
Ġrem edy
ĠBut ter
ĠTransport ation
Ġcar riers
b ling
ĠMO RE
ĠS oul
ĠC annab
Ġconsecut ive
Ġmat ched
olute ly
Ġsurv ived
Ġpart ly
ĠAmend ment
Ġn our
Ġmethod ology
ĠGreat er
Ġind ul
Ġ3 65
ĠSug ar
d rop
Ġaw a
in nam
ĠChe l
Ġhon ored
ĠM I
Ġbal con
L a
Ġpan c
ĠR ow
ĠG ov
lim inary
Ġimp osed
Ġsun light
Ġp ist
Ġlif ting
Ġso y
Ġneck l
ĠY oga
Ġarch ive
ĠF itness
ĠInc ludes
ĠExt ra
an ium
ĠD ifferent
ĠNe vada
Ġexist ed
roph y
ĠA llow
ĠD M
Ġmem br
Ġb od
Ġpromot ed
ĠLoc ated
ĠN BA
Ġover t
ĠBe yond
as ures
Ġbr ide
Ð º
Ġqual ifying
usal em
" >
ĠB io
ip ing
Ġimpact ed
ixt ures
S I
w ick
Ġco pe
ass y
Ġcoll ar
Ġqu il
Ġcool er
D el
Ġd amp
Ġm i
ĠSov iet
g un
ĠP ant
Ġper f
Ġsl ides
] [
Ġab ortion
Ġinc on
ĠL eb
Ġthought ful
Ġor g
ĠHun ter
Ġb anned
Ġsu cc
Ġcou pled
Ġupload ed
h oot
Ġcomplic ations
ĠAnd y
ĠS alt
Ġpro l
Ġsch olar
ĠP ul
ĠCh at
ios ity
Ġh iding
Ġanalys es
Ġl ung
ĠC lose
Ġclass ification
els on
ĠPol ish
Ġimpl ied
ĠB apt
ruct ive
ĠSU V
ĠHig her
ĠO tt
ĠTo kyo
f ood
Ġ5 7
Ġdep ict
Ġmed ian
ĠN iger
ĠMain e
ĠG a
Ġweb log
land o
Ġcompr ises
Ġm elt
Ġher b
Ġweb inar
atin um
ĠPan el
ic ut
Ġan k
Ġjournal ists
f ull
Ġmain tains
Ġhy giene
ester ol
ĠD ak
i el
ĠAct ually
ĠStr ong
Ġst ats
Ġind ication
Ġland l
H R
Ġlist ened
Ġassoci ations
Ġbackground s
Ġrecy cled
Ġc ave
Ġpress ed
Ġname ly
ph y
Ġcust ody
ic one
In tern
loy d
Ġ0 9
l ie
un ge
ĠK al
Ġtouch ing
Ġtob acco
te lling
Ġfarm s
Ġur ge
Ġw rest
Ġg ly
ĠTr uth
Ġcont am
ĠCr im
ĠR T
Ġbit ter
Ġveter ans
Ñ ĥ
ĠS pect
ĠPro s
ĠOr leans
Ġgrat itude
en z
Ġcross ing
c ost
n ote
ĠG ot
Ġgr ams
Ġstri kes
Ġf ate
Ġv ou
ues e
Ġd umb
Ġinvestig ated
Ġactiv ation
ĠCustom ers
Ġdele g
ĠInst ru
C are
Ġint ensive
ĠEd inburgh
b lock
Ġm es
Ġsp ine
Ġcous in
br is
Ġle ct
k u
en cer
pe red
ag u
?? ?
ĠUn less
Ġloc als
Ġdevelop s
ĠAg ent
Ġadvertise ments
ĠPurch ase
Ġcent res
ĠEx cel
ĠPR O
Ġun h
an ut
Ġgl ance
Ġcirc les
Ġgener ator
Ġp ale
tain ing
Ġsched ules
Ġass ure
Ġanaly zed
Ġca res
Ġconst ru
Ġprot ests
Ġbi ology
Ġassess ments
Ġsac red
M in
ĠO bs
ĠCl imate
Ġ198 9
ĠDe an
alth ough
Ġalgorith ms
Ġpan ic
pa id
ã Ĥ
d r
Ġg ri
ĠR isk
Ġac rylic
Ġsust ained
ĠCor onavirus
Ġbl ast
sh ire
Ġdef ence
Ġmind set
Ġmod ifications
Ġheadqu arters
Ġdec ides
Ġoccup ied
P rodu
Ġcounsel ing
Ġre ck
Ġplant ing
Ġplant ed
ag ar
w atch
Ġl amp
Ġcl uster
Ġfat igue
lo an
sel s
Ġ0 4
ĠJe an
Ġadd ict
Ġsl ave
ĠGu arant
Ġsumm ar
if iers
Ġimpl ies
Ġb ou
Ġtra its
ĠFr ame
ĠChe ap
ĠPod cast
ĠHe brew
ias m
A v
Ġas p
ĠS N
j an
Ġw ages
Ġacc redited
cu its
U P
ra ham
Ġ ion
Ġw ound
Ġnecess ity
Ġcomprom ise
k ward
Ġsu p
ĠMay or
Ġillust rated
qu ired
um atic
Ġwr ist
l ation
Ġ- --
Ġtatt oo
Ġde ce
Ġward robe
ĠF BI
Ġindic ating
ĠCharl ie
Ġprom o
anc ers
Ġm os
or ie
Ġupgr ades
u it
Ġintern ship
Ġjer seys
ĠC rown
le vant
riv es
ĠBe gin
Ġappro aching
Ġaff irm
ie ces
Ġt orn
ĠSus an
appropri ate
d i
Ġk g
Ġlog os
Ġenthusi asts
o king
Ġfin ances
Ġfre ight
ĠInf o
ant e
Ġins ulin
Ġpubl ishers
Ġcell ular
IT H
ĠAP R
ĠOffic ial
ĠAdd ress
Ġye ast
ĠD est
Ġconsult ants
Ġo ak
c ond
ĠNE W
Ġbreat he
Ġrec onst
Ġperform s
Ġactiv ate
ĠPal m
ĠY an
Ġ0 7
Ġtransl ate
innam on
Ġassist ed
ĠW olf
Ġcha os
P at
Ġsal aries
Ġdies el
d el
ĠDe pending
Ġstress ful
Ġstress ed
Ġsqu ad
Ġder iv
Ġfeed s
ĠG ary
Ġref resh
ĠEd ge
ist le
ĠRus sell
ĠH A
ĠWal mart
ĠP as
n ity
Ġqu een
Ġpill ow
Ġsecret ary
um ns
Ġen compass
ĠFa ith
ĠF O
cl ick
ĠHam ilton
Ġf ried
B E
Ġspec ify
Ġscient ist
Ġsuper vision
ĠDec or
Ġcry ing
Ġcloud s
p op
Ġse aled
Ġrele asing
if i
r ams
Ġapp les
an ia
ĠFr an
Ġsurve illance
c ash
Ġcomp ress
Ġmodel ing
ĠF reedom
Ġgran ite
Ġcharacter istic
Ġcol oring
Ġbes ide
ĠDise ase
P O
Ġw and
ĠMc K
ĠA verage
Ġdr ill
Ġimm igrants
Ġex otic
Ġblank et
is y
Th ough
con st
Ġdi agram
ĠW edding
Ġste al
ĠTrans fer
Ġlack ing
es pecially
Ġneed le
ĠInt el
Ġenter prises
ĠF u
Ġbegin ners
Â »
Ġh ref
vers ion
Ġbe verage
Ġpro long
ĠLo ans
st an
ĠF irm
su pport
Ġma j
Ġinc idents
ĠFe ed
Ġrac ist
I ts
ĠFl at
G l
Ġjoint s
Ġkne es
. ).
Ġdemonst rates
Ġsil k
id iol
Ġhapp ier
Ġpri zes
ĠS QL
Ġqual ifications
list ed
u ments
ol as
Ġjump ed
ĠBru ce
w estern
Ġclear ance
as ury
ĠL isa
Ġenjoy ment
th an
Ġg aps
Ġfirm ly
Ġm ig
Ġout look
ĠMar g
Ġtrick y
Follow ing
ĠO sc
Ġout lined
Ġtrans mit
ĠJ en
arn er
Ġvine gar
o ided
ST M
ÂĢÂ Ŀ
ĠHope fully
Ġst ew
Ġwas hed
Ġtri ple
ĠPrin cess
ĠP aint
ĠV in
Ġsche mes
p g
ass ador
ĠM un
th a
Ġkick ed
Ġrecre ational
Ġb ind
Ġbel ly
ĠQuest ion
e ment
che m
ĠAud io
ĠE N
Ġsp ices
Ġcy cles
} }
Ġpo ems
ĠHigh way
ks hire
Ġcru el
Ġconflic ts
st art
Ġconsum ed
Ġdist ant
Ġag rees
Ġillust ration
et ra
Ġinv oice
ĠMe ans
Ġdocument ed
ul u
âĢĿ ).
Ġpun ishment
Ġstrugg led
ĠOrd ers
Ġor che
Ġcoll apse
ĠCle aning
H C
ov ascular
Ġbrief ly
Ġburn ed
e ing
n ings
w y
ra h
Ġsc roll
ĠT aking
Ġreal ise
Ġtrans cript
ĠCon ne
ĠAn im
Ġachieve ments
Ġst airs
Ġelev ated
Ġpro pose
Ġdest ro
ĠCle veland
Ġpursu ing
ĠPhys ical
v als
ï »
Ġsle ek
Ġcatch ing
ĠB ah
Ġsafe guard
Ġintent ions
m us
Ġresearch ing
st ud
Ġmat rix
Ġtheore tical
ro se
ĠL ower
Ġ[ [
Ġshel ves
ĠLaur a
Ã £
ĠOpp ortun
o ard
T op
Ġrid ers
id y
Ġ9 8
Ġrese mb
IG HT
Ġfor b
Ġm urd
Ġconsid ers
Ġrecord ings
ĠD R
Ġch lor
g ary
Ġfe ver
Ġdis charge
Ġcomp osite
ĠB eng
irst y
Ġcry st
ur ate
ĠSe nd
ĠDub lin
a ire
Ġlength y
Ġpool s
Ġvari ants
AR D
com fort
Ġenh ancing
ĠCond ition
Ġcompat ibility
Ġrec overed
Ġstr ings
Ġsla very
Ġun ited
ph ant
Ġpipe line
Ġf ires
Ġh arness
ĠE li
Ġm arch
ĠT u
ra cle
Ġinvestig ations
Ġval ley
May be
ĠLe ft
Ġbill ing
Ġf oss
Ġg inger
ĠM asters
ĠGl en
Ġl ap
Ġfree ze
Ġ198 8
Ġdecl ined
Ġcounter part
Ġhero es
ĠW ikipedia
Ġal tered
Ġun for
Ġbu cket
.... ..
ĠTreat ment
ĠP un
ĠS in
ĠTe acher
Ġsuper market
Ġcirc ular
** **
Ġdys function
ĠClin ic
ĠBas ic
ol er
ical s
umn i
ĠO P
Ġtrans mitted
Ġ0 5
child ren
ps y
Ġjour nals
Ġkid ney
Ġt in
ĠH alf
ĠAnd re
ï» ¿
Ġbe ars
ĠV AT
ĠWh ats
ĠR oc
Ġconv ention
Ġsimpl er
Ġorgan ised
Ġvari ant
Ġgrad uation
Ġroof ing
Ġreven ues
ĠCateg ories
th ink
ĠHe aven
Ġcr ush
ĠMed iterranean
Ġcalcul ator
ĠLab our
ĠMov ie
arent ly
Ġalign ment
j ab
Ġsh y
ern ame
Ġcal cium
ĠI F
ĠR achel
ins p
res istant
ÂĢÂ ľ
ĠP ent
ul ly
Ġpass ive
Ġindic ators
En ter
Ġslee ve
ĠJer usalem
Ġsh ifting
Ġsp ice
Ġcar p
Ġwa ited
Ġjournal ism
ar se
v ised
st orm
ĠAgricult ure
lo gy
Ġ6 8
Ġemotion ally
ĠLiver pool
Ġse ver
ĠG un
Ġanim ated
Ġfound ing
cent ury
Ġjump ing
a ci
Ġg auge
Ġbund le
Ġcon gr
Ġdecor ated
Ġ6 7
Ġad oles
Ġgr ill
Ġcock tail
Ġmid st
ĠCy ber
R el
Ġflow ing
Ġsear ched
U RE
ĠSec urities
rie ved
ĠN A
Ġun ve
thod ox
Ġear liest
ĠMed ium
c ourse
Ġen act
ĠSt ream
Ġde ployment
ric a
Ġautom obile
Ġnegoti ations
Ġtra p
Ġmechan ics
S w
nd ant
Ġst rand
Ġalt ogether
Ġo xid
oth y
Ġsl ice
ess ional
Ġquick er
Ġg room
Ġher bal
Su per
Ġdisc on
Ġn ons
Ġ1 30
an gh
Ġmoist ur
Ġbe ating
Ġtr ay
rop ract
ĠPlay er
Ġconsequ ence
Ġcount ies
er ness
D ec
Ġsurround ings
ĠAfghan istan
Ġ5 9
be cause
Ġpump kin
b ase
re he
ĠD A
ite cts
ent o
Ġal erts
old ing
ĠZ e
Ġh ose
ĠSe ller
Ġd rew
ĠSt adium
Ġtiss ues
Ġrot ation
ĠPro blem
ert ation
Ġpass port
Ð »
Ġappro ached
ĠAr thur
ard ed
Ġtow el
ide os
ĠK r
Ġadministr ator
ĠRe lease
Ġon ions
Ġde bris
Ġtravel ed
Ġansw ering
Ġelement ary
Ġacknowled ged
s or
ĠLe x
h ouses
ĠBu yer
Ġcast ing
ĠL ands
Ġund ers
ver ted
Ġre un
ip her
ĠGard ens
Ġvill ages
V is
ĠH S
Ġam bit
Ġfl or
irm ingham
Ġfat al
Ġvoc abulary
Ġsol ic
ĠAnton io
Ġbankrupt cy
e em
ĠSw itch
Ġarriv ing
Sec ond
ĠCamp us
e ffective
out ube
Ġcoord ination
ĠS hip
Ġa ffe
Ġan ten
iz ar
ĠExper t
Ġassum ptions
Ġd ia
Ġ6 2
ĠAl an
ĠAd just
Ġto pped
ĠN one
ĠIt ems
Ġsupply ing
Ġforest s
Ġfree zer
Ġsod a
ĠVit amin
Ġdis g
b one
Ġenthus iasm
ĠGrad uate
Rem ember
w idth
ĠMan h
ĠGu y
ĠLead er
Cont in
Ġch ron
ĠPow ered
M s
ĠW a
ĠIs a
Ġnews letters
Ġbatt les
ĠR ing
ĠX box
ĠC itiz
Ġnow adays
Â® ,
Ġind o
CO VID
ĠLeg isl
be c
ĠTam il
ro ck
ĠP ure
Ġsh ifts
ĠZ one
v ice
Ġc rap
id el
ape l
ID S
th y
Ġsh ampoo
Ġg ast
ĠCateg ory
M et
20 11
ĠPitt s
Ġrel ie
Ġreal m
ĠKenn edy
Ġm erc
Ġdry er
ĠDes k
u ctions
Ġb om
Ġp ads
R ight
m i
Ġinv is
ili ence
Ġinstall ment
ĠB earing
Ġtu ition
chn ology
Ġpoor ly
ub lished
ĠFac ulty
ke ep
ul ative
Ġreported ly
it ations
ĠFed eration
Ġfinan cially
lo ve
ĠR y
Ġn ails
Ġri vers
Wor ld
H O
u v
Ġface book
Ġdelight ful
Ġathlet ic
Ġam ateur
Ġweb page
bor ough
20 12
Ġrecogn ised
Ġspons or
ĠDirect ors
ed e
ĠS EC
ĠTra ck
Ġcosm etic
at able
av an
Ġtra ged
Ġc ables
Ġm ant
Ġoff set
ĠB aker
Ġposition ed
m ill
Ġsoul s
Ġpure ly
Ġu gly
Ġdon ated
Ġdiagn ostic
T T
W ork
] ]
Ġpa ired
ĠF lex
we g
osc ow
Ġh ott
Ġrep et
Ġdownload ing
re view
re ne
ĠS ort
Ġg ospel
qu es
ĠR ule
act iv
Ġalleg ations
Ġso cks
Ġsim ulation
c amp
ĠI RS
ĠA A
ud ge
Ġt ones
f amily
ag g
Ġext ensions
Ġdes irable
ĠComm and
ĠMississ ippi
b ul
Ġelig ibility
oty pes
Ġst icks
ĠSpe cific
un ks
ĠB os
Ġcon form
Ġcand le
ou stic
Ġm amm
Ġins ulation
bor ne
ĠNor way
ĠLouis iana
Ġviol ations
ĠS ay
Ġadm ire
Ġan ime
ĠL E
Ġaw kward
ĠS MS
Ġinvestig ating
ĠN Z
iv est
ĠT ar
ĠC E
ric ane
Ġsk irt
ĠH V
reg ular
ch i
Ġportra it
Ġin aug
ĠW rite
Ġs ins
ĠP ope
Ġcap ac
Ġtou ches
Ġreve aling
as i
ĠT her
ĠS ame
Ġwell being
ĠGr an
Ġbe am
ĠP le
Ġcou ch
G R
p her
Ġd ign
ĠT es
Ġres ur
Ġland ed
Ġinex pensive
Ġ6 3
st age
Ġ0 6
Ġbrand ing
osit ory
um per
ĠK l
ob ic
ren n
Ġmusic ian
Ġlegisl ative
Ġinval id
S orry
Le ave
Ġmar ry
ang o
ĠTe aching
Ġdem ocratic
ll o
Ġfaith ful
ĠJon athan
em et
Ġ12 5
ĠNut rition
Ġequ ation
Ġanx ious
) ?
e le
am as
Ġcelebr ity
ĠB A
the ning
Ġconfig ured
Ġlit igation
Ġfrust rated
G C
Ġav oided
Ġstri ps
Ġpar liament
ĠR d
ĠPal ace
es ity
an cies
v oc
Ġm ate
ĠBM W
Ġpup ils
s im
Ġpo et
OM E
Ġmort ality
li ver
lo bal
Ġsw itched
Ġeat en
ĠOb viously
Ġgra vity
Ġproceed s
b ag
Ġn an
Ġmess aging
Ġtim eless
ĠG em
Ġb ases
Ġl azy
ĠL ang
at ches
atter ing
f ix
Ġjust ify
Ġspecific ation
ĠR ate
Ġsubscrib ers
ann on
Ġfrust ration
Ġart ic
ling ton
Ġtast ing
Ġlicens ing
Ġv ag
ĠU PS
Ġgu ilt
Ġsubstant ially
Ġdiscover ing
Ġve t
ĠT N
im en
Ġco ated
ĠHow ard
d ed
Ġus eless
Ġsu ck
Ġass ists
Ġunf air
Ġev olving
Ġesc orts
os ity
Ġast ron
ĠA V
ĠB atter
du e
Ġdefin itions
Ġrepl ied
ĠAl t
Ġsmall est
Ġblock ing
Ġlif ted
Ġamend ment
Ġf ract
Ġb urg
Ġmathem atics
id o
Ġcrypt o
Ġimag ined
L ist
Ġv oid
ĠCar bon
ĠT ouch
Ġtutorial s
ĠSh opping
ĠProdu ction
Ġassist ing
ij ing
um mer
Ġback s
ograp her
Ġaut umn
g ow
Ġmod est
ĠImpro ve
Ġp ier
hed ral
Ġappro ve
Ġtend ency
fr ame
ĠPortug al
Ġextend s
Ġgrad uates
Ġbelong ing
Ġcaut ion
Ġv iable
ĠPl astic
A h
Ġr am
Ġchampions hip
m ith
Ġnum er
Ġinv iting
ĠSpecial ist
Ġexpl ored
eral d
Ġoverwhel med
ĠJac ob
ĠCli ent
ĠOwn er
Ġlo gged
Ġinter f
ĠA irl
ĠWe ather
ĠHe avy
ĠSu ite
Ġeduc ators
AC H
or ig
Ġdat as
Ġdatab ases
Ġthresh old
cons cious
ĠSche dule
Ġambit ious
ap a
ĠPar ks
Ġtub es
ĠL ore
ĠReg ular
Ġalleged ly
Ġsus pected
Ġ ).
iz on
Ġimport ed
empt ion
Pro v
ĠStrateg y
ĠIn side
Ġright eous
Ġless er
ĠHealth y
ĠSum mit
ĠKen ya
ur i
ĠB T
Ġdeliver ies
Ġ7 6
Ġtrad itionally
ĠIn iti
Ġmod ification
Ġtun ed
Ġp p
ĠRe comm
Ġinse cts
g ro
t ube
sec ond
Ġbo oth
Ġsoci eties
ich ael
Ġtim eline
Ġwealth y
ĠE ye
in fl
op ter
ĠCo ord
Ġrel ates
Ġshe er
ig ent
ĠR ice
Ġen light
ĠBe ck
ĠH oney
Ġformer ly
ĠOr lando
Ġcinem a
Ġm um
ut ers
ĠBalt imore
ĠH us
Ġass urance
Ġang les
Ġt ribute
ĠG ib
ĠShe et
ĠRober ts
Ġsl ower
ĠEx hib
Ġactiv ists
ĠArab ia
Ġgod s
Ġcor rection
Ġcourt esy
ĠDoc ument
Ġexcept ions
k h
Ġlim iting
ĠV PN
Ġmeant ime
Ġwitness ed
ĠWalk er
in is
Ġadvoc acy
f ight
com p
laim ed
ĠBelg ium
Ġpositive ly
Â ¦
Ġinsp ir
Ġment or
Ġoppon ents
Ġchol esterol
et erm
Ġanal og
W atch
Ġfr ank
ĠJust in
ĠN ich
Ġment ally
Ġje wellery
nam ed
ĠG D
ĠG ordon
B usiness
ĠR anch
& #
ĠRe covery
amp a
ĠChe f
Ġplay ground
ĠSte ven
Ġspe lling
M us
un ny
ĠBlo om
ĠConnect icut
f illed
Ġen rolled
Ġterm ination
Ġmar ble
imens ional
ĠL ag
Ġsecure ly
Ġamend ed
em pl
Ġcol umns
ĠHot els
Ġins ane
Ġan ge
Ġsupp ress
ĠRes ource
ĠDe al
at on
conom ic
+ +
Ġt el
ĠF M
Ġtechn ically
t or
S M
Ī Ĵ
Ġsho ppers
n on
get ic
Ġcryptocur rency
Ġ 000
ve lope
Ġun cover
ĠB less
Ġr ul
ĠP D
Ġcrit ics
Ġm ud
Ġth ou
ĠVis a
Ġas pir
Ġam ple
ac ies
Ġen er
Ġdom ains
od a
Ġvacc ination
ĠExplore r
Ġw re
erm at
Com p
Ġsp ins
u er
ap le
In c
Ġabs ent
ke nd
ĠFact ory
G en
Ġill um
AS H
Ġam p
Ġbegin ner
Ġsus cept
Ġexpress ions
b ank
Ġst ems
Ġinev itable
Ġpat ri
Ġpl aint
Ġdeploy ed
ĠJenn ifer
umin ium
em porary
Ġk ay
ĠCh oice
ĠHind u
ĠI R
ĠPart ner
Ġcart oon
ĠPub lishing
Ġobst acles
Ġy og
um bs
ĠV ision
Ġspecial ize
Ġinflu ential
Ġpursu it
ĠM atch
ul ously
Ġdisp ens
F I
Ġaccept s
Ġround ed
ĠMil k
Ġconsider ations
Ġtail or
ĠPalestin ian
Ġcal culation
ĠWhe el
Ġchar ter
Ġspot ted
isco ver
Ġeng ra
Ġgard ening
st ory
ĠPortug uese
ust ers
Ġarm or
Ġtur key
Ġhum ble
Ġ6 1
Ġsomet ime
D irect
ĠAN Y
ĠGrow th
Ġmark ers
ĠVictor ian
( )
ĠK rist
Ġcons ensus
F urther
Ġhe ter
ĠB Y
red ict
Ġun st
ĠGr ay
Ġir r
Ġadvis ory
Ġconc lude
Ġ ï¿½
Ġmar vel
Ġp umps
Ġcan ce
ĠG ospel
Ġam ino
Ġagree ing
Ġhead er
ro le
Ġsh ar
Ġinnov ations
Ġanaly st
Ġchair man
Ġrein force
ch anging
Ġs ore
Ġinc ons
Ġgar bage
am an
Ġpred iction
Ġcar b
10 1
ĠAssess ment
Ġp iv
Ġcreat ure
Ġcompr ised
Ġl ane
ĠT ro
Ġwe ed
Ġrow s
Ġlaugh ing
Ġic ons
Ġh ier
ĠAccess ories
Ġas leep
Ġcomment ing
Ġdish washer
a uc
Ġintim id
ĠS el
op ia
Ġd read
ĠH ug
Ġassemb led
ĠPro gress
Ġlast s
Ch ar
Book s
B ig
ĠReci pes
Ġwe ights
Ġcert ificates
Ġl ou
Ġlay ing
Ġoccup ation
Ġrecre ation
Ġwond ers
Ġthreat ening
Ġbehavior al
Ġwh it
Ġconspir acy
D ear
ĠEconom ics
ĠYOU R
Ġboil ers
Ġh ilar
Ġflu ct
Ġvolunt ary
Ġb acon
Ġth ru
Ġso vere
Ġjo ins
ĠManh attan
b at
ĠP ill
ron ics
Ġtrust worthy
Ġrenov ation
ours es
Ġfragr ance
Ġmiss ions
ul ates
ĠY ahoo
Ġneighborhood s
ĠP el
Ġb inary
Ġwarrant ies
i otic
ĠBr un
Ġpr one
Ġra ises
Ġproject ed
Ġanaly sts
Ġcher ry
Ġfor cing
ĠKnow ledge
ĠCommission er
Ġter rain
ĠCoun sel
Ġ198 6
ĠC M
Ġengine ered
== ==
3 50
ol o
ĠV ersion
ĠS ent
ĠD al
c ules
ĠD ating
ĠF er
Ġranking s
Ġfail ures
oura ge
Ġsimpl icity
Ġgluc ose
emet ery
Bu y
ĠE VER
Ġfif ty
Ġfix ing
Ġnom inated
ĠP ool
ĠHem p
Ġpol ished
S earch
ĠT on
ĠS ites
ab ase
e g
ĠSome one
Ġequ ip
Ġfort une
D ata
Ġparent ing
Ġbi om
ĠV oice
ĠAc cept
Ġscript s
H appy
Ġcomp ression
S H
ĠCo le
Ġadminist ered
et ric
Ġhyd raulic
ĠEnh ance
h al
Ġcon greg
ĠS it
ĠC NN
Ġact ed
ĠLet ter
ren a
W ant
ar o
Ġne ur
Ġsh orts
Ġsens es
ut ory
Ġ9 7
Ġfair y
Ġproud ly
p riv
Ġdef ines
ĠDisc ount
Ġinhab it
ĠF ra
ac er
cer pt
Ġs ung
Ġh ug
Ġimm ers
Ġins ured
ron es
ER Y
Ġdis comfort
ĠGra ham
ĠF ly
ry ption
Ġcomfort ably
rim p
art en
Ġpo le
Ġfr ight
Ġprogress ion
Ġrecommend s
Ġped est
Ġin acc
ell er
ood les
Ġro pe
Ġdid nt
Ġ7 8
Ġfil mm
Ġc ents
Ġtou g
pre m
ĠM oscow
Ġde er
Gener al
Ġconclus ions
er ial
Ġcon gress
Ġdistribut or
l ings
Ġen rich
ĠStud ios
Ġcast le
ĠE t
Ġw iring
Ġthat s
Ġst yl
Ġas h
Ġport ions
amb oo
angh ai
Ġso cially
Ġdisc ontin
p owered
ĠB irmingham
ĠM ental
Ġr h
Ġpro cure
Ġrou ter
ĠJo int
ud a
ĠAirl ines
ed ar
Ġaccount able
Ġsmart phones
Ġearth qu
Ġpack aged
Ġst arter
ĠSt ick
Ġpat ches
r ant
Ã §
craft ed
Ġunder go
ĠAl most
eal ous
ĠO ri
ood le
Ġexpress ing
Ġincent ives
ist ence
iz ard
ys ical
ĠMc G
ĠCamp aign
Ġdiscipl ines
ĠM t
Ġaccess ory
Ġ198 7
r ust
Ġd io
Ġal mond
ĠV ari
Ġgl ue
Ġlic enses
ĠCra ig
ĠDe gree
Ġrecru iting
ĠP E
ĠO z
ĠAl ice
Ġadapt ation
Ġre imb
Ġded uct
Ġanaly zing
Ġfest ivals
Ġcommun icating
w oman
Ġpost ers
de velop
iot ics
ĠBuff alo
ar ium
Ġnot ices
ee k
ĠWar ren
Ġdrag on
ĠBB Q
ĠR AM
ĠON E
act s
ĠArch ives
P ar
ĠP ad
bo hyd
Ġbus es
Ġconst itu
ĠFA Q
Ġre ign
ine e
ak y
Ġexplicit ly
Ġint est
pl ess
F E
ĠS au
ĠMon te
Ġanaly tical
Ġresearc her
art ered
op ed
ock et
Ġbelie ving
Ġterror ist
Ġfeas ible
ĠSt ars
ĠHigh ly
ĠEl ite
Ġdis in
. ),
Ġst oring
W ould
ĠJ a
Ġreput able
l ift
ĠL ar
ER T
ĠS old
Ġover head
by e
ĠBo iler
Ġquarant ine
ĠIt em
ĠElect ronic
Ġassum ption
Ġcl ause
ir s
Ġban ner
1 10
Ġdisp utes
ĠWeek ly
Ġpers istent
ot ional
Ġb arn
Ġt an
ĠF ig
Ġharm on
Ġimp ly
Ġrec ruit
ann ers
Ġreason ing
Ġcompet itions
Ġsour ced
ib les
Ex cellent
Every one
we alth
E uro
P H
. âĢ¦
ĠB eth
Ġrest ra
Ġ6 9
Se lect
Ġatt itudes
Ġcur iosity
ĠBarb ara
ĠBene fits
ach ment
ĠSen ator
ĠHell o
Ġdam aging
Ġrhyth m
Ġem erge
f il
ĠM erc
pl aces
Ġeffic acy
ĠPrin ci
se en
Ġpre liminary
p oke
ĠE PA
Ġdownload s
Ġstrong est
em a
Ġexpress ly
intend o
ĠT ags
ĠP ipe
t ops
tw o
Ġaff air
Ġm asters
ĠRec ruitment
Ġn asty
Ġhe lic
Ġdecl are
he ro
ac cess
ĠK am
Ġd in
Ġprov es
ĠC ass
ĠW ash
Ġfe ather
Ġ198 5
ĠEmm a
ĠCh and
Ġcolon ial
Ġrespir atory
id ency
Ġch ic
ĠPre vention
ĠInter ior
F unnels
N ever
ĠPop ular
aw ays
W W
W est
Ġind igenous
Ġsimilar ly
Ġcat aly
Ġdefend ant
Ġrefe ren
oc ation
ĠBr ing
Ġcapt ain
Ġsched uling
Ġorig ins
Ġexception ally
Ġrel uct
Ġinter ventions
Ġincon ven
Ġcost ume
che ll
Ġmin s
Ġcred entials
Ġmet rics
Ġhum idity
Ġsty ling
Ġinformation al
Ġ16 0
IC K
Ġpupp ies
ĠP erm
Th ree
Ġrele vance
ĠRem ote
Ġsal vation
Ġhard est
Dav id
ĠB ot
g irl
Ġmot ors
N OT
h as
Ġst ain
Ġ198 4
ĠOpt ions
Ġconvenient ly
Ġlug gage
Ġdoct rine
m anship
Ġd ull
pat ient
or us
{ "
Ġhe els
ĠT ut
ortun ate
Ġmac ro
Ġconcent rated
Ġl ime
Ġslee ves
un ci
Wh ich
Pres ident
on ial
ĠV i
ĠDak ota
Ġfat ty
ĠProgram s
Ġcalcul ations
Ġprop he
Ġrail way
B T
C OM
Ġf isher
gl as
Ġma pping
Ġ9 6
ĠTr ading
ĠCry stal
ĠC ake
ge nder
AS S
Ġappropri ately
ĠUr du
Ġh ints
inst all
W eb
av as
Ġsp ite
ĠComm ons
Ġgo ver
g on
el ong
Ġclar ify
Int erest
ĠP arent
ĠN at
any on
ĠNorth west
ĠPolit ical
Ġinvis ible
ĠP ier
Ġeven ly
ĠF C
Ġdeterm ines
ĠInt roduction
Ġsod ium
ĠS pl
ĠSe ven
Ġspons ors
ĠAlbert a
gg y
ĠChrist opher
cel ona
ĠWay ne
Ġsy rup
Ġdef ining
Ġmil it
Ġsens ation
ĠAdvent ure
ĠA le
ĠW orth
Ġsens ible
ĠPat ri
p ages
ĠE M
Ġfo ll
ĠE gg
ĠCl ar
ĠPl ate
Ġtoler ance
Ġpe nding
Ġsub t
Ġcom ics
Ġconst itutes
Ġdr unk
ĠDen mark
Ġsh iny
Ã ±
Ġcl icks
ĠRob in
al ph
Ġcontem pl
oc used
Ġdiscl osed
o T
Ġlike lihood
L ink
ĠQu ant
Ġlic ence
Ġw eddings
ĠH at
Ġcollabor ate
ĠBirth day
s a
Ġline up
Ġsan ct
ĠR S
Ġbicy cle
ing o
Ġint ric
ĠI an
Ġinter fe
Ġextend ing
Ġan onym
Ġall oy
Ġhun ger
Ġblock chain
D ef
ĠW arrant
ĠL akes
Ġintrodu ces
ĠReg ardless
ĠElect rical
ĠH orse
s ur
ĠPer iod
ĠV erm
ibl ings
B B
ĠV IP
Ġpol ish
al ia
ĠAll ah
Ġp ots
12 5
ĠLaw rence
Ġimp air
ĠÂ «
de pend
Ġattend ees
Ġcomp ost
ĠProcess ing
P I
Ġn ode
i w
Ġinstall ations
ĠApplic ations
M at
m ath
ost al
ene z
Ġdis able
Ġtrad ed
Ġv ivid
Ġapp liance
ĠA id
ĠManufact uring
Ġiniti ated
Ġmuseum s
an as
Ġ8 8
un ted
ĠB ou
ĠSh a
Ġcorrespond ence
Ġ umb
Ġbro kers
Ġuns ure
Ġpro ximity
ĠF ortunately
ĠR an
Ġbl ur
Ġabsor ption
Ġbalcon y
Ġgl ow
ĠY am
Ġatt ribute
Ġfest ive
Ġent ers
uk i
Ġmathem atical
ĠL T
ploy ed
fact ory
Ġencourage ment
Ġb is
op ard
erv ices
Ġconcent rations
St ate
l it
ance ll
ĠV R
Ġ19 20
Ġcrowd s
Ġauthor ization
ri ber
Ġintrig uing
Ġdevast ating
roid ery
Ġv o
Ġoptim ized
Ġshare holders
pe ople
Ġqu ad
. :
V al
Ġbrows ers
ge nds
ĠD rop
Ġaccount ability
weg ian
ĠF am
Ġassoci ates
Ġbe ads
Ġpl asma
ĠPitts burgh
yl ene
ĠReci pe
ĠSt age
Ġl akes
us age
Ġsex ually
Ġmid night
ĠGener ally
ĠLiber ty
Ġhott est
Ġfor ty
ĠU AE
Ġsp icy
Ġlim estone
Ġfl ame
Ġh ockey
ĠK han
Ġwrit ings
ĠSpe aker
ast ically
ĠW right
b ot
l ap
ĠP ic
ĠEm ily
c ape
Ġg rie
Ġs ights
ed uc
ĠE R
Ġall ies
Ġconst itutional
m are
ĠD ownt
ĠAdvis ory
Ġpenal ties
categ orized
be it
l an
Ġg um
ĠIm agine
Ġdecor ations
Ġposition ing
ĠP ump
ĠH orn
get table
ĠBe ijing
ĠArt ist
M ade
Ġbl own
ĠCan on
ĠDep uty
o ks
ĠÐ ²ÐĤ
Ġdisapp eared
ĠBud get
ĠB art
Ġ15 00
Ġfundra ising
ĠVeh icle
p ol
p athy
ĠL ay
Ġvulner ability
Ġble eding
Ġrevolution ary
ĠApart ments
V P
Ġcongr at
ĠC AN
ĠB asket
Ġexp ose
Ġadvoc ates
Ġt read
Ġf og
Ġm int
te es
Be aut
ĠLeb an
ac re
Ġbus h
Ġc ough
ĠR ou
Sh ow
ĠInter view
ĠMad ison
Ġgam ers
health y
G oogle
Ġ14 0
des ign
ĠD im
ĠCent ers
Ġmag net
Ġ //
Ġreg ener
2 000
A tt
c ook
l on
Ġare na
ĠU pper
Ġw anna
Ġl ace
ĠE L
Ġapp arel
, '
ĠAmaz ing
Ġesc al
H ot
Ġcor rosion
b ane
l ab
ĠT ob
Ġst adium
ĠY u
ĠAust ria
m ap
Ġt unnel
ĠD ru
m ir
m ain
Ġhydro gen
Ġener getic
J e
S outh
Ġst ains
ĠSo on
P ol
Ġrem arks
Ġend ors
Ġrepresent ations
Ġd iving
Ġrenew al
Ġcyl inder
Ġde put
Ġsl iding
Ġrecogn ise
Ġdom inated
Ġinterview ed
Ġacceler ate
ĠAb raham
ĠFl ower
Ġdefe ated
li ant
ĠEm ployment
ĠCl ay
Ġp oo
ĠP G
ĠSt ories
ĠB ike
Ġstra ps
Per haps
Ġ vel
AC E
Ġpath way
Ġm all
Ġten ants
Ġgrand father
Ġanch or
Ġsun set
im edia
ĠEx erc
ĠC it
char ged
Ġaffe ction
Ġdistingu ish
Ġin herent
Ġsurf ing
Ġwork outs
Ġlabel ed
Ġsusp icious
see ing
ĠG host
Ġd well
Ġcare g
al one
as gow
Ġex pects
ĠWh ole
Ġv apor
Ġ19 30
Ġres in
ĠEx cept
Ġtim ber
ĠON LY
Ġ7 7
ĠCP U
Ġhere by
Ġmed i
t ails
ag ne
ĠAd ams
reng th
ĠMat hem
ĠG ay
Ġph ases
ĠGu est
Ġdefe nding
ĠAcad emic
Ġhabit at
T M
om as
Ġpred omin
ĠMichel le
Ġs ailing
Eng lish
Ġf res
Ġb ent
heim er
ĠI BM
ĠG E
Ġgreen house
Ġmetabol ism
M ark
ĠE c
Ġrese ar
Ġgl am
ĠCol le
ĠCol omb
Ġhol istic
Ġse as
Ġtraged y
Ġco il
x it
Ġtal es
Cl ass
ĠM es
ĠF it
ĠN ord
Ġincur red
Ġfound ations
ux e
B L
S U
Ġgen ius
Ġelim inating
Ġw ished
Ġharm ony
at ories
Ġsent iment
Ġcush ion
ri ors
ri bs
Ġwork flow
Ġgra ins
ĠC otton
ĠSupp lier
ĠFood s
ĠS oph
Ġal igned
ĠSt orm
ep s
Ġshall ow
ĠRec ently
Ġrefuge es
Ġp sy
Ġkey word
ĠFrank lin
Ġc ottage
Ġlive ly
Ġkn it
ĠMount ains
rep resent
ĠS leep
Ġair lines
ĠGo ing
ĠCh a
ps hire
ĠProgram me
H a
Ġf ame
Ġprin cess
ĠO EM
ĠNep al
in se
re qu
ĠO t
Ġmem orial
Ġdark er
Ġfreel ance
Ġorg ans
p arents
ĠP ages
Ġnot ebook
ĠK id
Ġfunn els
av ior
tend ed
ĠNAS A
ffic iency
Ġsw itches
Ġmile age
Ġundert aking
A ir
b ial
Ġqual ification
I ES
ĠL iqu
Ġsp oon
Ġpre jud
Ġhead lines
Ġbre eding
Ġtra pped
ĠLe ather
Ġun authorized
Ġbo om
ah o
ĠProf ile
Ġuns ubscribe
Ġadministr ators
Ġinter mediate
Ġhard wood
ĠRep orts
Ġharass ment
Ġcom ed
Ġtr illion
Ġint ra
ĠBook mark
Ġmis under
Ġpray ing
Ġquiet ly
ĠF ight
Ġdash board
ĠS R
ĠM os
ĠJ aw
Ġunder m
Ġmer cy
ĠC anyon
th ird
Ġsh red
Ġsal mon
Ġstr angers
sh op
ĠHar bor
ĠC ad
Ġsand wich
Ġindo ors
ig ible
Ġhorm one
ĠU I
Ġcontin ent
Ġcent ered
ĠSk ills
on el
ĠTh an
B ar
ĠK aren
ustral ia
Ġdecor ating
Pl ay
Ġaccident ally
Ġteen ager
ĠRepresent ative
che t
gl ass
ĠO racle
ri k
cy cl
Me anwhile
Ġst icking
ĠD h
Ġun ity
ĠSing h
Ġsw ift
Ġpot ent
Ġunique ly
IT E
Ġlength s
Ġa pt
im age
ĠM Y
Ġus ername
Ġphotograp hers
m el
Ġf ry
Ġro ses
Qu est
ĠA aron
Ġlo gging
Ġeval uating
Ġimmun ity
g ia
n or
Ġp H
Ġ19 40
Ġob esity
Ġrefer ral
Ġdiscount ed
Ġmarket ers
Ġsystem atic
per or
Ġad here
Ġcolle ague
Ġfulf illing
ĠD river
ort ment
Ġsun shine
ĠB le
em or
Ġin appropriate
A K
ĠW ard
M c
Ġm uff
ĠS olution
ĠL en
W E
tw itter
ĠBapt ist
ict ional
Ġgovern ed
K now
Ġmon itors
ĠL ie
In ter
op ening
Ġext ensively
Ġopen ly
ĠPost s
ĠBang alore
j ob
Ġ9 2
ĠTH IS
C re
re lla
ĠCor ps
Ġbree ze
Ġyoung est
ĠTest ament
ĠA K
Ġliter acy
ĠThe me
ĠFire fox
ĠH ours
Ġgra ve
o a
Ġread ings
ili ation
Ġcompl aining
Ġgl imp
ĠPh ase
Ġdr illing
Ġcoll aps
Ġrehab ilitation
Ġc innamon
Ġst air
Ġsc ales
ov es
ell ed
Ġhor r
h ma
ĠO re
ffe ine
Ġrev ision
ĠCr ime
Ġin quiries
per formance
Ġadvert ised
Spe cial
Ġinv ites
ĠProper ties
ĠAnsw er
ĠL G
Ġcont ributes
reat h
het ics
Ġl od
ĠH az
Ġjo kes
ĠMar ie
Ġglimp se
st ation
ĠStart ing
ĠFant asy
ĠAl b
Ġenvironment ally
Ġcardi ovascular
ĠP ine
Ġtyp ing
Ġadvertise ment
f ive
ĠRe cent
ht aking
f iction
Ġwr ink
Ġste ak
ĠRet rieved
ĠRich mond
b log
ced es
Ġmis con
ĠLut her
ĠM ut
Ġac ne
Ġpaper work
ION S
Ġveget arian
co al
Ġfar mer
ĠPH P
l adesh
Ġex cel
Ġenc rypt
Ġmole cules
Ġun belie
Ġdeb it
Ġdes cend
Ġsc enery
Ġ7 3
Ġant ique
ĠHV AC
Ŀ ¤
Ġprof ic
Ġlot tery
z one
Ġyear ly
Ph oto
ĠMor ris
Ġpar as
Ġfl ies
Ġmed ieval
Ġundert ake
it ives
Ġappear ances
Ġmal ware
20 10
Ġconstra ints
ul atory
Ġmark er
ĠWire less
Ġto e
Ġtr an
Ġunfor gettable
ĠIn it
ĠRead y
Ex per
ĠPlan et
e xt
it ated
ĠBook ing
ĠWorks hop
ĠV iol
/ .
Ġwhere in
Ġg reens
ĠF al
ĠJ azz
Ġro asted
Ġcreat ors
Ġworry ing
ĠManufacture rs
ĠS outheast
arm ing
Ġinst itute
ĠCD C
ĠS we
ĠThe ory
oc hem
Ġlandsc apes
P ack
f ounder
ĠH ob
Ġter race
Ġdecor ation
ĠPack age
ĠM ills
N ET
Ġy a
Ġstra ins
Ġmerch ant
Ġconv icted
Ġcig arette
Ġincent ive
in come
Ġn od
en h
Ġacqu iring
Ġfif teen
Ġabund ant
Ġpor ch
ĠS ter
Ġreal ised
ĠUp dated
Ġvalid ity
Ġfoss il
: :
Ġenthusi astic
se arch
em en
Ġatt ributed
r r
ĠN OW
Ġup side
Ġconvin cing
Ġsurviv ors
iss ance
ĠClick Funnels
ĠPhil ip
Ġdiss ertation
Ġmarg inal
A nt
ĠR io
ĠFin n
f o
ang a
ĠHer o
Ġclin ics
Ġsm iling
Ġcle aring
ĠFin land
ĠRel ated
Ġreprodu ction
Ð° Ð
ĠL arry
Stud ents
n c
Ġbe verages
Ġtab s
se ud
Ġspecial izing
Ġtow els
ĠAth let
Ġc attle
ĠPark er
Ġteen agers
Ġres ign
Ġrenew ed
F ull
Ġb ail
riv ed
Ġcross word
Ġpres erved
Ġmill ing
ett es
ĠU P
âĢĿ ),
Ġbeat en
ĠJim my
Ġmem or
J an
Ġrel ieve
! .
Ġse afood
Ġwas ted
Ġregul ate
ount ain
Ġbul bs
Ġcount ed
heart ed
ĠN intendo
Ġfulf illed
Ġz oom
ot ine
Ġres pects
ï¿½ï¿½ ï¿½ï¿½
Ġuncle ar
Ġgl orious
ĠNe ither
Com merce
N R
ĠThom pson
ĠCir cle
S D
Ġ9 3
z i
Ġs iblings
Ġgame play
Ġdemonst ration
Ġm ould
ard o
ang ular
à¤ ¾
Ġhonest y
ĠMill ion
Ġneckl ace
Ġapp ra
ĠList ing
b ott
ĠA RE
Ġnation ally
ris k
N O
id ering
Ġtr ump
Ġhead phones
ĠCost a
Ġint act
ĠAdvert ising
ĠâĢ ĭ
Ġen velope
Ġres ilience
Ġcountry side
Ġeconom ies
H y
ĠHe y
f to
Ġc od
Ġrest art
Ġmass es
Ġinform al
Down load
Ġble nded
Ġhistor ically
ĠAr c
Ġrad ar
Ġplug ins
c ity
f ound
ĠG aming
ĠK ath
umb ling
ig a
ke ys
ĠN urse
ĠE agle
ĠInd ians
Ġmean ings
ĠWood s
Ġw ipe
ĠC ob
Ġdeal ership
Ġwh ites
Ġconst itution
Ġtrig gered
Ġhilar ious
Ġ9 00
ĠCannab is
Ġs ulf
Ġfle w
Ġcater ing
P ort
Ġf el
uck ed
ĠAb u
Ġscan ning
Ġdistingu ished
Ġnot ing
Ġbl ades
Ġinter section
ĠA F
akes pe
ĠComp are
ĠCamp bell
ĠSol id
Ġreserv ations
as ers
Ġan gel
Loc ated
re rs
ier ra
Ġteen age
ĠF isher
Ġcoord inate
Ġsevent h
ĠHe nd
bo at
ot er
... )
ob i
d ess
ĠJer ry
ĠArch ive
Ġsan ctions
Ġtor que
em bers
Ġcr unch
Ġank le
S R
Ġcond o
Ch ild
Des ign
ĠGuard ian
ĠE b
fl ower
ins ula
ĠColl ins
h ort
Ġfa uc
Ġwar mer
Ex pl
ĠC er
ĠN i
ĠWord s
Ġbound ary
Ġlect ures
om o
Ġstick y
Ġancest ors
ĠDirect ory
Ġrib bon
est ly
ĠL ith
Ġev olve
Ġwish ing
ĠF ocus
rist ol
Ġn ap
! ),
Ġc ens
ĠO liver
our met
Ġfree zing
Ġauthent ication
Ġrandom ly
Ġmush rooms
Ġdis ciples
uck er
onom ous
and y
Ġco vid
Ġdisplay ing
Ġwitness es
Ġhon our
Ġhe y
ĠN elson
Ġdu o
G old
Ġo v
ade qu
Ġbe ats
Ġcomp rehe
ĠMc Donald
c lock
n ia
ĠR C
ĠHill ary
ĠIde as
Ġvegg ies
Ġgover ning
Ġw ont
Ġgen res
Ġconv iction
Ġdefect ive
ĠBreak fast
ĠT odd
ĠP arents
Ġpoly ester
e very
Ġc ass
Ġh ats
ĠS ud
} ,
Ġstr anger
Ġd are
Ġstim ulate
Ġprofessional ism
Ġhed ge
ish a
Ġforg ive
p ical
ĠTh or
Ġdiamond s
ĠIn g
ment ioned
Ġch i
Ġinv ented
fe eding
T O
Ġlo gs
Ġexpect ation
Ġnew born
ĠChe ers
ĠR oof
ĠTre asury
Ġjud icial
Ġargu ing
ĠB ass
Ġcig arettes
Ġbl onde
Ġut most
ĠGood s
Ġf ights
Ġab normal
bl ack
ĠMar vel
u i
Ġstreng thening
P aul
ic ates
Ġsad ly
ĠFil ter
F ace
ĠF el
Ġsurge on
b rand
Ġche es
ĠPro bably
amm atory
ĠG am
D B
Ġcom bo
Ġc el
Ġelabor ate
Ġfo il
ĠBar celona
role um
c ra
Ġl ymph
Ġear rings
Ġbe ast
Ġar thritis
ex cept
ĠG DP
act ic
ĠPsych ology
Ġdr one
ĠL odge
Ġout fits
Ġover ly
ĠReal ty
Ġphys i
Ġscr ut
Ġsubsid iary
Ġf ax
Pl us
Ġfemin ine
ll i
Ġdiagn ose
En joy
C ent
ĠEduc ational
ĠTest ing
ster dam
ĠH app
Ġpartic le
Ġconfig ure
ĠArchitect ure
L og
Ġex quisite
Ġyield s
Ġcur ated
Ġrun ner
Ġshort age
ĠManufacture r
Ġactiv ist
** *
Ġ( +
Ġcelebr ations
Ġbrut al
l iness
ĠGr inding
ĠPict ure
Ġg ates
ĠO H
A w
Ġn ort
Ġstat utory
Ġbill ions
ĠMot ors
Ġmembr ane
ĠIniti ative
ham mad
Ġath lete
Ġbre asts
ĠEn s
Ġorient ed
ĠR aw
Ġscrew s
Ġto ken
Ġ8 4
Ġreport ers
Ġdecl aration
D em
Ġa ids
ĠSpe c
ĠGh ana
ĠPlay ers
ĠDat abase
ĠB rain
ot land
um ph
Ġun law
Ġcrit ically
Dis claimer
M art
f our
ĠDou glas
Ġcollect ively
Ġpl ag
Ġcul inary
Ġsl aves
ĠBu ilt
ce nding
Ġcomp liant
Ġrel ies
Ġexam ines
port ed
b usiness
ment al
Ġse lections
Ġr het
f lo
ĠM i
Ġtre k
Ġa ver
ple ase
Ġw oke
Ġste pping
Ġident ifiable
Ġcorrel ation
Ġa ston
Ġenh ances
ĠW ang
Ġun ions
Ġtra gic
AG E
akespe are
es us
az on
Ġfore most
ĠSte wart
Ġsumm it
ic hes
ĠH ans
ĠSp ons
ĠIce land
j ah
ĠG y
ire ction
Ġcar bohyd
ĠIm per
Ġc ared
ar ians
ĠH ack
ĠMembers hip
l ining
ĠDe fe
II I
ĠCir cuit
l ayer
Ġc ort
Ġdem ol
Ġpractition er
ĠL ate
Sh are
c uts
ĠL OL
Ġbl u
ĠAz ure
Ġpath ways
Ġoptim um
7 50
ĠCh ain
ĠDog s
ĠBrother s
ĠA W
ra wn
Ġqu iz
l t
Ġseason ed
Ġrev is
Ġeleg ance
P riv
ĠG er
Ġstart ups
Ġunf ortunate
ak ery
c ision
p rom
Ġf ixtures
Ġn ick
Ġsam pling
F igure
Ġl l
ĠRe quest
Ġass ortment
. ]
I RE
Ġr ider
ĠN eb
ig m
iv an
Ġac re
ĠUlt imate
is al
ĠS ou
ĠW ITH
ust ed
Ġ7 4
ĠZ en
f alls
Ġp ause
Ġconcept ual
ĠMarg aret
f u
ĠB erg
Ġco co
d oc
s ens
Ġliber ty
Ġtort ure
Ġgall eries
Ġsw ap
ĠL ion
Ġgrab bed
T OR
Ġcontrovers y
ur ally
ug hed
ĠIntern al
Ġrig orous
Ġl ush
ĠA CC
l inks
read ing
ĠY or
Ġart if
Ġbreat htaking
â Ļ
Ġ198 2
r ators
Ġgu ards
izar re
O pen
Ġin ability
Ġz inc
Ġrequest ing
Ġcrowd ed
g reat
Ġcar bs
Ġdoub ts
Ġfurn ish
M arket
ps um
H P
M en
Ġ197 9
Ġsequ ences
D ig
ĠL amb
Ġinter val
app le
Ġallerg ies
ad visor
ĠUn categorized
So cial
ĠIndust ries
ĠTru ck
N on
Ġthe e
âĢ ²
ĠBon us
l ower
ĠBr is
Ġlone ly
b oth
Ã© s
it ably
Ġe ld
Ġvib e
ĠT ank
uuuu uuuu
re nder
form er
ĠZ ero
Ġten ant
Ġfra g
Ġapolog ize
ĠM ason
ash a
ffic ial
ĠStat istics
ĠChel sea
Ø §
Ġbe es
ĠF if
ĠProv ider
Ġfellow ship
Ġspin ning
Ġl b
rect ile
p ublic
ĠR acing
Ġbl ues
Ġsort ed
ĠLind a
ĠK night
Ġ8 6
Ġspr ings
Ġhoriz on
Ġcho pped
ĠU ber
ĠChe ese
Ġre charge
ĠT iger
ĠSh ield
ĠVe get
Ġsevere ly
Ġnegot iate
ĠTrad itional
ĠA Z
Ġtrans plant
Ġsur pass
Ġvis ually
Ġchar itable
Ġremain der
Ġprompt ed
Ġhel met
I AL
c redit
om i
ĠG OP
ag les
ĠAl f
Ġmor ph
Ġj ealous
Ġsimpl est
oster one
Ġw ires
ip ur
G reen
he at
... "
Ġcat ast
) -
ight y
R NA
Ġban ana
Ġla ughed
ĠGl ad
ĠPolit ics
h is
ĠP os
Ġsal on
Ġenc ryption
Ġconc erts
ĠD anish
Ġins ult
ÂĢÂ ĵ
Ġenroll ment
Ġbout ique
e fficient
C all
Ġv ague
Ġadd itions
Ġab st
Ġterror ism
Ġre lying
Cont act
Ġce ase
Ġrepl ica
Ġur ged
Ġfoot print
Ġte x
Ġbr ides
sh irts
ĠA x
OC K
Ġbuild ers
Ġcelebr ities
Ġrif le
R o
il ateral
ĠSe an
Sh op
it ime
Ġav iation
ĠO m
Ġ7 1
Ġe cho
Ġworth while
Ġw oven
ac cept
ĠDownt own
Ġcop ied
et al
ĠS ubs
Ġhighlight ing
ĠCert ification
agon ist
u h
our cing
Ġdang ers
ĠC ant
ĠD ress
Ġarg ues
Ġgar ment
Ġsurpr ises
er ie
Ġundert aken
Ġg rap
Ġembod iment
ĠF unction
ĠL ights
ĠTe achers
Ġcivil ization
ĠRob inson
sm all
Ġpull s
ĠArgent ina
B r
Ġbr idges
Ġdeb ts
ĠSyn onyms
Ġimp ose
ĠBath room
insp ired
uss ian
ĠOsc ar
Ġbe nd
Ġattack ing
ro ts
Ġle ar
Ġprem ise
Ġremed ies
Ġper ipher
Ġgu iding
Ġpriv ately
ĠW ide
Ġser um
Ġregister ing
Ġt am
ĠMan aging
ĠBas ically
ĠIll ust
Ġfont s
p it
ph ony
ĠTour ism
rib ly
Ġdrain age
Ġadmin ister
pl ane
ĠQueens land
ĠB O
op ing
Ġfurn ished
Ġr ats
Ġad he
Ġfle e
ĠSimilar ly
R eal
Ġd orm
D ep
ĠN AT
Ġtransl ations
b ly
Ġpast or
Ġsc rub
ave nder
Ġswe lling
Ġfresh ly
Ġeconom ical
Ġview er
ĠSu z
I d
Ġl ivest
Ġbe e
pr ising
l ad
ĠT ab
Ġst aple
Ġinv asion
Ġret ained
reat ing
ĠAd s
Ġfavor able
Ġaccommod ations
im ated
ub ric
Ġstuff ed
Ġexplos ion
D s
ill o
Ġtechn ician
Ġgener ates
, âĢ¦
Ġf iring
s ource
Ġt ier
or p
ĠB illy
ĠW ish
ri um
Ġauthor ised
Ġabsor bed
Ġinstrument al
ĠBase ball
ĠQu arter
her ic
Ġbrand ed
erg arten
Ġtour ing
Ġdrive way
ĠJess ica
Ġun used
ĠAv oid
ĠMont ana
Ġb apt
Ġsil icone
on ies
ĠD ear
Ġproblem atic
Ġpoly mer
Ġmir rors
Ġquant um
ĠMont real
ĠT IM
Ġreflect ing
ĠIran ian
Ġinsert ed
dis ciplinary
ĠRog er
ĠCal endar
Ġdial og
ĠBroad way
h aw
Ġtherap ies
Ġobs essed
Ġstick ers
Ġcred ibility
ĠPartners hip
ĠEnhance ment
Ġ ÃĤ
ĠOpt im
Ġwith stand
Ġtra ct
Ġyog urt
or o
ĠNe il
Ġterm inate
Che apest
Ġconsolid ation
Ġw ag
Ġf usion
ĠP izza
ĠN ancy
ik h
ĠA round
Ġcont ra
Ġaim ing
le ton
Ġg own
ut ed
Ġform ulated
ĠMain tenance
ĠMur ray
N ice
ĠR ivers
sh ow
ĠSupp lement
Ġincom plete
ĠP retty
Ġle ap
Ġsold ier
Ġf ierce
Ġrespect ful
ĠDis play
Ġquant itative
Ġsequ el
ĠM BA
ind ex
b ucks
ĠG ear
Ġle aks
Ġlaun ches
ĠDemocr at
Ġb olt
Ġsc andal
we lling
ĠCro at
ĠPict ures
ĠFeat uring
d imensional
Ġp c
ent ry
pe an
Ġaband on
Ġrender ing
ĠCon duct
Ġp ars
Ġrefres hed
B ox
Ġcre ations
Ġimag ery
ĠRout e
Ġvent ilation
as a
ĠN H
Ġconne ctor
ĠTw in
Ġprevent ed
Ġassum es
ĠCand id
b ig
Ġtrend y
ĠPub lished
Ġst ub
ud s
Ġchar ger
ĠAlp ha
Ġac oustic
Ġlast ed
ĠN BC
Ġserv icing
ad ata
Ġnot ably
ĠNe uro
De velop
ĠT ickets
Ġrock et
Ġdismiss ed
Ġm ast
et a
Ġcitizens hip
Ġwas her
ĠN ike
Every thing
Ġrig id
ĠP ix
Ġident ifies
head s
Ġadvance ment
Ġcivil ian
S ur
Ġb achelor
ĠK el
Ġsub missions
ĠSett ings
it ating
Ġbes poke
Ġinstruct ors
ĠN ad
Ġi T
Ġrecip ients
Ġlear nt
Ġdis ruption
ĠSt ir
Ġrend ered
Ġanticip ate
E lect
Ġhands ome
osex ual
Ġun available
Wh ite
Ġincorpor ating
ĠR F
ĠNor wegian
ĠPoint s
Ġinfin ite
C ateg
bor o
Ġimpl ant
met ics
ĠHam pshire
? âĢĻ
us ions
ĠM oses
ĠSh anghai
Ġdem ographic
Ġexplan ations
Ġencount ers
Ġdign ity
Ġpe anut
il k
Ġvalid ation
Ġlad der
ĠNash ville
ĠW are
US A
Ġelim inated
Ġparam eter
Ġp ins
Ġfr amed
Ġinspir ational
en ch
Ġpun ct
ĠThrough out
Ġendorse ment
Ġcomf y
on omy
Ġf li
Ġrun ners
ili ans
Ġarbit ration
Ġd ick
Ġjer sey
c ro
Ġdis par
Ġsec uring
Su pp
Ġindu ced
f s
Ġpay able
ĠSat an
ĠC G
sequ ently
ust ing
Ġbudget s
Ġoverlook ed
ir k
Ġpost al
Ġcou rier
ĠE co
Ġthem ed
Ġ18 00
Ġun su
c ert
Ġres ide
Ġno on
ĠC arm
Ġ8 2
j amin
ĠT E
Ġex empl
Ġunc ons
ĠIde al
lic ation
im eter
Ġextract ed
ĠBang ladesh
Ġsound ed
AN K
itut ed
Ġfurn ace
Ġ197 8
M ax
w rite
Ġut ilities
t i
Ġ8 9
Ġclick ed
Ġcand les
Ġur ine
ĠCrim inal
ial is
Ġbookmark ed
Ġrug ged
unci ation
Ġinval uable
Ġ erg
ĠF light
fer red
ĠE ST
Ġcup c
Ġt riv
Ġs lo
Ġdon ors
Ġmist aken
Ġspin ach
whe el
infl ammatory
Ġar row
Ġemp ir
Ġle fto
av i
ĠBo at
Ġ198 3
Ġtrib e
Ġaccompany ing
ĠC ultural
Ġqu arters
itc her
ĠMarket s
Ġproceed ing
Ġprecaut ions
Ġve loc
Ġabs urd
Ġspend s
ĠCh ile
Ġtext ures
St ill
enez uel
Ġk in
ĠWhe never
Ġamer ican
ĠC IA
Ġat he
Ġb ure
Ġm im
ĠB ristol
Ġadjust ing
ind a
Ġhook ed
Ke y
ĠPot ter
Ġflood ing
ĠFab ric
Ġcont ribs
Ġmom s
claim ed
Ġl os
Ġre build
au kee
Ġbra ins
ĠPet ers
ĠSum mary
g ence
ĠFl u
Ġrob ots
Ġteach ings
Ġvoc als
Ġgate way
Ġexam ining
anth rop
k n
Ġuncom mon
ĠBul gar
ĠScient ific
ĠJo h
log ical
Ġ ....
Ġres cu
ĠPro jects
r ights
ĠD ent
Ġconvey or
ĠR edd
ĠL anka
Ġshow ers
ĠReg ulations
ĠMo z
ĠT ow
Ġcur ves
ĠOF F
Bl ue
Ġphilosoph ical
ĠL P
ĠKe ith
ĠSn ap
ĠCompet ition
ĠDesign er
1 30
T om
Ġt il
ĠM ak
Ġgra pe
Ġdispos able
L ead
o ys
o oth
Ġstir ring
Ġspat ial
ĠJohn ny
Ġnutri ent
ic ion
Inst ead
ĠT icket
Ġpain ts
ay ed
iv o
Ġwall paper
sp ace
Ġda wn
Ġdesper ately
Ġg oss
Ġcra cks
ĠTy pically
Ġcred ited
co ck
Ġrespond ents
Ġtight ly
ĠCru z
Ġille g
ĠEgypt ian
ĠF ried
Ġmet a
Ġf ats
ch at
ĠP oker
ĠT ed
Ġch ase
Ġacc us
ĠBar ry
Ġpul se
: -
as ia
Ġep it
Ġey eb
Ġinterpre ted
Ġcapt ures
Ġeth n
Ġde mentia
uff s
ĠL ost
ĠFor ces
Ġdiscl aim
Ġpay roll
r ats
our t
Tr ump
ore sc
ĠS r
Ġhe ights
ĠD ual
Ġsp ont
t em
Ġplan es
Ġpos es
Ġadvis ors
Ġins u
Ġscen ic
ĠNS W
Ġl ag
Ġl uc
ip ed
og ram
Ġfa ulty
Ġforg iveness
sen al
Ġcleans ing
Ġpol ite
ĠSam uel
in as
ĠM is
ĠH O
ĠJ ama
ĠCh ron
Ġpuzz les
Ġaut ism
Ġsat ur
Ġbal ancing
Ġmer it
Ġscholars hips
ĠC hes
Ġdist ress
Ġo ct
Ġyou tube
ĠC AD
Ġtransform ing
l en
Ġin adequ
ĠL ORD
Ġapp rent
Ġru in
or b
ĠR ES
l ength
ĠL inks
Ġexp ans
Ġemp athy
ĠExam ples
t ry
ĠMur phy
Ġp ap
Ġte asp
w er
ĠX ia
ĠList en
Ġth igh
Ġch im
Ġexerc ising
ĠOcc up
Ġpart nered
Ġtr unk
Ġco ats
ĠInd igenous
Ġred es
Ġremov es
Ġri p
Ġcommission ed
Ġtroubles hoot
il let
Ġad apter
Ġadvert isers
Ġ7 9
Ġref urb
ĠSub ject
ĠBan king
Ġfulfill ment
Ġbl oss
Ġass ass
less ness
Ġannounce ments
mar king
ĠEss ential
ai ver
E st
I X
Ġh ated
enn ial
ĠX L
ĠDel aware
à¥ į
Ġbe an
Ġout reach
ap hor
Ġbroker age
ĠBatter y
Ġlif elong
Ġbrace let
Ġdet erior
Ġstimul us
P age
il ings
un ity
Ġoff shore
ham ed
k al
Ġcr ude
Ġdig ging
c ards
th ood
Ġir res
ĠEconom y
Ġdon or
ĠSc ar
Ġroyal ty
Ġutter ly
il ers
Ġmin us
ĠCr ushing
Ġbroad band
ĠAlex and
ĠB anks
ĠSh adow
Ġhead ache
ĠGen esis
Ġch ore
Ġpropag anda
Ġbu cks
Ġver b
Ġsexual ity
Ġcr icket
Ġmand ate
Ġf ade
Ġr ushed
pro cess
Ġmir acle
N ational
ĠJ et
Ġfirm ware
Ġcapt uring
Ġrestrict ion
ah u
Ġmix er
Ġpal ette
Ġsynt hesis
st atus
Ġout rage
Ġdem on
M ichael
ĠN am
ĠRe quire
Ġbul b
ĠCam era
g raph
n i
ĠInst ant
Ġcompr ising
Ġinse ct
Ġbron ze
ar an
ĠC I
ĠCar ter
Ġinflu en
ĠT ampa
ĠU T
Ġpersonal ities
DA Y
roph ic
names e
Ġendors ed
board ing
ĠArk ansas
ĠIn come
Ġwilling ness
> >
Ġinc oming
Ġden ial
Ġspot light
Ġw ow
ĠG RE
Ġboard ing
ĠF IN
Ġhypot hesis
C ome
ĠI B
ĠMov ing
Ġball ot
b us
est on
ĠFil ip
s ign
ĠE ffect
Ġsc ra
Ġlapt ops
ĠKir k
ĠMove ment
ĠGro ve
p ad
Ġlun gs
ĠBris bane
Ġb ik
ĠG ill
Ġanten na
ĠEss ay
ĠLuck ily
Ġgad gets
ĠS ER
Ġsh ifted
Ġdef icit
à °
ig ion
Ġdefin itive
Ġtrack ed
Â £
Ġca ffeine
ĠF unnels
ĠP RE
ĠW OR
redit ation
Ġstory telling
ner g
olit ical
hyd ro
ĠR ating
Ġgar ments
Ġnurs ery
Ġimp art
ĠAltern atively
Ġmetall ic
ĠH ood
p df
he y
re k
Ġre lied
EN D
Ġmel ted
ĠJam ie
iche ver
Ġl oos
ĠS aw
Ġprem iere
ĠOb ject
ĠPear l
Ġcrim inals
Ġd ude
Ġelev ation
ĠB ishop
load ed
Ġallerg ic
ts y
ĠH ole
ĠB und
ĠH ook
Ġsmell s
ĠTer ry
Ġstretch ing
inf o
Ġl oses
ĠB ever
Ġacc laimed
Ġillust rate
Ġg ifted
Ġwh olly
ĠL an
Ġir regular
Ġsculpt ure
in ology
am y
ĠH ab
v d
ĠCoun ter
L ong
Ġmult itude
ĠNiger ian
Ġcommit ments
F in
m ax
Ġemp ire
ĠT M
Ġemail ed
Ġarch ae
er red
Ġbet ray
B re
az ed
Ġreprodu ced
v t
ĠM ob
ĠV el
ĠSt y
ple asant
Ġessential s
Ġl ith
ĠCa fe
ĠS AP
Ġca fe
mm a
m oney
Ġro ast
end ers
ĠMa j
ĠWal ter
Ġte e
Ġfu els
Ġ8 3
Ġslic es
Ġred irect
Ġcompan ions
Â ł
Ġ9 4
Ġ197 6
avas cript
Ġo we
Ġwe ars
Ġcl utch
Ġinf ants
M ain
k it
Ġver bal
Ġm l
Ġro ster
imm une
ĠA U
Ġdy e
ov o
ĠHist orical
Ġmonit ored
N eed
lo e
Ġbl owing
S en
Ġst ance
Ġ19 75
ĠRec re
Ġman kind
ern and
ĠP ap
ge bra
ress ive
omet ric
Ġ198 1
Ġover d
rain ian
Ġnotice able
ĠLabor atory
c sh
Ġa while
ĠS ubscribe
Ġspe lls
Ġbeh ave
ĠA ld
Ġvill a
u pp
omed ay
itt ings
ĠEth i
ĠW ear
Ġrep ublic
ĠSh akespeare
o pp
icult ural
ĠPar ad
k ens
w ife
Ġbud dy
ĠZ h
Ġdeliber ately
Ġnons ense
ĠA uction
Ġjust ified
Ġy ummy
te chn
Ġmat urity
Ġlin en
Ġa fore
Ġun related
Ġdev il
ĠWarrant y
Ġsystem ic
ĠCl aim
Ġide ally
Ġv est
ud son
Ġpe el
ats on
ĠBr anch
Ġhell o
F ig
Ġpro c
ĠT s
Ġfather s
Ġpar ish
Ġsever ity
ĠI G
ĠAm sterdam
Ġpress ures
ĠCommon wealth
C ard
c ents
c ott
ĠPen is
ĠWH O
N orth
v ine
ĠK az
Ġbra kes
ĠPow der
C ount
Ġb izarre
ĠRe venue
ĠAr ctic
Ġnegl igence
ĠResp onse
Ġp iss
c ertain
ĠM alt
ii i
Ġres orts
og ene
ĠEx cellence
Ġbreak through
Ġalph abet
Ġl amb
Ġexhaust ed
ens ation
Ġcraft ing
d ies
ĠG ates
ĠAl z
Ġamaz on
ĠGener ation
Ġped iatric
ĠConsult ing
M aster
Ġquestion ing
ĠAC T
count ry
Ġg reed
Ġey el
ĠDou g
Ġp estic
Ġn erves
ĠUn iverse
it us
ĠP oll
Ġshap ing
othe red
iv ia
p ic
Ġopt ed
Ġdemand ed
Ġdisappoint ment
ĠSurg ery
Ġ ul
Ġe go
ĠFl ow
ĠCB S
Ġvib ration
ĠMarsh all
ĠT ol
ll ab
Ġr ude
Ġrep ository
ĠMen u
ĠF E
um ar
Ġinher it
v ak
Ġst amps
e asy
w aukee
ĠF inding
ĠBr ig
Ġlandsc aping
C ould
Ġperform ers
Ġsemin ar
Ġc ache
ĠHoll and
a ud
ĠF ruit
Ġown ing
Ġdetail ing
Ġre jection
ĠEx c
cast le
Ġcommer ce
ĠSupp liers
ĠWell ness
Ġresid ency
Ġto es
Ġr im
m ia
x ic
ĠJ P
ub a
val ue
Ġwild erness
f air
ĠM M
Ġmis leading
Ġreprodu ce
ĠE ffects
Ġfra gment
Ġexhib its
Ġpic nic
ĠT ube
un ct
bu y
Ġimper ative
ĠT ag
Ġstud ios
Ġcar n
ĠOr thodox
Ġris es
Ġsup reme
ĠE lection
00 3
ĠOper a
reg n
Ġincorpor ates
Ġpract iced
ĠR M
ĠCom plex
In s
b ands
ĠW iki
Ġcomm ence
ĠDet e
Pl an
she et
Ġreimb urse
ĠV intage
Ġcon tend
cu le
Ġber ries
om on
Ġst arring
ĠJ i
Ġapp eals
Ġpersonal ised
S chool
ĠI l
ig ator
Ġper ceive
Ind ia
h all
at isf
ĠAn a
ĠDiv ine
ĠGD PR
ĠF ill
ĠH our
Ġmay or
Ġsc oop
ĠSy rian
Ġmut ations
Ġsupposed ly
am ple
Ġby pass
Ġl ingu
Ġfl ush
Ġexp orts
Ġint ro
Ġdi ets
ĠBro ker
Ġe b
Ġunder way
G iven
R ef
am bers
Ġma ple
Ġmin es
% ),
ĠB orn
Ġsp y
Ġconc ur
y r
Ġv ic
olog ic
Ġ; )
he astern
ri ages
Ġ3 000
ĠProf ession
Ġnom ination
Ġsquee ze
Ġtodd ler
Ġpack et
Ġsurv iving
Ġshock ing
Ġexceed ed
ĠiT unes
in formation
Ġwarn ings
Ok ay
Y et
iss an
Ġz omb
Ġoccur rence
à ®
Ġdet ox
Ġcard iac
Ġble nds
Ġment ions
Ġflaw s
Ġunlaw ful
ad der
Ġwho ever
200 8
Ġev ac
us sels
Ġpro xy
Ġinv asive
Ġl aughter
ur ations
Ġcomprehe nd
C M
e enth
ĠA STM
Ġback drop
ell ar
is ive
Ġcelebr ates
J ul
Ġit iner
ĠM AN
ĠIs le
ĠC rit
Ġk ills
T agged
ĠC inem
ĠL CD
anu el
clus ion
b ate
ĠD uty
Ġsp inal
Ġrust ic
Ġg i
ĠA ur
Ġcomp uls
re my
le ased
ĠJul ie
lic t
ĠBe er
Ġdiv isions
ĠT ig
ĠS or
Ġfact ories
ĠPl ants
ĠExt reme
Ġmess y
Ġ197 2
Ġw it
ĠP VC
Ġax is
Cre ate
Ġpres ervation
Ġref ine
Ġpred e
Ġcompassion ate
C amp
Ġp udd
tit le
L T
Ġsh adows
In vest
ĠCal cul
Ġbra cket
F M
Ġcent r
Ġoptim istic
ĠCam eron
orig inal
ĠSh ar
Ġimag in
E xt
Sh ould
ĠOlymp ics
D O
Ġand roid
ĠPet e
s cience
Ġdown s
Ġtrib al
Ġm ug
Ġal uminium
Ġen closed
ĠQ atar
eral a
ĠColumb us
al king
Ġse iz
Ġdisc reet
ush i
Ġcompos er
Ġper taining
Ġ8 7
Ġneighbour hood
d ates
Ġno ble
OW N
V R
Ġfib ers
ĠC ord
ry s
ĠRe placement
ph alt
onge vity
ĠAdd ed
Ġexhib itions
Ġ197 3
B N
Ġf art
Ġfold ing
Ġreprodu ctive
Ġpro be
Ġflav ours
Ġarom a
em ia
Ġtra ction
ĠMon ster
Ġassess ing
Ġship ments
ĠVeter ans
Ġth riving
Ġv amp
Ġpre cip
Ġpo lls
ĠWild life
" ).
H E
ĠT ot
ĠR ust
Ġrep aired
Ġbas eline
d ec
us able
Ġcolle cts
Ġm ol
Ġsubject ed
Ġrecogn izes
ica id
Ġap ost
Ġbless ings
Ġseam lessly
ĠAnsw ers
Ġd uck
ĠUnder standing
Ġh i
i encies
he a
Ġf ighter
et ically
d ata
ise x
Ġreal izing
Ġflo at
Ġth rows
ĠK il
Ġfin es
ank ed
Ġhorm ones
f ar
ĠW ol
Ġli king
io let
Ġorig inated
Bel ow
h um
ĠA er
ĠH unt
ĠV M
ut o
ĠR ug
ĠArt icles
Ġreform s
âĢ Ĥ
ĠV illa
ĠSc ale
yl um
Ġb ounce
ĠB I
Ġmon ument
ĠChen nai
ĠScript ure
Ġignor ance
ĠP rest
T alk
Ġcont ing
Ġdi ver
Ġce ilings
200 9
Cl oud
sm ith
Ġprolong ed
J ack
i age
app a
Ġrout ines
ĠMem ory
Ġdisturb ing
L ab
IS H
ĠChar acter
ĠBi ology
Ġw iki
is le
Ġcur rencies
Ġmerch ants
O rig
ro logy
g rowing
an im
Ġcomm issions
Ġwonder fully
ĠWhats App
Ġo mega
Ġperiod ically
ĠĠĠĠĠĠĠĠ ĠĠĠĠĠĠĠĠ
Ġcan ada
ĠEU R
ĠR ush
ĠPl ans
Ġscream ing
Am ong
ĠS ed
we ed
Ġillness es
ri ad
Ġself ish
Ġtrain ers
ess a
ga e
Ġda unting
ĠR ates
Ġsc attered
Ġdevelopment al
Ġsyn chron
Ġdos age
Ġhope ful
Ġterrit ories
Hel p
Ġworkshe ets
M obile
M icro
ord able
Ġprov ing
Ġcol oured
Ġvirt ue
ĠAccount ing
âĢĿ ?
Ġpolit ically
ĠSupp lies
ĠAffili ate
Ġs or
im ming
ĠV o
l ast
ĠMer cedes
ĠAdminist rative
f ocused
Ġad ul
sal m
Ġad ore
ĠFl ore
Ġauthent icity
amp ed
ĠTH AT
Spe aking
) âĢİ
ĠD ipl
ĠApp arently
Ġhazard ous
Ġst roll
Ġal ot
Ġ196 9
er d
Ġb ark
ĠBre xit
Ġinfect ious
Ġsh rimp
Ġover looking
Ġimp rison
ĠSur v
Ġapp ar
amm ers
Ġrest ing
Ġcost umes
ĠP i
Ġremember ing
ĠRepresent atives
u pt
ib aba
ĠLe gend
ĠPr adesh
Ġroot ed
ĠFun eral
Ġrede em
M ult
Ġn odes
Ġbelie vers
Ġl itter
ĠH arm
eng ine
Ġa ka
Ġw ounds
Ġdist ances
d isc
Ġnot ch
Ġp ests
ĠCons ervation
i enced
Ġc age
il ient
Beaut iful
AT A
d iff
els h
Ġgather ings
M a
ĠT un
ind uced
Ġstret ched
Ġmart ial
ĠLight ing
augh ty
Ġantioxid ant
Ġcond em
Ġrefund s
pher d
Ġtrig gers
Ġstat ute
Ġunh appy
ĠC SS
ĠK an
Ġwas ting
ĠTre k
Ġpodcast s
ĠLe af
Ġ196 8
Ġor th
ĠSc ore
Ġlow ered
ĠMor occ
amp agne
Ġlight ning
Ġhat red
Intern ational
Ġcl ues
P ower
W ater
read s
Ġrecover ing
omet own
Ġweigh ing
w orm
Ġspec s
Ġmen us
iet h
Ġchat ting
ĠStan ley
Ġp ir
Ġmod ular
ĠT ub
Ġremov able
Ġdu ct
Ġfu cked
just ice
ĠMach inery
Ġhaz ards
i ens
Ġb ob
out ing
Ġincl ined
Ġcomp artment
c orn
ĠPer ry
A gain
ï ¬
The ir
Ġmon sters
Wor king
In formation
L ight
Ġpe ppers
C ook
Ġnight mare
Ġexc lude
Ġprint able
Ġdemonst rating
ine es
k ar
Ġ4 50
Ġtransport ed
ĠW es
ĠN I
Ġinter vals
Ġmight y
ĠSp ark
ĠCal gary
Ġtour naments
A ccess
h alf
m ile
Ġval uation
Ġarch ives
Ġso ak
hand ed
Ġhur ts
ĠViet namese
oper ative
Ġrein forced
ĠS ierra
Ġab oard
Ġmem oir
Ġirre levant
p se
ĠW ow
E U
oo ses
ĠProv ince
ĠTes la
ater nity
Ġjudge ment
ĠC atherine
ĠV enezuel
Ġsec ular
ĠGl asgow
ĠVol unte
O H
Any way
v ar
Ġhe x
I Z
Ġout dated
Ġget away
on ut
Ġc ried
ĠP ok
ĠE sp
ĠK yle
Ġphil os
Ġange ls
er ick
Ġw icked
ĠC el
Ġrec ession
Ġcatalog ue
Ġar ises
Ġret aining
y on
Ġ2 20
Ġad missions
ib ration
Ġvers es
Ġvers atility
Ġple asing
ĠOff ers
H ead
ĠT A
ĠE val
Ġserv ant
c ustom
Ġf ictional
ĠV ers
Ġpost age
hold ing
Ġiniti ate
Ġrot ating
L R
Ġ* *
C r
ĠSh ore
ĠN ar
ĠE SP
ĠZ ion
Ġter pen
ĠEv ans
gener ation
dem and
Ġpow d
ant i
ass is
med ia
Ġindirect ly
le ys
ĠGu ild
Ġspark ling
Ġn ostal
e er
ĠL it
Ġquarter ly
ĠM ode
ĠHe ights
Ġup hol
Ġcopyright ed
ĠSac ram
or ne
ĠR ental
Ġpres ently
Ġec ological
j ury
is factory
le ft
Ġr anch
Ġup right
ruct ed
Ġhuman itarian
ĠPort al
ĠS aints
Ġign oring
ĠHist oric
Ġindu ction
Ġun pleasant
Ġinhabit ants
Ġinterfe re
ĠPain ting
st ones
ĠCh ampion
Ġstat ue
Ġl amps
Ġne on
00 00
av il
ĠCont emporary
ĠElect ronics
Ġflags hip
Ġre he
ĠT ik
AL E
Ġemb roidery
ĠThe ater
ĠMad rid
ĠB elt
ĠF uel
du ctor
oc ado
ĠSh aw
R ob
ot ics
ĠK ash
ĠLux ury
ĠT ask
am ation
Ġinter ference
Ġheav ier
: .
ĠAct ivities
Ġcoal ition
m illion
ath i
Ġst un
ĠCub a
ot ation
ĠWe e
ĠPut in
Ġopen ings
ĠAss istance
Ġuncons cious
Q U
r ays
ĠE dd
ĠJeff erson
Ġbuff er
Ġw aking
Ġsyn c
Ġ{ {
ĠPhotos hop
M ac
c uss
ĠNon etheless
ĠEnt reprene
ĠPrinci pal
Ġsc oot
Ġsl am
na pped
ĠTy ler
ĠJu an
LE ASE
S l
[ /
Ġs ab
Ġan at
ĠStan ford
Ġine quality
ĠSustain able
ĠD ow
ear chers
Ġm ph
ro e
asp berry
T ax
Ġad hesive
ĠTrip advisor
Ġmarg ins
ĠMar c
ĠJe remy
ed a
Ġbe ers
Ġle nd
ĠIn fin
ĠK o
ĠTra ffic
Ġv irgin
Ġemb ark
AM E
ĠVerm ont
Ġt ense
Ġdo ck
Ġcomm emor
Ġbo iling
Ġband width
Î ±
ĠN in
ott a
Ġdisappoint ing
Ġab used
Ġexplo it
ĠF B
Ġdisc ourse
Ġintention ally
w s
ĠS ession
Ġsk ull
ĠChe v
elt ic
ĠD ust
Ġsm iled
Ġsur render
Ġcondition er
b ags
ĠHel en
cont ent
Ġamend ments
ad ians
ool s
ĠCon cept
V I
am er
ul as
ĠV iking
Ġdoub led
ĠFour th
ĠB ir
Ġk ern
Ġhomes chool
Ġfol iage
ĠOper ating
J ames
Ġcomp ilation
Ġcontribut ors
?? ??
ĠAud i
Ġrecur ring
Ġ7 50
ĠL iz
Ġper t
Ġlock ing
Ġo ste
Ġ9 1
Ġneg atively
Ġsand w
ĠInstall ation
ĠAgain st
Rec ently
Ġab ras
Ġpsych o
bi ased
ĠH ospit
Ġco ven
Ġequ ations
ĠChem istry
Ġthe at
ĠCh an
Ġhead aches
ĠVar ious
Ġskin care
Ġdep ressed
Ġcorre cted
S ource
Ġ iv
ĠR NA
Ġconf ined
Ġepid emic
op a
so cial
Ġgr inder
ĠPat ients
ĠIntegr ated
Ġprede cess
an or
Ġlo ft
ĠCo aching
Ġpassword s
Ġdestro ying
ĠM R
Ġveter inary
P ublic
s pring
ĠId aho
ĠTele vision
ĠGuid elines
T ry
ĠG it
Ġalloc ated
Ġsp lend
Ġkitchen s
cont ract
ĠLiter ature
ĠT all
Ġhum id
Ġsuper vis
go vernment
Ġdraw er
ĠCre ated
ĠCou pon
Ġprocure ment
ĠAlz heimer
l asses
cc oli
ĠSp in
Ġsn ake
Ġch rome
Ġ197 1
Ġimpro per
ĠPub l
Ġlandl ord
H and
Ġpre y
Ġblo om
resp ons
Ġpro state
Ġun ch
Ġfore front
Ġcontribut or
ĠPhys ics
Ġbench mark
D M
Ġab usive
Ġso othing
ĠVen ice
Ġn ylon
Ġhe el
ĠFl owers
St ation
aste red
ĠMov ies
Ġacadem ics
Ġk icks
Ġguess ing
Ġexc urs
Ġprison ers
Ġweld ing
en cil
al ities
ĠT S
ig hed
ĠPe ak
ĠExt ension
ĠRail way
Ġo xide
Ġun le
ĠAm anda
ĠGu ests
ĠPat tern
Ġinteract ing
TH E
ĠM az
ĠBen jamin
Ġbe et
ur bs
ĠB our
Ġav id
Ġcur ry
Ġmet aphor
Ġnav igating
ĠColl abor
ĠC amb
Ġlif es
Ġinput s
ĠMit chell
ĠM N
AAAA AAAA
Ġprovin cial
ĠDefin itely
R ock
ĠAdv oc
irsty les
Ġn ude
ĠM aps
load s
ĠDesign s
OU R
ĠSaf ari
Ġquart z
o ken
ĠNew ton
Ġ197 4
Ġcyl ind
ĠCher ry
s ay
ir i
ĠCh ase
Ġmis er
Ġmagn itude
Ġcapt iv
ĠEmploy ee
ĠBeng al
o is
ĠY ang
ib et
Ġmet ric
Ġoper a
Ġcompet itor
ĠJour ney
Ġprosper ity
le tt
ĠN an
av al
Ġcor rid
ĠAct iv
in ars
Ġ8 1
ĠAd visor
Ġalloc ation
R ich
am iliar
ĠR unning
ĠRe ce
Ġrem inis
port ant
ĠEnt ry
ific ant
Ġdecor ate
ĠMethod s
Ġby tes
work ers
S ever
Ġp seud
Ġpost pon
ann es
Ġsuper visor
Ġquestion ed
O Y
Ġsing ular
om al
Ġdr ums
wh y
Cur rently
ai ro
ĠGuarant ee
in stein
Ġfo cal
Ġupgr ading
Ġrecept or
Ġmet ro
St and
Ġf rench
ĠC ock
lo ys
ĠNe igh
m ake
ĠT ap
Ġed itions
ĠForm er
Ġmurd ered
Ġsm ok
Ġopp osing
Ġh ips
en ic
Ġup ward
Ġatt ent
Ġform ally
Ġpat ron
Ġgrand parents
Ġdigest ive
Ġp ains
Ġdev ote
Ġutil izes
ĠStat us
Ġsa usage
ĠWork ers
Ġnic otine
th s
Ġal umni
oint ed
Ġbar gain
Ġobs c
Ġcance led
Ġdeput y
sm anship
z el
Ġt art
Ġball oon
G lobal
ĠAl uminum
Ġcoll ision
Ġlack s
Ġspl ash
Ġfulf il
Ġm s
Ġd ile
Ġcryst als
B ro
ĠA WS
ĠPro ced
10 5
Ġearthqu ake
Ġb amboo
ĠSl ow
H ouse
M o
Ġmar athon
b ath
ĠH erm
ĠU b
Ġswe ep
Ġviol ate
Ġ197 7
ropract ic
Ġt ant
ĠF err
Ġres olutions
Ġbro ch
Ġl ubric
Ġrent ing
ï¿½ï¿½ ï¿½
ĠEvent ually
Ġl ust
Ġclass ics
Ġwel comes
Ġprotest ers
ĠD odge
Ġra ge
Ġprem ature
Ġkn ives
Ġsm arter
ĠAl cohol
Ġcollect or
Ġmit igate
Ġnit rogen
ĠR ib
Ġadv ancing
ĠWe nd
Ġcal orie
rad itional
Ġparad ise
Ġinev itably
H ub
v ings
ĠRes idential
ĠI Q
Ġhe ck
Ġrisk y
ĠQue bec
Ġcere mon
oc aly
Ġpres chool
Ġforth coming
u f
ĠV ideos
Ġinst inct
Ġsubject ive
Ġâ ĺ
Ġpro active
Ġcoord inated
Ġinsight ful
w ire
ud er
Ġmob il
ĠAutom otive
âĢ ¯
ĠL aser
ĠWal king
Ġvou cher
Ġ10 5
Ġtravel er
ID E
Ġgrand children
Ġcooper ative
4 50
y ll
Ġde hyd
Ġcur b
Ġeven ings
ĠOper ation
Ġdio xide
n uts
Ġto ast
Ġer otic
it as
Ġregul ators
Ġcock tails
r ide
ed ience
ĠG C
ĠTh under
ĠMed icaid
down s
Ġreferen ced
ĠD ictionary
iv able
Ġn oodles
Ġalph a
Ġveloc ity
al an
ol ia
cl ip
Ġmetab olic
ar us
ick er
ĠConc rete
Ġback wards
Ġignor ant
ĠS hen
me al
ĠForm ula
Ġriv als
ov al
Ġlisten ers
ĠSand ers
ad ers
ik o
Ġsucceed ed
ĠDe als
Ġex cus
Ġcit rus
Ġf ost
il ant
ĠH aven
Ġsubscrib ing
C ity
orn ings
mal ink
Ã³ n
Ġfut ures
f at
g ages
ĠF est
Ġhard ship
Ġvot er
ĠM ead
te nder
Ġarch itects
ĠRE AD
Ġtran qu
Ġdec ay
ĠEVER Y
ĠL anc
ĠK le
Ġhalf way
ĠCr is
b as
Ġins ist
Ġend ure
ĠMe asure
sec ured
v ic
Ġpost ure
Ġmicro phone
ĠOk ay
ĠIss ues
Ġaf rica
Res earch
ett a
ĠMil an
Ġinterf aces
Ġfrag ile
c ano
Ġid i
S W
V e
Ġexc av
ĠW u
Ġfr iction
Ġtem p
Ġharm less
commun ications
ĠFre qu
m ag
Ġlearn s
Ġpreval ence
U LL
Ġb ore
ĠC ooking
um en
Ġdisp atched
Ġmal icious
E v
Ġdistribut ors
Â ²
ge on
Ġcar ved
bo ys
Get ting
ĠOpportun ity
Ġcur ved
nam ic
ĠPer th
Ġanaly se
ĠNob ody
H ist
Ġb oun
Ã© e
Ġd rought
ud ed
ucle ar
Ġfib re
th ree
ĠEsc orts
/ -
ĠF ee
Ġair ports
Ġbul lying
D iscover
W omen
ĠN est
pres so
Ġsil hou
Ġrelig ions
ĠSecond ary
Ġexceed s
Ġc ensus
Ġargu ably
Ġconfig urations
Ġconver ting
ĠV ista
Ġb un
ĠF ix
Ġsm iles
af il
F our
Ġl ongevity
ĠC N
Ġpart ition
Ġski ing
Ġendeav or
Ġresear ched
c ill
d uty
AR Y
Ġdece ased
Ġgeomet ry
ĠCom ing
ĠApp s
Ġw ounded
Ġp ne
18 0
ĠRe ference
ĠAn cient
Ġcra cked
Ġper secut
Ġfashion able
OO K
Ġske pt
am pton
Ġorgan isms
ĠMin or
ĠÎ ¼
Ġasp iring
Ġsp iral
Ġclean ers
ĠDis p
per m
Ġantib iotics
B as
L ive
Ġd Ã©
Ġfound ers
ĠWell s
Ġtext ile
ch y
ill ery
ĠSo ci
ĠPl ug
Re view
ĠMathem atics
Ġbr ushes
AT H
Ġfemin ist
S K
att a
Ġauto immune
Ġstim ulation
Add itionally
Ġobserv ing
11 7
cel ain
ĠU g
ĠWe alth
ĠOak land
C AR
Ġplay ful
ĠExper ts
ĠFem ale
W onder
Ġintegr ating
bro ok
ar u
Ġst aring
with out
Ġjack ets
qu in
Ġdisp atch
produ ct
Ġconfidential ity
Ġintric ate
ub le
und ai
il ia
ear ly
Ġper malink
ĠP ull
ĠB UT
Ġche ating
Ġapprox imate
ĠC opy
Ġs izing
ĠOut look
Ġexclus ion
ĠP orn
ĠJ ake
ĠDe mentia
Ġforecast s
à¥ Ģ
Ġhack ers
. *
ĠWe re
ock ing
ce ans
ĠRich ards
ĠStar bucks
ĠColle ges
Ġb ats
Ġinter ven
ĠMechan ical
Ġinsu fficient
Ġclassroom s
so ver
ĠSouth west
W ind
ĠS ounds
ĠC ourses
ĠL ucky
Ġreflect ive
Ġphenomen a
j our
ĠN ag
Ġprofess ors
Ġfoot wear
ĠMil waukee
Ġsimpl ify
Ġbact erial
p ract
An n
agn etic
ĠW P
Ġreal ities
Ġint ens
bo ot
Ġge ographic
Ġspokes man
Ġnorm s
Ġdead lines
ĠCab inet
Ġpione er
depend ent
ĠK ra
st ru
ay an
ol in
ĠF avor
ire ment
Ġadop ting
Ġl iner
arn ish
Ġ: -)
h at
Ġv om
ĠTe ams
Ġcrit ique
ĠKnow ing
Ġles bian
act ly
Ġd ots
row th
Ġblood y
D ER
Ġa we
Sever al
g ling
k ia
ĠI oT
ĠLu cy
Ġbom bs
" ...
A Z
Ġha ul
ĠR uth
ish i
Ġpres erving
Ġexp on
Ġplan ets
Ġpat ented
Ġstorm s
Ġbad ge
Ġinstruct ed
Ġl ac
ak u
ĠPl aza
Ġunp redict
est hes
ĠImper ial
g om
Ġdifferent ial
ĠGr iff
Ġknock ed
Ġd rown
ĠDe cl
tt i
Ġpan or
Ġvibr ating
d ict
ĠW elsh
ĠH udson
Ġal beit
Ġgood bye
Ġintern ally
Ġannoun ces
Ġthr ill
ag rams
Ġman eu
Ġdis se
Ġbud s
amp ing
Ġgovernment al
Ġprot otype
Ġp enny
ig uous
der abad
T im
l ate
ĠN ap
de gree
S uch
Ġcollect ors
iling ual
Ġex agger
ĠSte phan
Ġsens ory
P ersonal
Ġn fl
Ġdest ructive
Ġcart ridge
ON G
v s
eng u
ĠMot ion
ĠB urg
ĠCh uck
z zy
Ġill usion
Su pport
m itt
Ġsu cks
Ġsho pper
Ġmil estone
udd en
ĠEqu ity
Ġrevel ation
D et
ah l
Ġp ens
ur ous
Ġout lines
Ġbook ings
Ġsacr ific
m id
n bsp
Ġc ad
Ġex cerpt
Ġv on
cont in
UN T
Ġcomprom ised
O s
g one
ĠW alt
ail ure
Ġsufficient ly
ĠReturn s
Ġod or
Cong ratulations
Ġsuscept ible
Ġexp ired
at ivity
ĠSt u
ĠEn c
Ġas semble
Ġt urt
Ġl ig
ĠC ities
Ġr ays
iv irus
ĠRe be
Ġbr ighter
ĠDo ing
Us er
Ġfasc inated
Ġide ology
na ire
Ġb ip
Ġinc idence
Ġgot ta
ĠM iles
ĠB enn
ĠO ption
Ġav en
urg ical
Ġp s
ĠF ri
F s
ĠT C
Ġgl itter
Ġpun ish
s aving
Ġmy riad
ĠG and
Ġhur ry
Ġad vers
ĠTe en
Ġtwist ed
Ġl ing
ĠF ounder
ĠDe ll
Ġe ighth
Ġn ull
ĠF iction
ox y
à¤ ¨
Ġcompar isons
Ġh ollow
ĠD ennis
Ġqu ir
Ġcred ible
Ġtempt ed
C y
ĠM G
Ġbath s
\\\\\\\\\\\\\\\\\\\\\\\\\\\\\\\\\\\\\\\\\\\\\\\\\\\\\\\\\\\\\\\\ \\\\\\\\\\\\\\\\\\\\\\\\\\\\\\\\\\\\\\\\\\\\\\\\\\\\\\\\\\\\\\\\
Ġtaxpay ers
Ġc bd
Ġp oured
Ġdirect ing
may be
b read
ul se
ĠG on
Ġind ie
ĠAutom atic
Ġst ab
ĠL ives
ĠLaure n
Ġw ives
AN G
Ġweakness es
Ġdefic iency
So ft
Ġhelic opter
l ists
ett le
ĠNC AA
H ope
Ġpict ured
Ġclos es
N P
Ġlaw makers
Ġbar be
Ġswe eping
Ġcontrad ict
T erm
Ġj umps
ĠCh ip
Ġjud ged
Ġutil ization
Ġn in
Ġcond emn
Ġdepend able
S QL
Ġcolour ful
ĠMass age
ĠBeh avior
a is
ĠC able
ĠM ack
ĠW ing
ĠH U
Ġfe ast
ĠPre vious
m oon
ĠUk rainian
Ġs ir
P ut
alle led
G G
Ġpar ade
Ġcard board
Over all
Ġb iblical
ab etic
ĠL EG
Ġmind ful
ĠAr n
Ġtrave llers
L aw
cont rol
ĠNaz i
ic able
Ġall iance
Ġsw ear
ĠDis covery
Ġmut ation
press ion
cess ion
ĠBl ues
W H
ag ain
Ġground ed
ĠPur ple
ĠG roups
Ġpersonal ize
Ġadvis er
ĠHon or
ason able
ĠAgricult ural
ĠOtt awa
Ch oose
à¤ ¿
con nected
Ġtruth s
Form er
ĠYor kshire
ĠK ill
Ġpil ots
ĠPun jab
ver ts
em i
Ġregist ry
r aska
Ġcircumst ance
Ġshut tle
Ġorche st
S L
ĠW atson
Ġfl ed
IS A
Ġfrank ly
Ġprint ers
Ġaw ake
ĠC rypt
res pect
Ġcan al
ĠTh r
Ġfant as
Contin ue
ĠOver view
Ġcompl ained
Ġbright ness
ĠLem on
P ER
ĠM ile
Ġdefin ite
IS C
ĠCR M
14 0
Ġcoco a
ĠW ritten
Ġsad ness
llab us
f ill
Ġm ul
res a
Ġ196 7
ĠPress ure
o kes
â ĪĴ
Ġch ooses
Ġbub bles
Ġgoss ip
T ON
Ġb othered
ĠT rial
Ġres ilient
Ġland mark
ĠST EM
ĠA rena
ĠE as
ave ment
There fore
Ġswe ater
Ġo ily
ru bs
load ing
ĠHis pan
S k
ber y
ĠLaw yers
ĠPerson ally
e ur
Ġciv ilians
P ass
Ġbit es
Ġgrad uating
ĠK iss
sh ort
c hen
Ġw aiver
With out
Ġth under
Ġanth rop
Ġchar ities
osoph y
Ġs omeday
ne x
ĠZ oo
Ġbenef ited
S an
ĠA ra
ĠC arn
ĠRe form
Ġdoes nt
Ġmet adata
Ġpos ed
Ġrepl ies
Ġ50 1
ĠBu ying
ĠLook s
ĠM akes
ah n
P ub
ĠB oss
ĠW ait
Ġun healthy
Ġjour neys
3 60
Ġmed al
Ġext r
Ġele ven
Ġlocks mith
Ġdis asters
Ġallow ance
ows ki
Ġaw ak
ĠImm igration
Ġcommod ity
âĢ Ĳ
ĠDom estic
% ).
j s
ĠM UST
Ġen vision
Ġcheck list
ar in
Ġne ural
Ġend urance
ĠAr men
Ġexceed ing
ĠAny thing
Ð¸ Ñ
ĠChem ical
ĠExerc ise
ĠD ys
Ġsp here
Ġmanip ulation
ĠCitiz ens
Ġhead line
mat ched
Ġst all
Ġemphas ize
Ġinspe ctions
Ġsh ining
Ġover sight
Ġunder w
ĠPo etry
if ference
Ġall ergy
Ġob jection
Ġprivile ged
Ġcounterpart s
. (
Ġb og
Ġr ay
oc ol
ĠV ine
Ġstret ches
is se
im ental
ĠChar ter
Ġtang ible
Ġs lope
ixt y
Fr iday
y ards
Ġjoint ly
ĠStrateg ic
Ġt idy
Ġm our
ĠSu ff
Ġju icy
Ġrenov ated
Ġde com
Ġenthusi ast
Sm all
Ġplaint iff
Ġsle pt
ĠProte in
ogen esis
S am
V ideo
Ġl oops
ĠS ue
ri el
ĠD inner
op athy
Ġmet ic
21 0
Ġpix el
Ġtrib es
Ġcar amel
Ġstick er
ĠSter ling
Ġtw ent
Ġrecogn izing
Ġp ans
ĠPort able
Ġrou lette
ix on
fl ies
ĠTem plate
Ġk icking
Ġtra ces
Ġmot if
Ġelev ator
Ġa pr
ĠW ILL
H B
à ¦
ĠV ert
Ġexc luding
Ġreward ed
Ġhook s
ĠExam ple
Ġaccum ulated
d ar
ĠC MS
Ġtri o
ĠSec ure
inc inn
ĠRub y
Ġcl a
Ġpri ests
Ġunve iled
Ġattract ing
Face book
Ġdis pro
ĠRead er
Ġroutine ly
ĠTurn er
ĠLGBT Q
Ġflu or
it oring
pe lled
um at
ĠE tsy
per ing
ĠV I
ĠMonth ly
Ġintent ional
Ġempower ing
h art
Ġl odge
Ġcontinu ity
Me et
ĠM atter
ĠK Y
ĠHe ather
fol k
Ġumb rella
Ġf erry
Ġb ib
Ġfig uring
Ġfold ed
prof ile
Ġthe ology
Ġins isted
ĠInc luded
Ġspread s
Ġterror ists
Ġdupl icate
ĠP oss
ĠG el
ĠDo llar
Ġgre ase
Ġreserv oir
ĠSe ctor
âĢ¦ )
Ġselect ive
ĠPar king
Ġn ause
ĠB ake
Ġpe renn
Ġsc are
ĠCan adians
T able
Ġl ump
ĠF Y
Ġâ ľ
Ġthr illing
Ġprosecut ion
ĠFeat ured
Ġbure auc
our ing
Ġ5 000
f ed
Ġconf ess
cript ive
ĠSer iously
Produ ct
es c
Ġbel ts
Ġident ities
Ġburn s
Ġre per
ke ley
ĠSh ah
Ġlab s
Ġmotiv ate
Ġscal p
Ġy acht
Ġre open
ĠM aur
Ġprodu ctions
Ġfl uffy
Ġpublic ity
ĠMar x
ĠBar ack
ĠP am
th anks
Ġel bow
Ġdeb ates
99 9
Ġbroad ly
Ġh ometown
et on
Ġaut onomous
IS S
Ġge ographical
Ġe tern
Ġcraft smanship
ĠHy brid
Ġtut or
ĠHung ary
s omething
Ġp iping
to k
apan ese
Ġbow ls
Ġar rog
ĠCh art
Ġbre eds
Ġast hma
Ġca ul
Ġstead ily
ren al
Th ink
Ġs her
Ġd ermat
Ġplan ner
16 0
Ġtim er
Ġestablish ments
u ci
ĠD B
ĠK ick
ĠMar io
bal ance
Ġbi king
A f
A lex
Ġwh oles
p c
Ġha irstyles
ĠJ ar
Ġthick er
G ive
J P
ĠR N
ĠDo ll
Ġrepe ating
ĠEngine ers
Ġflu ids
p aced
Ñ Į
OU T
Ġtox ins
ĠI A
ĠS ara
Ġsign aling
Ġpron ounced
St ay
ï¼ Į
l ifting
per fect
osp ace
ĠDep ot
Ġguard ian
Ġadequ ately
Ġpreced ing
n ational
ĠC NC
Ġde af
Ġbal ances
Ġmaster piece
oc al
ĠApp lied
incinn ati
m ot
ra red
ĠAt hens
Ġpreval ent
ĠP or
oy al
Ġconstru ed
Not hing
ĠG ym
Ġch asing
Ġx xx
Ġdistract ed
ĠS B
ĠOut side
ĠDa wn
ĠCom ple
Ġrent ed
Ġencrypt ed
Ġs addle
it ic
ter ing
ĠE B
Ġen quiry
Ġeffort lessly
ĠColomb ia
ĠN W
Ġrain bow
ĠF ame
ĠAsh ley
u ces
Ġo bey
ĠE arn
Ġsubsid iaries
urn ed
Ġg ases
Ġspec ulation
ĠArt ists
year s
Ġquarter back
ĠP ric
Ġserv ants
Ġ24 0
Un ited
ĠRom ans
Ġm arsh
ĠEd wards
ĠD uc
ĠCo in
Ġsimilar ities
ĠÃ Ĺ
Ġ ip
we i
Ġinvestig ators
Ġcoord inator
ju ven
ĠCertain ly
ĠSpect rum
ĠW riter
ĠProv ide
Ġsne ak
d ro
ĠE at
ĠK N
ĠJul ia
Ġexch anged
Ġinflamm atory
Ġportra its
Ġper missions
Ġunder going
ĠC AP
Ġ19 65
S ure
Ġup stairs
ink le
Ġpur ity
ĠQu art
Ġqual itative
Ġb ible
ĠP and
qu are
Ġp am
Ġ196 4
Ġhome page
Ġmention ing
Ġdess erts
L o
Ġw itch
ĠD od
ans om
ĠK oh
12 3
Ġb idding
Ġpl ed
ne apolis
ĠQu otes
ĠĠ Ġ
Ġreli ance
op ened
Act ually
g rown
Ġcon gest
ist ries
ĠAssoci ated
Ġinher ited
l ot
us p
de al
ĠLog in
Ġbiom ass
S il
f an
m ons
Ġsho ots
IN T
Ġspa wn
ĠAw esome
ĠW I
ĠD ol
Ġv ape
com pl
Ġk not
Un like
A bs
r h
Ġf ills
ĠK arn
Ġpe aks
ĠLe o
ĠMess age
Ġmedic inal
ĠCompl iance
f ig
Ġmat te
ĠGr ill
Ġamazing ly
rid ges
o il
Ġkn itting
Ġscr atches
ri en
pack ed
k t
b b
ĠL ength
Ġcur tain
Ġpredict able
F OR
Ġbud dies
ĠHit ler
Ġempir ical
con nect
for cing
Ġsqu ares
it ars
ur ved
od ia
ĠHawai ian
Ġ _
ĠR oth
Ġgentle man
T ok
ĠC AR
ir ie
ĠH ilton
Ġparent al
Ġinadequ ate
Ġli abilities
Ġunderstand able
Ġref uses
Ġcannab idiol
Ġdecre asing
erman ent
ĠLeban on
f ile
ĠM ist
ĠCoal ition
Ġg ems
ĠNe ck
ðŁ ĺ
L ine
ĠC odes
Ġk et
Ġcomm itting
Ġreven ge
Ġh ath
per ature
Ġconsult ancy
Ġhur ting
B rit
Ġde let
Ġsh aking
pr us
Ġb ids
ĠS le
ĠRes cue
e or
r ance
F ore
Ġor gas
Ġun biased
Ġthr iller
Ġtow ers
Ġdes erved
Ġacc ents
Ġmechan ic
Ġsick ness
ĠCla ire
Ġirr igation
N ame
ĠB ald
Ġshr ink
im ag
ĠSt ack
ĠMe at
Ġpostpon ed
Ġb a
Ġtheir s
Ġsm oked
Ġcustom izable
ĠV ERY
force ment
F riend
p arent
s ided
par alleled
Ġextra cts
Ġimpl ants
Ġmerg er
S un
Ġthere after
Ġturn over
Ġdivide nd
) !
in arily
od s
Ġ19 00
ĠPl atinum
ĠSy l
Ġtun es
st atic
Ġbar g
ĠIng red
ĠKeep ing
ĠRen ew
ĠSher iff
on omic
Ġcol ony
Ġfrequ encies
Ġinstruction al
red its
ĠBro oks
Ġtraffic king
Ġdecre ases
Ġtur bo
ĠBudd hist
ord ered
ĠUS PS
ĠMet ropolitan
Ġ ^
ĠJ os
ĠSe ed
ĠRe pl
ric ks
Ġfight ers
iph one
ĠM ul
Ġdo d
ĠWh olesale
Ġfix es
ĠNav al
ĠNeb raska
o fficial
Ġthere in
ock s
Ġpast ry
Ġcan s
ĠSe at
f ashion
Ġun aware
ĠB U
cond ition
Ġc ows
ar b
Ġst rives
Ġmill enn
ĠBl ake
Ġpain ter
Ġhost ile
Ġdep icted
Ġenerg ies
Ġref in
l oss
az ole
Ġtest osterone
def ined
Ġretrie ve
Ġlay ered
Ġque ue
S mart
y o
ĠP apers
ĠN GO
ĠGlo be
st own
Ġse ated
Ġcl usters
Ġins pected
Ġcapital ism
ĠRec ogn
ĠCh apel
Ġfriends hips
Ġmor ality
sy stem
ĠMar riage
ĠFrame work
C BC
F ood
Ġa in
ĠW et
Ġtrans cription
10 4
Ġsubst rate
Ph il
ĠTr inity
Ġeduc ator
Ġgrap es
Ġst akes
Ġcan cers
ĠDes ert
Ġconfirm s
ĠNOT E
ro let
ĠP red
ĠF oster
Ġval ves
head ed
Ġviol ated
Ġtwe ets
he e
on oids
le m
Ġrat ios
ĠC isco
stand ard
Ġconsist ed
Ġcontext s
Ġenzy me
ĠC ensus
ĠN HL
ĠG ifts
Ġinte nds
10 6
Ġprep ares
ĠCreat or
ĠF IG
C ap
ĠInf rastructure
ĠKat ie
te ous
Ġpl umber
Ġpop s
ĠWorld wide
Ġd inos
ĠF ishing
ĠAb ove
Ġacceler ation
Ġsemin ars
Ġto kens
ĠC arr
Ġprocess ors
gom ery
qu ick
ĠG reens
W D
Ġb ru
ĠT B
un less
ĠB ug
Any one
Ġtrave lled
ut er
fe ed
Ġsk ies
10 3
Ġsu ites
Ġme g
ĠFin ish
ĠSpecific ally
Ġreluct ant
ĠBob by
Ġs ang
Ġl ion
Ġtri angle
ĠAct ivity
Ġcris py
ĠLike wise
Ġweigh s
t ub
us ually
ĠÂ °
Ġfeed er
200 7
Ġt ide
Ġcook er
re z
Ġpass ages
Ġris en
ha ul
c aster
Ġs erm
Ġatt racts
AN S
Ġrespond s
Pr int
Ġarbit rary
Ġcaut ious
Ġw ired
ne ed
St op
ĠTop ics
ĠScholars hip
ĠF ont
Ġpe ek
Ġco hort
Ġwhere by
ash i
Ġfilm ing
ĠPhill ips
le arning
ĠW ool
ist ani
ĠShe ll
Ġbelie ver
Ġperf ume
ĠC rew
ĠM int
ĠCong ratulations
Ġrefund ed
ĠS V
ĠE lder
Ġemploy ing
unicip ality
ĠH og
ign ant
Ġprepar ations
ab lish
ĠN ormal
Ġinter im
uck land
Ġb ac
ĠT ip
ĠW aste
ĠW arner
Ġde cks
ould er
Ġcle arer
Ġexhib ited
Ġsan it
Ġtrail ers
Ġaccum ulation
: )
J esus
av in
ĠBry an
c ology
Ġl inger
yl an
Ġhon ors
ĠBel le
et c
ĠR ic
cl ub
ograph ics
d eb
ĠW ave
ĠO mega
ĠA chie
Ġle asing
ĠDom ain
S ubscribe
ĠL OT
ched el
Ġsqu ir
Ġfraud ulent
itut ions
ĠGl enn
Ġten ure
à¤ Ĥ
Ġeuro s
B log
ĠD anny
ĠN aturally
ĠE A
ĠSt rength
Loc al
Ġpix els
Ġge ography
ĠSuper ior
ĠN D
reat ment
Ġste aling
ĠAdv ance
Or gan
ĠAh med
ĠJosh ua
Ġfundament als
Ġag ile
ĠRog ers
iod iversity
ĠDev ice
Ġborrow ers
c od
t oo
ĠL ed
az i
Ġimper ial
ĠBE ST
re cted
Ġmet aph
Ġphotograph ic
ob a
c ot
Ġin h
us a
ĠO live
ĠSe ll
Ġcertain ty
ĠSad ly
Ġremod eling
ur st
ab e
Ġpill ows
Tra vel
G H
ĠD ri
ĠH ire
com b
app er
ĠSpe aking
ĠFellow ship
oler ance
M ag
Ġdis reg
ĠPr ide
ĠSw ift
Ġw ig
our ced
ĠSh oes
ĠSS L
s afe
ard i
Ġrel ent
ccess ful
Ġlivest ock
ĠF ew
ĠN M
Ġden ying
ĠRel igion
Ġaer ial
Ġinfring ement
Ġfo x
ĠCat hedral
S ervice
Ġev angel
Ġ30 4
ĠRoman ia
ĠK erala
Ġimport s
Ġdom inate
Ġconc ise
Ġoun ces
B esides
R ad
Ġf ittings
ĠM IT
Ġem ission
ram id
uls ion
Ġe cc
Ġche ss
Ġsn ug
ĠCru ise
ĠC lo
ĠB read
Ġtrou bled
Ġcomb ust
IN K
Ġâ Ļ
ĠRoc he
NOT E
ut t
ĠW ays
O B
Ġche w
ĠâĢ¦ .
Ġhuge ly
Ġlower ing
Ġpron unciation
A I
K K
n ik
Ġn as
ĠT ommy
Ġtum ors
ĠConsult ant
ĠHarr ison
Ġcar rots
ven ile
Ġfil med
ĠBat man
Ġd welling
Ġlif ts
with standing
us c
ĠHol idays
or f
Ġon set
Ġhas ht
Ġsp ike
ĠQu ite
Ġ17 0
ĠHy undai
Ġstitch ing
Ġpresum ably
Ġkilomet ers
art ments
Ġj ars
ach able
Ġprivile ges
Ġpl um
ĠTh ous
Ġinter iors
RE D
Ġbi ography
Ġgall on
6 50
H ar
ick y
Ġtun ing
g ins
ĠC iv
Ġdr astically
ĠD raft
Ġsem icon
ĠNov a
Ġinacc urate
ĠLiqu id
ĠL ily
Ġso fter
Ġover la
ĠCol in
11 5
n om
re a
on ials
Ġun rest
Ġcor on
ĠÂ ±
ĠR alph
ail ability
ĠRe pe
ĠSy nd
Ġconfirm ing
B ra
ĠOr che
AR K
Ġparad igm
Ġus a
Ġsandw iches
Ġc ialis
ĠR ena
Ġch assis
Ġrep ent
Ġeduc ating
Ġregul ator
Ġamb ition
ĠConf ed
qual ified
ĠM aker
ĠR ud
Ġcan on
ec hes
11 1
ra ined
Ġpe as
Ġed ible
Ġobs ession
ĠLaw yer
Ġcop ing
Ġwhat s
Ġexp iration
ĠInt o
Ġborrow ing
ĠAp ost
ĠAmb assador
E s
Ġtrad er
ĠRecre ation
ut ing
Ġmain land
ĠX P
Ch ris
ĠFort une
ĠSK F
Ġfundament ally
L ow
ĠB in
ĠD ash
Ġshow room
udd y
Ġtact ical
Ġnurt ure
Â ¢
il ogy
ĠA j
ens ing
Ġunf old
rus her
f acing
ĠD ro
Ġreal ization
ili ary
Ġz ipper
Ġcat ches
des igned
Ġbreast feeding
Wor ks
Ġappar atus
Ġse als
Ġun paralleled
Ġprote ctions
Ġalle v
Ġfilter ing
Ġdepth s
Ġchef s
ĠE ffective
Ġab ol
Ġbeh old
Ġwe eds
Ġcra ving
Ġâ Ĥ
ĠHy per
Ġcoord inates
ĠR ack
ĠU TC
ĠSpr ay
ĠAnn iversary
ĠÃ ł
ĠCoc onut
p hew
lling ton
Ġele phant
3 65
Ġfold ers
Lear ning
i ability
Ġcontract ed
Ġtransfer ring
Ġdipl oma
S pot
ĠAT M
Ġtherap ists
N AS
ĠG L
omet ry
ĠRo le
ĠDevelop er
ĠUn ique
Ġgas oline
Ġdipl om
ĠKr ish
Ġcommit tees
Ġor ch
ĠN om
ĠRo ller
ĠVi enna
es ar
ĠA gg
Ġinc ub
ĠSt raw
ĠPol ar
ĠRel ief
Ġpal ace
Ġtast ed
Ġentrepreneurs hip
F ire
Ġcur s
Ġop ener
AR N
Al ong
ĠMah ar
Ġdil igence
Ġenzy mes
B o
ri ka
ĠR av
ĠDe aler
Ġpass ions
ĠRock y
ĠGrow ing
A H
ress es
ash tra
ĠTown ship
Child ren
Ġsy nerg
Ġgr illed
Ġeffort less
Ġmold ing
ĠA ware
ĠW ake
oca ust
Ġon site
az er
Ġimpress ions
OL D
Ġmel ting
c all
ĠWh is
uck le
Ġunf amiliar
ab we
Ġform ulation
EN S
Ġcontam ination
Â Ĵ
Ġw olf
ĠR iley
Ġmicro sc
C s
ou ble
Ġst ip
ange red
ĠAut hent
Ġpropos ition
pe x
ĠRe wards
ST R
Ġliqu or
ĠCoord inator
Ġdet ached
su per
Ġfert ility
Ġinconven ience
gr ass
Ġtrans itions
w agen
ĠT ier
Ġjust ification
Ġcur tains
erg us
Ġteasp oon
. }
ĠR PG
Ġshe lls
l ene
ĠH annah
ort ium
ĠNorm an
ĠS IM
ĠW arm
Ġun ified
Ġra cks
Ġtri umph
Ġrhet oric
s er
Ġst a
pp ings
ĠW ag
ĠRe ed
Ġche at
ĠRay mond
ĠRestaur ants
ĠProfession als
D isc
e conomic
ĠN issan
Ġannoun cing
ĠLuc as
he ll
ist ered
Ġbefore hand
g ars
Ġm ornings
ĠIn vent
pr ints
Ġcustom ization
ĠðŁĺ Ģ
quest ion
Ġterr ifying
f ruit
en i
ex c
Ġexempt ion
Ġ um
ĠC one
Ġind emn
Ġsound ing
pro v
d ie
Ġf ixture
Ġoff ence
Ġsort ing
car bon
S ave
ĠF itz
Ġdisc oura
Ġemb ro
Ġwar rior
ĠM ent
Ġpl ots
ĠRe alt
ĠCom par
Ġmar ital
Ġhy pe
Ġâ Ŀ¤
su pp
Ġjud ging
à¤ °
icular ly
Ġpur se
Ġsuccess es
Ġsew er
Ġrab bit
Ġfauc et
v iol
Ġdown side
ĠPro test
ox ide
Ġbreath able
Ġpenet ration
Ġchick ens
ĠT D
pr ice
Ġsim mer
Ġweb cam
Ġjurisd ictions
Ġcomplement ary
aur us
Ġrepair ing
2 40
b ps
en ers
ĠBrand on
b ish
Ġcommer cially
Ġemp loys
Ġsymb olic
Ġaccident al
Ġexplos ive
ĠD ale
Ġcr ashes
Ġs id
Ġst ained
Ġu b
Ġph on
ĠPr ayer
Ġble nder
ol ics
ĠB P
ĠR are
Ġemb ry
Ġpark ed
Ġa unt
Ġbest selling
Ġpremium s
g ative
Ġcons cience
10 9
ĠCreat ing
Ġsincere ly
P rior
x c
Ġf ries
os o
os ion
Ġen semble
Ġrest oring
Ġafore mentioned
c ultural
ĠD iana
ĠF ully
ĠK eto
up on
Ġri ot
ĠParliament ary
Ġbe ard
ĠA cts
ĠC urt
op oly
Ġinf erior
ĠAccount s
Ġparagraph s
f en
ent ric
li ent
Ġbook keeping
inte gr
Ġdesp air
Dig ital
R R
ph is
ĠSh oot
ĠSand y
ĠHun ting
Ġforb idden
clip se
in vest
Ġas phalt
Ġinc ap
ĠSk ip
Ġmanip ulate
ro d
est ation
iz a
Ġbod ily
f ic
ro ads
ies el
ĠCo pper
Ġrecommend ing
r ar
Ġded uction
ĠID X
ĠC ritical
ĠP P
un ing
un al
Ġsynt hes
ĠBern ard
ĠConserv ative
ĠBloom berg
an ol
Ġimm igrant
Ġprot agonist
ĠPower Point
Ġpump ing
OO OO
Ġtoler ate
ĠK os
osp here
Ġpolit ician
Ġaccomplish ments
Ġstub born
Â ¤
on ents
Ġn arc
ĠI E
Ġha ha
Re ally
Ġcompens ate
mm m
ĠWind ow
Ġprofit ability
d raw
ĠLyn n
W C
ĠPl aces
Ġcompet ence
Ġconstruct ive
Ġfertil izer
Ġ icing
Ġin ception
Ġpe ach
ink y
ten ess
an ical
Ġover sized
Ġwork manship
ĠCat alog
Ġnic kel
Ġfurnish ings
U AL
ĠC ind
Ġcomp ares
ĠSe lling
ason ic
ĠÂ ®
Ġment oring
Ġprejud ice
st ed
ĠM end
ĠDo ctors
ĠTer rit
Ġrum ors
ĠMap le
Ġbou quet
S y
Ġso cket
ĠDep ression
Ġpla que
ĠY outube
Ġiss uing
Ġelim inates
Ġaston ishing
Ġd ancers
ĠH ua
Ġsw all
Ġpredomin antly
ĠB ing
pl ug
ĠAd vant
Ġhum our
ero ids
ĠH ear
Ġsaf est
ĠCor ner
ĠExhib ition
an mar
Ġre el
Ġcompr ise
ĠBal ance
ess ential
Ġsp ur
Ġpo pping
Ġinf amous
Ġble w
Ġcareg ivers
ĠF X
ĠBe en
re x
il ib
ĠB ent
Ġv oy
Ġcont amin
Ġend uring
ĠAss ignment
Ph ot
Ġrain fall
Ġpossess es
AY S
Ġneglect ed
oth ic
ĠInc luding
ĠIndepend ence
k ok
ĠM IN
if ty
th ank
ĠHigh land
Ġstim ulating
Ġc ider
av ia
Ġcour teous
Ġflav onoids
Ġcongreg ation
se nd
ĠB order
Ġunder water
Ġhour ly
imb abwe
Al ways
ĠMu hammad
ian e
Ġeconom ically
Ġthr ust
Ġhomeown er
h og
ĠV P
iss ue
Ġperform er
Ġdeep est
Ġcateg or
Ġsolid arity
ĠEns ure
M AN
Ġpl edge
ĠMin neapolis
ĠClass es
P erson
j et
ĠW R
h ad
ĠEx port
ĠFl ag
Ġnut rit
in qu
ĠT T
ĠW riters
ĠBr ussels
Ġquot ation
Ġhel m
Ġbook marks
Ġbro th
ĠGu itar
ĠAdv ice
bet ween
p ieces
Ġc iting
Ġ10 6
ĠLab s
pur pose
Ġl ord
ĠM unicipal
Ġra iny
E asy
c up
c ross
Ġ20 23
Ġdet er
Ġwater ing
Ġcontro llers
ĠNo kia
appro ved
ĠBasket ball
ĠSte vens
Ġentertain ed
Ġoun ce
ĠS id
Ġme ats
ĠReport ing
ĠP om
ĠL is
Ġcomm ute
ĠBer ry
ĠB rief
Ġtop ical
Ġdiff ers
ĠSex ual
ĠVin cent
Ġad orn
Ġsym pathy
Ġnav y
Ġanticip ation
ĠRat ings
C am
ĠK ap
Ġplay back
Ġstaff ing
Ġrad ius
dom inal
ĠGi ants
M al
Ġsu pers
fe ld
Ġ9 11
Ġperiod ic
Ġphil anthrop
ĠLy rics
Ġevolution ary
Ġex h
ard on
ac a
Ġaest hetics
A g
Q ue
ad vert
ĠG rab
Ġper se
Ġco arse
Ġdes cent
ĠHar vey
rehens ive
Ġwra ps
Ġunpredict able
d aughter
ĠSky pe
Ġsung lasses
Ġth umbs
ĠMir ror
he rently
ld om
Ġr inse
Pl ace
Ġmos qu
c iliation
Ġin justice
ĠRes olution
ĠAlex a
Ġped al
Ġfool ish
V er
Ġst ellar
Ġex ert
lo x
ors che
min ster
Ġfore x
ĠP it
Ġout right
ĠAnn ie
ï¬ ģ
ĠRebe cca
Ġdi ary
Ġdoor step
ĠMach ines
S to
ĠC incinnati
ĠLaw s
b ai
p ub
ĠS ister
Ġso ils
int ers
v or
Ġc ured
mon ary
Ġge ared
NN NN
Ġrepay ment
ð Ŀ
ops is
Ġsqu ash
ancell or
ĠM oss
ack ed
Ġred emption
ĠEm peror
Ġo mn
ct ory
Ġblo oms
Ġvacc inated
all i
Ġbl iss
Ġstart ers
ĠFund s
b irth
ĠKar l
ĠImport ant
Ġscrut iny
Ġep ub
Ġesc aped
Ġhas h
Ġres iding
ela ide
w ait
Ġthr one
N F
S al
Ġcont ests
Ġrec alled
cent ric
ĠAdminist rator
Ġjun gle
Ġthy roid
ĠHop kins
i ating
ĠB end
ĠTh inking
ĠSche me
Ġle tt
Ġpo pped
Ġ12 00
Ġsuper natural
ĠMid west
ĠP att
Ġn oun
ĠS G
Ġtra ject
Con nect
Ġmyth s
Ty pe
Ġpro jection
ball s
Ġfire arms
ĠJe ep
Ġro oft
ĠHe ath
Ġstandard ized
Bu ild
ut ion
ĠC raw
ric hed
bl ue
Ġ !!
Ġhun ter
Ġ10 2
Ġcontract ing
ipp ers
ĠMont gomery
Ġcompe lled
Ġo x
Ġmult if
ĠAv iation
S ch
Ġgener osity
Ġcomfort ing
Ġcooper ate
Ġelectron ically
n an
Ġh alls
ĠI gn
apt op
Ġl anes
ĠN u
and em
Ġdesign ation
Ġdisc ern
Ġwrest ling
ĠSacram ento
Ġdisc overs
Ġsound track
Ġsett ling
Ġcompar ative
IG H
Ġremark ably
p rop
ĠH ands
Ġam use
Ġdream ing
Ġvalid ated
ĠSub st
Ġspokes person
Ġ2 30
ĠCom pos
ĠI CT
cy cles
ĠPack ers
Ġnegot iation
Ġhyper t
oc ide
ĠAd mission
ĠFore x
Ġju ices
Ġcree py
R ober
p ark
w en
ĠEmploy ees
Ġembra ced
Ġne phew
ine a
Ġmanufact ures
Ġsour cing
Ġem bell
ĠCO NT
h l
ĠB IG
ĠG U
Ġsk illet
Ġn aming
Ġgener ators
Ġdest iny
ĠPar ish
Ġmanual s
loc al
Ġr ushing
Ġapp ell
Ġtw ins
Ġpant ry
ĠDraw ing
ĠLad ies
M ENT
en o
un ky
ĠF ear
ĠSp encer
ĠSw an
Ġmis use
B LE
c d
Ġdi arr
Ġfast ing
ĠLead ers
Ġfinger print
E nt
ĠH ang
Ġsatur ated
r il
Ġc udd
ĠJohn s
ĠAnge ls
ĠPen insula
Ġwra pping
r ina
al ers
Ġover time
Ġpurch aser
ĠComm ander
rap ist
ĠPalestin ians
g ard
ĠPast or
ĠFam ilies
ĠFlore nce
Ġvalid ate
Ġbr icks
Ġ12 3
Ġantib ody
Sim ply
âĢĶâĢĶ âĢĶâĢĶ
Ġwrink les
M ike
h s
an ic
ĠCy prus
Ñ ĭ
ant o
ks wagen
Ġlith ium
Ġab ide
Ġk eto
ĠQ ur
Ġentire ty
gu ards
ĠSam ple
Ġstre ak
Expl ore
g ue
ĠV inyl
10 2
Ġburn er
Ġpour ing
Ġc ops
Ġmin isters
ĠBer keley
Ab stract
Ġcyber security
Ġd azz
ĠR ated
Ġr ugs
Ġinf used
uss ia
ĠEx pect
ĠNews letter
Ġbarrel s
k ill
ĠP ER
âĺ ħ
ĠL ob
Ġen forced
RE S
Ġcert ifications
ĠTrans it
Ġgreet ing
Ġemerg ence
Christ ian
- $
C I
ĠG IF
Ġsk ins
Ġfavour ites
Ġacceler ated
ĠM U
Ġch ili
unt u
Ġbutter fly
Ġconsequ ently
Ġbuff et
ĠE agles
Ġro de
erg ent
Ġair plane
Ġred d
Ġveget ation
ĠHung arian
accept able
ĠAmeric as
Ġbur ger
Ġt etra
Ġw ander
ĠCh anges
pro fits
cul iar
ĠNet works
Ġseek ers
grad ation
ver ter
ĠN as
ĠPro tocol
Ġdem ons
ĠBrand s
ot on
ĠH ait
Ġpl astics
form s
ĠRe hab
ĠAm en
ĠOff ering
Ġrout ing
ĠNich olas
Ġp enn
ĠT ours
Ġwh ichever
ĠJ ur
ci ble
Ġbask ets
Ġattach ments
Ġkern el
ĠD riving
ĠLe eds
Ġdraw ers
Ġsand y
Ġbur nt
Ġdatas et
Ġper ceptions
ĠLic ensed
Ġirrit ation
ĠLith uan
l b
Ġsu cked
ĠUn ity
Ġri pped
Ġpin ch
als a
igs list
Ġmater nal
Ġexpend iture
le an
ĠI g
ĠA uckland
Ġret ros
ĠBr ady
Ġswe pt
Ġsweet ness
Ġphenomen al
ĠLiber al
Ġcapac ities
Ġm igrants
Ġyour selves
ĠMin imum
ĠiP od
ĠWonder ful
. ;
br al
Ġelect oral
uff ed
Un iversity
Ġboost ing
ĠM orm
Ġv ault
Ġwheel chair
ĠFle et
Ġcav ity
Ġl as
ĠSe lection
Ġsk ate
ĠPart ies
Ġter ribly
Ġartif acts
Ġcon ve
ĠAs set
Ġsat isfactory
ns ic
Ġatmosp heric
Ġfr aming
With in
Ã© mon
ĠPat ient
cont rolled
Ġdeg ener
le en
Ġre ef
id i
ĠSt ruct
Ġmag nes
ĠArch ived
Ġsu nd
ĠL ip
Ġper ks
col ored
ĠNic ole
Ġhorn y
ĠIsa ac
Ġg oo
ĠT ibet
Ġmer ge
Ġru ins
V ol
Ġp ores
Ġpro se
ĠF ixed
Ġexplo itation
Ġrepet itive
Ġhigh s
Ġhand crafted
Ġinter change
p oon
Ġillust rates
Ġm ates
ist ine
Ġlater al
ance l
Ġble nding
Ġpictures que
Ġalcohol ic
Im age
Ġstamp ed
Ġch alk
Ġcur se
IC S
ij i
Ġ< /
ĠAbs olutely
Ġhier archy
Ġst itches
Ġcl iff
Ġpr ince
Ġ12 8
uk a
bs ite
ĠTy pes
ert on
Ġsympt om
Ġm u
ĠJ ump
Ġbed ding
OS E
ĠIns pect
J ob
n as
Ġl act
ĠN it
Ġtra umatic
Ġchar coal
Ġcontract ual
urg y
Ġemp owered
Ġgro ove
avil ion
m obile
ig nt
Ġexam inations
Ġ1 12
Ġinsp ires
ĠCB C
Ġadvis able
ĠRequire ments
port ion
Ġcopy ing
idel ity
F il
v ie
st ars
Ġas ylum
ĠN V
Ġch unk
Ġslic ed
Ġd ar
pp le
Ġk ings
Ġsy mm
Ġmas cul
E ast
Ġl av
ĠC emetery
Ġch in
Ġcomp ressed
pos ium
Ġvan ity
Ġsoci etal
h p
Ġg ourmet
um ed
ĠJ S
Ġsuper hero
Ġslow ing
P DF
ĠP oor
Ġunder wear
Ġexp ire
ĠCO MP
d ist
Ġri pe
Ġcounsel or
ĠWy oming
ĠMerc ury
Ġst ole
ĠB ach
xt on
Ġtre nding
ĠMod els
art a
Ġch ord
Ġneed les
Ġelim ination
Ġcos metics
Ġj og
Ġopp ose
Ġantib odies
Ġbol ts
s un
ĠV ir
Ġ40 1
R N
ĠD ial
Ġunc overed
gg le
ĠConst ant
Ġpra ised
Ġscholar ly
P rote
Â ±
ĠA BS
ĠCon sequently
Ġresid ual
Eng ine
b ons
Ġun con
ĠK end
Ġpe culiar
cur rent
ĠAl bum
Ġref using
Ġster ling
l as
l iter
Ġre bell
T B
ĠR EC
Ġab bre
Ġsw orn
ai k
ĠCrus hers
O wn
Ġsub urbs
Ġdev otion
atic an
Ġcub ic
NE W
ĠProp het
Ġre usable
ĠG iant
Ġch oir
ack ing
Ġsusp icion
Ġsp ill
Ġdirect ive
Ġhistor ian
ĠJew elry
ĠT i
ol ation
Ġreg ression
Ġcar cin
Ġmod s
arm ed
ĠPe pper
ĠGe nder
Ġj elly
ĠApp reci
Ġentrepreneur ial
Ġ }
ĠM ans
ĠM asks
ĠD H
ĠF ees
oul try
ĠSur face
ĠPur pose
o i
Ġus able
ire ctions
ĠSt rip
ĠSc and
ĠUS DA
Ġbox ing
ce nded
fe e
ĠSug gest
Ġshowc asing
ĠNort heast
Ġgood ies
col lect
Ġl an
10 8
att ers
ĠMar tha
ĠDi agn
b ike
Ġlit eral
ĠBudd ha
Ġawa iting
a q
ĠD ock
Ġdream ed
Ġliquid ity
ĠBal i
Ġtroubleshoot ing
Ġsc ans
Ġcost ing
ĠGe or
t ake
Ġp ushes
Ġse ized
Ġra ils
ĠCont roller
Ġacad emy
ĠHyd ro
Â ¡
ces e
Ġinde fin
Ġmattress es
ĠInter active
Ġgest ure
Ġh atch
ĠD ining
spe cial
Ġcarbohyd rates
ĠR ah
Ġ19 45
Ġsub section
c ir
Ġh rs
ĠP f
Ġcommun icated
ĠLe ading
ĠNo vel
Ġmix es
Ġwar fare
Ġcompens ated
ĠS lim
if lower
ĠF loyd
um erous
ĠO M
be fore
bour g
ĠCh rom
Ġcr an
Ġcoll agen
Ġskept ical
Ġover s
Ġmind ed
ĠBudd h
Ġpadd le
div ision
u ber
te enth
Ġar ter
Ġx x
Ġperipher al
g re
Ġha cking
ĠSt amp
Ġste er
Ġprefer ably
R est
c f
Ġm asc
ĠV ic
Ġrel ay
Ġamb ient
ĠRecomm ended
Ġh urd
ĠJ enny
ĠMar ina
ĠR ide
Ġpet rol
Ġdepos ited
Ġer ad
ol ith
ĠJ ill
ĠSp ider
ĠPhil osophy
ĠKash mir
Ġc ath
Ġy rs
ĠN ames
ĠCl othing
ĠBlo gger
Ġm p
Ġgo at
Ġsupp orter
Ġgra cious
ls en
Ġglad ly
Ġcommand er
S B
Ġhe ir
Ġthreat en
ĠSpot ify
O ld
R ay
uff le
z hou
ĠNo ah
Ġtext ured
ĠEar l
Ġnumer ical
Ġp igs
ot ions
Ġcr ashed
ĠDef ence
ĠS ons
ĠWh ilst
Ġdi agrams
Ġneighb oring
Ġstraw berry
C e
Ġl ent
Ġorganiz ers
Ġrefuge e
ĠImprove ment
Ġitiner ary
H on
ĠC ort
est ones
Ġlong time
ĠAd m
Ġgl owing
Ġprom in
ĠSqu ad
ĠAltern ative
D ate
Ġn aughty
Ġdown ward
Ġtre asures
ĠPer u
fl ows
Ġshoot er
ĠSil icon
Ġprop het
Ġexpans ive
Ġw ed
ĠSo ccer
ex per
Ġmarvel ous
F amily
Ġto pping
ĠBroad cast
ĠNAT O
ĠChev rolet
st ring
Ġ1 11
os i
ĠCom fort
Ġmar riages
Ġbra ckets
Ġindu ce
ĠPers ian
Ġfoll ower
Ġor bit
ĠCh in
Ġsovere ign
C onst
ĠS Y
Ġpat rons
Ġemerg encies
Ġimpair ment
Ġmagnes ium
! |
ro ke
hol m
Ġdemonst rations
Ġup front
ĠBe e
Ġsmo other
Ġbag gage
Ġdisin fect
ĠP our
sh are
Ġgrant ing
Ġunbelie vable
Ġbro ccoli
arr ants
ĠArt ificial
Ġt ed
ĠS ut
ĠS ah
ĠFac ility
Ġstere o
Ġwh ipped
Ġsur plus
ote chnology
Ġalt itude
Ġform ulas
Ġeval uations
ĠProte ct
ĠJo el
Y ear
ĠL D
ĠDe ck
Ġcarp ets
ir teen
Ġcard io
ĠThank fully
R Y
Ð ´
Ġp unk
Ġre juven
ĠH ouses
Ġca ption
c ritical
ass ium
Ġcoll ateral
Ġru ined
ĠPharm acy
s ki
Ġdis m
ĠHol ly
Ġment ality
Ġspons orship
L ess
Ġas hamed
ob ia
ĠAs ide
Wh atever
G P
Y esterday
g oogle
Ġs add
Ġre n
ĠN ine
Ġfull est
ĠHy derabad
Pre vious
ĠSlo vak
se lect
Ġred ist
ĠEv il
Ġbond ing
5 50
Ġg aze
Ġ10 4
Ġones elf
ĠNE VER
Ġdivor ced
Ġnegoti ating
Ġdis gu
Ġn inet
ĠD ame
Ġup wards
Ġev apor
ĠNew castle
Ġpat rol
Ġframe works
........ ........
Ġb ait
ant ing
ne e
Ġlate x
Ġincorrect ly
Ġret ains
Ġcultiv ation
Ġfacilit ating
c ool
Ġf aint
ĠM RI
Ġwh istle
Ġse greg
Ġpl ur
Ġsus pects
Ġsanct uary
es an
ĠF T
ĠR ut
Ġcra b
Ġscript ure
ĠAff ordable
E ver
G T
ĠBe come
ec d
ĠCont ain
ÂĢÂ Ķ
whe ther
m un
ĠW aters
Ġpair ing
Ġreconst ruction
ĠK in
ĠEm irates
Ġembarrass ed
ces ter
Ġ11 5
Ġnutrit ious
and el
Ġdr ift
Ġcir cuits
roll s
ĠFun ny
Ġchrist mas
ĠHar per
Ġhous ed
Ġsuff ers
Ġ196 3
Ear lier
Ġm oss
ĠFor ward
Ġconvers ions
Ġadvent urous
ĠRh ode
ĠW oo
Ġtrans gender
ĠCl are
-- -
? .
and ing
ĠDe er
Ġportray ed
ĠFo am
Ġpsy chedel
c annab
ĠB ub
ĠRe quired
Ġiss u
Ġcontin ental
ĠWebs ites
ĠE ight
Ġcomp ile
Ġobs cure
Ġsimpl ified
a us
Ġl avender
Ġhard core
Ġclimb ed
Ġborrow ed
Ġm uc
us ers
ĠCo hen
Ġsent enced
Ġblank ets
Ġheaven ly
Ġdump ster
ĠR ear
ĠL ions
Ġph y
Ġtext book
Ġwind ing
Ġcraw l
J un
ĠSm ooth
Ġstri pped
Ġbur d
ĠRap id
Mat thew
Wonder ful
ĠD aw
Ġdis like
ĠZ ip
reet ings
Ġdeliber ate
ĠF HA
ĠBl air
ĠGod s
ĠCap acity
ĠChrist ine
ĠGr am
ĠAdd ing
Ġmicro s
best os
rict ed
Ġin quire
Ġl ur
ĠP ermanent
ĠB att
urn s
Ġtem ples
Ġfore see
ĠFriend ly
ĠRod rig
a S
ĠD j
ĠF ans
Ġ10 7
ĠCustom s
s ince
Ġf oul
Ġle agues
ĠAn ch
ĠNorm ally
ĠML B
Ġcom eb
Ġyouth ful
ĠEp ic
f un
ĠJ in
Ġpar a
mail s
ĠEv olution
Ġjew el
Ġspecial s
ĠLog istics
if eration
ĠG az
ag us
Ġag gra
ĠMarket place
Ġdiscover ies
ĠHold ings
Ġsli pped
Ġantioxid ants
c riber
s ch
Ġf aux
ac et
ĠV a
Ġadv ising
Ġbra ces
Ġneighb ours
ĠNT N
ĠIs n
As k
Ġvol atility
put ed
off ice
Ġoblig ed
Ġintr ins
Ġmiser able
ens on
Ġro ok
ĠRe uters
Ġbi ased
Ġfart her
Ġh alt
Ġsal ads
sh it
Ġquestion naire
Ġcab bage
Ġacquis itions
M ad
ĠN athan
Ġdet ention
ĠBe lla
Ġtransl ates
Ġmini ature
Ġtweet ed
Ġwag ering
1 12
ĠBo ot
ĠLeg acy
intend ent
m und
ĠH M
Ġconc ludes
Ġult ras
oll o
ĠLog o
ĠAlf red
im o
Ġserv iced
ĠLog an
Ġreferr als
1 19
Ġt its
id ation
Ġ20 25
Ġpar an
ĠGu jar
ĠL il
Ġenact ed
ĠM ong
ri ans
ĠBut ler
Ġcor al
Ġvers a
Ġen large
ĠPresident ial
ĠRet irement
ĠVe gan
ĠREAL TOR
Ġdecl ining
Ġshowc ases
m etic
Ġher d
he et
br ush
Ġterm inated
ĠRes ult
Ġund es
Ġpor celain
V M
ĠA ber
ĠOp ening
ids on
Ġchem otherapy
M aking
Ġw ifi
ab el
Ġad hes
Ġheat ers
Ġsecret ly
ĠJer seys
Ġstro kes
Ġre els
Ġe ats
Ġwh ol
1 21
Ġen velop
Ġli b
ung al
ĠDur ham
ĠGene va
bed room
Ġbelong ings
Ġflaw less
Ġvolunte ering
Can ada
Ġresid ue
ĠRedd it
Ġallev iate
p ent
Ġpre aching
orn s
blo gs
ĠSud an
P rom
Ġme ga
C ON
Ĺ ı
ĠP ale
Ġcon ceived
Ġop io
Ġsl opes
ĠDr ink
Ġpers ist
Ġprinci p
ĠCh ap
ĠMan ila
mod ern
Ġf encing
ĠMon itor
ari us
Ġdipl omatic
Ġpr ic
ing es
al ong
Ġafter math
ĠJes se
ting ham
Ġcomple teness
ĠÂ ½
ĠChe ster
Ġcart ridges
Ġs way
pe ction
Ġsp ider
Ġobs ess
ĠBen ch
I K
Ġwh ip
Ġexp ands
Ġgen etics
Is rael
Ġ196 6
Ġany ways
Ġbl adder
Ġcre ams
Ġsett lements
Ġen v
10 7
Ġproport ions
Ġe Book
ther net
ag ging
ĠBe ef
Ġfing ert
ĠE y
ĠSt re
Ġoccup ational
ocy tes
Ġderiv ative
K ing
Ġt ents
it ant
ĠSe b
Ġexp osing
AN CE
Ġvill ain
ĠDisc ussion
Ġgrocer ies
Ġscar f
Ġendeav our
ĠDis claimer
ĠM AC
au er
Ġpil gr
ĠProm otion
ĠBed room
ĠParticip ants
fund ed
ĠF ergus
ĠUn its
ĠWall ace
Ġrecept ors
Ġadd icted
Ġes p
sec ure
ĠStephan ie
G L
ug u
Ġbre wing
rew s
Sh ort
Ġpsych iat
Ġflaw ed
Ġembarrass ing
ĠC op
ul ators
Ġinter course
Ġoutput s
ĠHur ricane
ro st
ĠK umar
ĠBe an
ĠAd elaide
ĠSee ing
ĠL ac
ric ular
ley ball
ĠPlay Station
Ġy o
Ġfl ats
ĠBl ind
Ġcamp uses
ĠGr ass
Ġd ug
ĠâĢ ŀ
ĠDr um
ĠAtl as
Ġblind s
ilib rium
F W
N ov
ĠSer ge
Ġt ad
ĠC row
ru ce
ĠTri ple
Ġaddict ive
ĠChar ity
ĠÐ Ĵ
w ave
B ank
s ky
Ġo t
O p
Ġro ds
Ġpop ulated
Ġmot ives
Ġgen ome
itiz er
ĠIntegr ation
ĠIndones ian
Ġtaxpay er
ur ry
Ġspirit uality
App le
be h
Ġpestic ides
Ġgu itars
Ġow ed
Ġgi ants
Th us
ĠT ah
ors et
Ġsuccess or
ĠRe ality
St ore
2 20
ĠR over
mark ed
produ cts
Ġpal ate
ĠAdvis ors
Ġro omm
ĠDis ability
ĠNow adays
Ġunc ond
E duc
re port
Ġan ecd
Ġfe ared
Ġimp aired
Ġcount ers
Ġobst acle
r ans
ĠM K
est ablished
Ġav ocado
Ġpres idency
Ġaut onomy
cent ered
Ġse aling
ie ves
ĠK its
ener gy
play ing
Ġdent istry
c ig
ĠE ug
own ers
Ġmo vers
Ġrot ate
ĠOffic ers
Ġrehe ars
Ġ10 8
17 5
Pol ice
g old
he res
P op
ĠB ars
Ġover lap
Ġid iot
Sim ilar
Ġscar ce
* .
o qu
od ka
Ġsynt ax
Ġembra cing
t ax
Ġh ay
Ġund erest
ĠSong s
Ġvolunt arily
ĠIngred ients
ĠOrche stra
T ur
ĠA IDS
est eem
Ġafter ward
Ġbas il
Ġquil ting
> </
is ans
Ġover weight
ĠMun ich
Ġrelie ved
F ast
g us
Ġh ust
ĠP orsche
ty ard
Ġsol vent
P acific
ĠC edar
Ġal ly
ile ts
Ġmust ard
hydro xy
om ers
Ġall ot
Ġce real
Ġcaps ule
ĠInstru ctions
Ġp als
Ġk er
Ġlay outs
" ?
Ġmy st
Ġsub urban
ĠProgram ming
ĠSk etch
Ġdete ctor
ĠMem phis
Ġgreet ed
m and
Ġst riving
ĠD W
ĠMel issa
ĠOrig inally
ĠAp ache
Ġacknowled ges
Ð Ĵ
Ġ ib
ic ol
IG N
Des igned
ĠFinn ish
Ġsh ook
Ġclass y
ĠDist ribution
Ġdeduct ible
H am
Ġt ensions
ch t
ĠVol kswagen
rag ue
Ġfrost ing
stan bul
zz i
ĠConne ction
priv ate
ĠFilip ino
Ġquir ky
ĠAware ness
ĠN umbers
Ġun real
ĠEd it
ĠUp dates
Ġexecut ing
Ġciv ic
Vis it
. âĢľ
T aking
ĠN F
act ivity
Ġref usal
Ġterm inology
Ġmult imedia
US E
ĠCand y
ĠD ES
ĠH C
Ġcal ming
ĠBarn es
U pon
ĠM ond
Ġcan ned
um i
ĠRe qu
ustom ed
ĠChampions hips
Ġuphol stery
ul ance
ĠSt ores
Ġadapt ive
Ġcomplim ents
M ary
Ġ iphone
be e
y mm
pl ain
ĠV acc
S ite
ĠA ven
ĠF ry
urch ase
St one
Ġrot ary
k an
fe ren
Ġscan ner
M ill
Ġconfront ed
s ong
w iki
Ð¸ Ð
ĠSus sex
ĠAnim als
Ġb akery
st r
Ġman ga
Ġref lections
Per fect
Ġgeomet ric
opath ic
B ER
Ġan a
Ġde ed
ĠMy anmar
f elt
h im
Ġc ros
Ġbu ys
Ġcra cking
Ġdigest ion
ĠIndividual s
Ġimmers ive
ignt y
f ollow
ĠI RA
Ġr ash
Ġrem inding
mb ol
Ġton nes
J oe
Ġwe aker
ĠSe al
oura ble
li qu
ĠBo eing
Ġshut down
Ġo sc
ĠI K
op edia
lect ic
Ġbo ast
Ġter ra
Ġorganiz er
ĠList ed
quis ition
Ġsens ual
ĠSlo ven
Ġritual s
W ay
Ġcon ventions
ĠD D
Ġpe pt
Ġlegisl ature
X L
g t
Th ird
Ġstock ed
ĠHam mer
Ġpurs ued
ĠCroat ia
Ù Ħ
Ġ Ø
ĠT as
Ġdo c
own er
Ġlaw ful
po ons
Ġrul er
Ġexcus es
Ġo at
Ġin herently
Ġbe nding
put er
Ġdete ctive
Ġjack pot
" ),
C oll
U CT
l bs
Ġg amb
ĠC ay
th reat
and ra
Ġprob able
Ġhyp oc
ĠdÃ© cor
O pt
at aka
Ġvol atile
Ġsum s
Ġuns afe
Ġpul p
Ġhub by
Ġc uc
ĠEx po
ĠA way
ĠY ale
Further more
Ġse ams
ĠThe m
ĠR ural
ich rom
Ġsp onge
Ġbl amed
Ġmod elling
Ġfil t
Ġpet roleum
ud os
ĠHol mes
ĠB ags
cl osures
ĠCons idering
Ġfabric ation
ĠT P
Ġon board
ost ics
ric ia
ĠAr med
ĠCommun ities
ĠAnn ounce
Ñģ Ðº
id is
ĠUn cle
gin a
ograph s
Ġtox icity
Ġmyster ies
Ġdigit ally
Ġkilomet res
Ġincons istent
B ill
cc o
occ up
p i
á »
â ĨĴ
Ġre opening
Ġper mitting
pr iced
Ġcook book
ĠBul let
Ġprovin ces
ĠHug hes
ĠVenezuel a
u y
Ġch unks
gr aded
Ġgra ft
edd y
ĠAss ist
Ġfer mented
Ġattent ive
ĠG aza
ci le
Ġdifferent iate
ĠGu ess
ĠIndian apolis
Ġcow ork
Ġadoles cents
Ġd rones
ĠEqu al
il ight
Ġlist ener
Ġtax ation
Ġvac ant
Ġrevers ed
ch lor
ĠMar cus
ĠS erve
Ġres ent
ident ified
Ġdepend ence
= >
c ence
Î ²
Ġcon qu
Ġconnect ors
ĠRena issance
Ġa ired
W ood
us k
Ġcon quer
c as
Ġo wing
Ġorgan ism
Ġviol in
Ġadvantage ous
Ġsouth west
Am azon
Ġcorre ctions
is en
ĠP osition
Ġmus cular
Ġinn ings
Ġal iens
ĠFor bes
Ġpat ents
Up date
ĠL ite
um ers
ĠStu art
T est
ro ot
ll ah
ĠE ld
chie f
EN TS
ĠP est
ĠD EL
op sy
ĠMe g
ĠMost ly
Ġsoci o
ĠMine craft
Ġgloss y
olph ins
Ġpath ology
ĠAnge la
Ġnarr atives
Im agine
ĠD rew
ĠG iving
Ġsc ler
ĠSte in
ĠEr n
ih ad
ĠBa iley
ĠDynam ic
m ass
Ġe g
ĠIn k
Ġminor ities
F ounded
O G
â ĸ
en c
ĠP ly
out ed
Ġcritic ized
ĠCost co
Ġcr ank
Ġver dict
Cons ider
ĠIncre ase
ĠDesk top
Ġs perm
Ġ20 30
Ġso ber
Ġlearn er
Ġmaneu ver
Ġd ice
ĠS ally
ĠP U
Ġ( @
ĠMc L
Ġub iqu
an ity
ĠP une
ĠSte ps
Col or
Ġreg imen
Ġplug s
Or der
Ġaggress ion
Ġwhit ening
F X
P eter
ĠS AT
ch urch
ĠTour nament
ĠPrint ing
ĠDar win
ĠD iversity
Ġschool ing
Ġfair ness
Ġver bs
Ġguitar ist
Ġresur rection
Ġsquir rel
Ġ- >
ĠSc an
Ġbre aches
200 6
Ġmort ar
ĠInsp ired
en os
ĠD il
Ġmean while
Pr ice
es ame
Ġout ward
US D
Ġliqu ids
Ġtempt ing
Ġquestion able
Ġstri pes
ĠDi abetes
Ġdefend ants
Ġindul ge
E nd
Ġa il
Ġh over
ĠLove ly
, -
g rand
ĠInd oor
Ġaspir ations
Categ ories
i ences
Ġvis ions
Ġmarket ed
Ġgl or
Ġintegr ates
step s
ĠBrad ley
CB G
Ġterpen es
Ġs inks
Ġflower ing
Fr ank
Ġoccup y
ou st
ĠP ET
Ġab dominal
ord e
ik er
Ġpedest rian
H I
t rue
lo om
ĠJu ice
ĠFant astic
Ġdisc s
ĠBro s
ĠCra ck
ĠS ME
Ġrail road
Ġreminis cent
F it
M iss
Ġle aning
Ġteam mates
ĠKe ys
ĠSund ays
ĠJul ian
C at
l ass
Ġpro jections
ĠF ut
ĠH ip
ĠCom es
Ġaccount ed
ĠView s
Ġequip ments
Ġsilhou ette
in formed
Ġd ancer
ĠB ri
ĠO B
Ġcut ter
Ġmiss ile
rag on
ĠSym phony
Ġhe aled
ĠP ig
Ġdisc rete
cell ular
Un less
Ġwithd rawn
Ġtur f
omin ium
Ġther most
Ġcryptocur rencies
Ġ ì
af ety
Ã ´
Ġ( .
ĠL loyd
Ġaffili ation
iger ol
Ġdile mma
ĠF usion
ĠCol ors
ĠIm ple
Ġri bs
ĠHT TP
ĠDipl oma
Ġa ided
st ated
un ts
Ġle v
Ġcar riage
Ġequ als
che ap
ĠAut umn
Ġspan ning
ĠJ up
pl aced
ĠCh ad
Ġdra ins
Ġfre ak
Ġwood working
ĠSt ress
Ġ196 2
Ġdivide nds
ĠPok Ã©mon
ĠS ie
ĠP ione
Ġen chant
Ġyoung sters
eth yl
urg a
Ġflav ones
Ġpartner ing
Ġdisp ers
Ġimpe cc
ĠESP N
udden ly
O rd
Ġd umps
ĠBl ade
You ng
ĠTw enty
200 5
Ġnom inee
ellect ual
ĠEmb assy
prof essional
Ã ¸
it ures
ate red
Ġspe eches
Ġcoord inating
d et
id as
Ġher s
Ġlabor atories
Ġun even
ĠCont est
lin er
Ġpredict ive
Ġhob bies
Ġecosystem s
f inder
Ġannoy ed
ĠHispan ic
t imes
ĠV atican
ĠRe ason
Ġsign age
Ġinstall er
de v
ichrom ene
ĠM ouse
Ġpl ush
ĠHe ating
Ġfl ashing
Ġhist ories
Ġsuper v
ĠPak istani
Ġtoss ed
ĠLeon ard
l ia
ĠE ston
Ġsubs criptions
Ġgear s
Ġgall ons
ĠEdd ie
Ġm alf
Ġfav ored
Ġunch anged
m ble
ĠB ark
ĠG ig
Ġinv oices
Ġwater front
Ġcannab igerol
Ġvisual ization
ĠC ause
ĠE ating
Ġrepl icate
ĠBr ush
Ġadm its
law s
ĠOwn ers
Ġneat ly
ĠUg anda
t aking
Ġb ount
aut h
Ġdist raction
ĠDay ton
Ġunw illing
ĠUnivers ities
p ots
ar ate
ens er
Ġind ian
ĠEn forcement
Ġcannab ichromene
ĠForm s
Ġjoy ful
Sp ace
Ġsu prem
ĠN atal
ĠK ang
let al
le vard
ot le
ĠA AA
Ġqu o
Ġvisual s
" ;
B rand
D oc
Ġlo af
Ġview point
ĠParad ise
Ġf uss
ĠT ak
Ġha w
ue z
het ically
Ġpsych iatric
B en
Ġtra ctor
ĠCl erk
not ch
gu ided
IT ED
ĠShop ify
Ġphotograp hed
ĠDev on
L ED
Ġre use
ĠD ani
Ġcl an
uck ing
Ġsubs criber
M el
ĠT ang
ĠG S
ĠRe vel
ĠCom ics
Ġfil tered
Com b
osa ic
Ġor phan
ĠG ST
Ġbroadcast ing
Ġpriorit ize
Ġcontam inated
n umber
Ġdeterm in
ĠPlay ing
Ġcrew s
ĠClar ke
ĠMahar ashtra
Ġn ipp
ĠFarm ers
Ġlegit im
Ġstack ed
ĠBear ings
Ġbal let
ĠVen us
ĠDoc uments
ĠBoo st
i ya
Ġthe aters
ĠP V
Ġde ple
Ġde eds
ĠBe ast
Ġcomprehens ion
ĠStand ing
Ġbr idal
cle an
Ġmot ions
Ġassist ants
w riters
Ġam using
Ġcalcul ating
ĠEll en
Ġrescu ed
en es
ĠP salm
Ġrec alls
Ġposs essions
ĠLe cture
esthes ia
Ġ Ï
al am
verse ly
ĠFound ed
ĠC ave
Ġtw ists
Ġes presso
Ġsemicon ductor
Ġ Å
ook s
Ġun matched
Ġche ek
the m
ĠLa unch
ĠCe ment
Ġconstra int
ĠTan z
ĠM ull
Ġinter disciplinary
ĠSh ir
ĠCon vers
ch ini
Ġdoll s
Ġb ir
ĠW ik
Ġded u
Ġgraph s
AG R
Ġporn ography
Ġcupc akes
ic iary
ĠH ort
ĠSh aring
Ġconstruct ing
ĠPalest ine
Ġunst able
B ring
er vers
om p
Ġsk et
Ġsat in
ĠSpe ech
pat ible
ĠGar age
ĠCandid ates
Ġy r
am ents
Ġst encil
Ġle aking
ens en
Ġplay off
Ġmet ast
Ġfresh man
t ight
Ġs orrow
ind ust
11 6
ĠTerm inal
om ics
ĠD ylan
Ġright ly
Ġens ured
thod ont
Through out
ĠBott le
Ġst eroids
Ġad renal
ĠCub an
Ġpear l
Ġun acceptable
ĠSk i
Ġimpl icit
Ġg ent
ĠK w
Ġve in
a pping
ĠFore cast
Ac cept
Ġinv itations
ĠEm il
ĠLouis ville
ĠPu pp
Ġs outheast
ing les
oc ative
Ġsing ers
Ġmind fulness
Ġdeb ug
Ġborrow er
Ġimmense ly
Ġth inner
Ġblack s
Ġexperiment ing
ĠCarl os
Ġconce aled
c ream
ĠF old
Ġtra ps
ĠMan agers
[...]
