{"<s>":0,"<pad>":1,"</s>":2,"<unk>":3,"<mask>":4,"!":5,"\"":6,"#":7,"$":8,"%":9,"&":10,"'":11,"(":12,")":13,"*":14,"+":15,",":16,"-":17,".":18,"/":19,"0":20,"1":21,"2":22,"3":23,"4":24,"5":25,"6":26,"7":27,"8":28,"9":29,":":30,";":31,"<":32,"=":33,">":34,"?":35,"@":36,"A":37,"B":38,"C":39,"D":40,"E":41,"F":42,"G":43,"H":44,"I":45,"J":46,"K":47,"L":48,"M":49,"N":50,"O":51,"P":52,"Q":53,"R":54,"S":55,"T":56,"U":57,"V":58,"W":59,"X":60,"Y":61,"Z":62,"[":63,"\\":64,"]":65,"^":66,"_":67,"`":68,"a":69,"b":70,"c":71,"d":72,"e":73,"f":74,"g":75,"h":76,"i":77,"j":78,"k":79,"l":80,"m":81,"n":82,"o":83,"p":84,"q":85,"r":86,"s":87,"t":88,"u":89,"v":90,"w":91,"x":92,"y":93,"z":94,"{":95,"|":96,"}":97,"~":98,"¡":99,"¢":100,"£":101,"¤":102,"¥":103,"¦":104,"§":105,"¨":106,"©":107,"ª":108,"«":109,"¬":110,"®":111,"¯":112,"°":113,"±":114,"²":115,"³":116,"´":117,"µ":118,"¶":119,"·":120,"¸":121,"¹":122,"º":123,"»":124,"¼":125,"½":126,"¾":127,"¿":128,"À":129,"Á":130,"Â":131,"Ã":132,"Ä":133,"Å":134,"Æ":135,"Ç":136,"È":137,"É":138,"Ê":139,"Ë":140,"Ì":141,"Í":142,"Î":143,"Ï":144,"Ð":145,"Ñ":146,"Ò":147,"Ó":148,"Ô":149,"Õ":150,"Ö":151,"×":152,"Ø":153,"Ù":154,"Ú":155,"Û":156,"Ü":157,"Ý":158,"Þ":159,"ß":160,"à":161,"á":162,"â":163,"ã":164,"ä":165,"å":166,"æ":167,"ç":168,"è":169,"é":170,"ê":171,"ë":172,"ì":173,"í":174,"î":175,"ï":176,"ð":177,"ñ":178,"ò":179,"ó":180,"ô":181,"õ":182,"ö":183,"÷":184,"ø":185,"ù":186,"ú":187,"û":188,"ü":189,"ý":190,"þ":191,"ÿ":192,"Ā":193,"ā":194,"Ă":195,"ă":196,"Ą":197,"ą":198,"Ć":199,"ć":200,"Ĉ":201,"ĉ":202,"Ċ":203,"ċ":204,"Č":205,"č":206,"Ď":207,"ď":208,"Đ":209,"đ":210,"Ē":211,"ē":212,"Ĕ":213,"ĕ":214,"Ė":215,"ė":216,"Ę":217,"ę":218,"Ě":219,"ě":220,"Ĝ":221,"ĝ":222,"Ğ":223,"ğ":224,"Ġ":225,"ġ":226,"Ģ":227,"ģ":228,"Ĥ":229,"ĥ":230,"Ħ":231,"ħ":232,"Ĩ":233,"ĩ":234,"Ī":235,"ī":236,"Ĭ":237,"ĭ":238,"Į":239,"į":240,"İ":241,"ı":242,"Ĳ":243,"ĳ":244,"Ĵ":245,"ĵ":246,"Ķ":247,"ķ":248,"ĸ":249,"Ĺ":250,"ĺ":251,"Ļ":252,"ļ":253,"Ľ":254,"ľ":255,"Ŀ":256,"ŀ":257,"Ł":258,"ł":259,"Ń":260,"Ġt":261,"Ġa":262,"in":263,"he":264,"re":265,"on":266,"er":267,"Ġthe":268,"Ġs":269,"Ġw":270,"Ġo":271,"at":272,"nd":273,"Ġc":274,"it":275,"ou":276,"es":277,"or":278,"is":279,"Ġf":280,"ing":281,"Ġb":282,"en":283,"Ġp":284,"an":285,"Ġm":286,"ed":287,"Ġto":288,"al":289,"Ġand":290,"ar":291,"Ġin":292,"Ġof":293,"Ġd":294,"ic":295,"le":296,"Ġh":297,"om":298,"ion":299,"as":300,"Ġth":301,"Ġy":302,"il":303,"Ġl":304,"ve":305,"ent":306,"âĢ":307,"Ġre":308,"Ġe":309,"st":310,"Ġn":311,"ro":312,"Ġyou":313,"ĠI":314,"ct":315,"Ġg":316,"ly":317,"Ġbe":318,"Ġis":319,"ĠT":320,"Ġfor":321,"et":322,"ot":323,"ut":324,"Ġon":325,"ĠS":326,"id":327,"ay":328,"ur":329,"us":330,"ow":331,"ce":332,"ĠA":333,"ll":334,"im":335,"ch":336,"ĠC":337,"ig":338,"ver":339,"ad":340,"ith":341,"Ġthat":342,"ation":343,"am":344,"Ġst":345,"Ġwith":346,"ol":347,"Ġ2":348,"Ġit":349,"âĢĻ":350,"ir":351,"ĠM":352,"Ġwe":353,"se":354,"Ġan":355,"Ġhe":356,"ra":357,"Ġas":358,"Ġpro":359,"ers":360,"Ġare":361,"Ġwh":362,"if":363,"ĠP":364,"un":365,"ill":366,"Ġ(":367,"Ġha":368,"Ġor":369,"Ġ20":370,"ke":371,"ul":372,"ĠB":373,"Ġcon":374,"oo":375,"ge":376,"ter":377,"ess":378,"pp":379,"her":380,"ĠW":381,"Ġcom":382,"ate":383,"ld":384,"Ġyour":385,"ment":386,"est":387,"ab":388,"Ġse":389,"ore":390,"ck":391,"ri":392,"ĠD":393,"ĠThe":394,"Ġde":395,"ĠF":396,"Ġex":397,"ĠH":398,"rom":399,"igh":400,"Ġat":401,"Ġne":402,"pe":403,"ist":404,"th":405,"qu":406,"ust":407,"Ġsu":408,"ant":409,"Ġhave":410,"em":411,"Ġthis":412,"Ġv":413,"ity":414,"ĠR":415,"ive":416,"Ġus":417,"Ġ1":418,"res":419,"Ġnot":420,"Ġcan":421,"Ġ201":422,"op":423,"Ġwas":424,"ort":425,"Ġfrom":426,"Ġr":427,"ain":428,"Ġsh":429,"ĠL":430,"ies":431,"ĠN":432,"art":433,"um":434,"..":435,"Ġby":436,"ĠâĢ":437,"el":438,"and":439,"ĠG":440,"Ġal":441,"ĠE":442,"os":443,"Ġch":444,"Ġu":445,"nt":446,"ight":447,"ome":448,"ĠO":449,"Ġwill":450,"out":451,"ĠJ":452,"red":453,"Ġle":454,"ally":455,"Ġwor":456,"Ġdo":457,"Ġab":458,"ost":459,"all":460,"ould":461,"ard":462,"ie":463,"Ġall":464,"ber":465,"od":466,"iv":467,"ud":468,"te":469,"pt":470,"ide":471,"ci":472,"our":473,"gh":474,"ine":475,"Ġpl":476,"Ġso":477,"Ġj":478,"per":479,"Ġk":480,"ure":481,"fe":482,"rou":483,"Ġme":484,"Ġma":485,"ice":486,"ook":487,"ast":488,"ction":489,"ite":490,"Ġad":491,"Ġbut":492,"ear":493,"age":494,"Ġwhe":495,"Ġcomp":496,"Ġmy":497,"Ġhas":498,"ther":499,"very":500,"lo":501,"ag":502,"Ġour":503,"able":504,"ind":505,"ac":506,"ary":507,"ack":508,"Ġout":509,"Ġen":510,"Ġup":511,"one":512,"Ġmore":513,"are":514,"ated":515,"ry":516,"Ġlo":517,"ich":518,"ru":519,"ĠTh":520,"so":521,"orm":522,"Ġthey":523,"cc":524,"ime":525,"ĠU":526,"ood":527,"Ġli":528,"Ġtheir":529,"iz":530,"ous":531,"Ġcont":532,"ong":533,"00":534,"ans":535,"king":536,"Ġte":537,"du":538,"ip":539,"ail":540,"Ġone":541,"Ġim":542,"act":543,"The":544,"âĢĿ":545,"Ġabout":546,"'s":547,"Ġany":548,"Ġman":549,"Ġfe":550,"ions":551,"Ġun":552,"ase":553,"ance":554,"ĠIn":555,"Ġres":556,"Ġinc":557,"Ġapp":558,"Ġcl":559,"ame":560,"ign":561,"Ġqu":562,"reat":563,"ĠY":564,"ult":565,"Ġwhich":566,"Ġother":567,"Ġwho":568,"form":569,"ire":570,"ks":571,"ree":572,"ib":573,"erv":574,"ations":575,"Ġlike":576,"ia":577,"Ġtime":578,"pl":579,"Ġgo":580,"og":581,"ace":582,"Ġoff":583,"ĠâĢľ":584,"ays":585,"ff":586,"ical":587,"Ġper":588,"to":589,"Ġget":590,"now":591,"Ġsome":592,"av":593,"Ġdis":594,"ne":595,"ep":596,"ap":597,"ĠIt":598,"ass":599,"ue":600,"Ġalso":601,"ence":602,"ount":603,"ach":604,"Ġev":605,"ile":606,"ĠK":607,"vel":608,"Ġpart":609,"ub":610,"Ġnew":611,"Ġthem":612,"Ġif":613,"Ġta":614,"ings":615,"...":616,"Ġyear":617,"Ġsp":618,"ress":619,"Ġhis":620,"Ġag":621,"Ġpe":622,"Ġbeen":623,"Ġtr":624,"Ġthere":625,"ĠWe":626,"Ġar":627,"Ġwhen":628,"ial":629,"ĠV":630,"Ġam":631,"ĠSt":632,"Ġwhat":633,"ition":634,"ick":635,"ond":636,"ord":637,"ents":638,"Ġwould":639,"Ġneed":640,"Ġ3":641,"Ġjust":642,"Ġspe":643,"Ġover":644,"ark":645,"Ġknow":646,"Ġthan":647,"ĠCh":648,"ough":649,"ors":650,"Ġpre":651,"Ġsa":652,"ish":653,"nder":654,"Ġacc":655,"Ġco":656,"ens":657,"Ġimp":658,"Ġhow":659,"Ġro":660,"ople":661,"use":662,"Ġwork":663,"Ġher":664,"Ġprov":665,"wn":666,"ild":667,"Ġrec":668,"Ġbec":669,"Ġno":670,"Ġdes":671,"Ġhad":672,"int":673,"Ġwere":674,"Ġmay":675,"Ġuse":676,"Ġ-":677,"ove":678,"ade":679,"ater":680,"ound":681,"lp":682,"own":683,"bs":684,"rough":685,"lud":686,"cial":687,"Ġcomm":688,"Ġpeople":689,"ĠThis":690,"ak":691,"Ġinto":692,"lic":693,"ren":694,"Ġhelp":695,"20":696,"ory":697,"Ġprodu":698,"Ġsc":699,"ang":700,"ual":701,"li":702,"ful":703,"Ġmake":704,"fter":705,"vers":706,"ink":707,"itt":708,"Ġem":709,"irst":710,"Ġpr":711,"Ġserv":712,"Ġlook":713,"ning":714,"ose":715,"we":716,"ments":717,"Ġits":718,"ĠSe":719,"old":720,"ces":721,"Ġadd":722,"Ġind":723,"Ġonly":724,"cts":725,"rent":726,"Ġevery":727,"Ġmost":728,"ĠHe":729,"Ġtra":730,"ons":731,"ause":732,"end":733,"arch":734,"ates":735,"ices":736,"Ġbu":737,"Ġfo":738,"Ġbet":739,"Ġinclud":740,"Ġcons":741,"Ġwant":742,"ating":743,"Ġthrough":744,"ian":745,"Ġwell":746,"hed":747,"tern":748,"Ġunder":749,"Ġvery":750,"ĠâĢĵ":751,"Ġact":752,"iew":753,"les":754,"ĠRe":755,"Ġ\"":756,"ise":757,"ov":758,"Ġthese":759,"ious":760,"Ġsee":761,"hing":762,"ft":763,"ĠYou":764,"Ġsupp":765,"Ġfirst":766,"Ġtw":767,"Ġback":768,"Ġpo":769,"ific":770,"je":771,"Ġph":772,"Ġdif":773,"ĠDe":774,"Ġshe":775,"formation":776,"Ġexper":777,"round":778,"erson":779,"Ġrep":780,"lect":781,"ities":782,"Ġ4":783,"gr":784,"mer":785,"ife":786,"ict":787,"Ġ5":788,"mber":789,"uch":790,"Ġgood":791,"Ġcol":792,"Ġreg":793,"cess":794,"ange":795,").":796,"Ġmany":797,"ily":798,"ert":799,"'t":800,"day":801,"ph":802,"ple":803,"sel":804,"fore":805,"Ġread":806,"Ġway":807,"row":808,"ible":809,"iness":810,"fect":811,"ting":812,"ced":813,"hen":814,"rit":815,"iss":816,"xt":817,"Ġsy":818,"Ġafter":819,"Ġfl":820,"Ġgreat":821,"ility":822,"ob":823,"Ġke":824,"urn":825,"ys":826,"Ġcould":827,"Ġeven":828,"com":829,"ug":830,"oss":831,"aw":832,"Ġyears":833,"ased":834,"Th":835,"Ġdon":836,"line":837,"Ġinformation":838,"Ġgu":839,"Ġ200":840,"erm":841,"pr":842,"Ġrem":843,"Ġbest":844,"Ġown":845,"Ġright":846,"Ġshould":847,"Ġthen":848,"Ġsm":849,"Ġrel":850,"ures":851,"Ġac":852,"Ġnow":853,"Ġwhere":854,"als":855,"any":856,"Ġfind":857,"Ġinv":858,"Ġbus":859,"Ġtwo":860,"Ġstud":861,"âĢ¦":862,"Ġmuch":863,"oth":864,"Ġsuch":865,"ular":866,"ont":867,"Ġhigh":868,"ĠIf":869,"Ġbecause":870,"ower":871,"ember":872,"ble":873,"Ġperson":874,"olog":875,"ics":876,"Ġdec":877,"alth":878,"Ġinst":879,"Ġ19":880,"Ġ&":881,"ty":882,"Ġent":883,"Ġra":884,"uring":885,"get":886,"ts":887,"llow":888,"ool":889,"ative":890,"ath":891,"ational":892,"Ġinte":893,"ew":894,"Ġstart":895,"ps":896,"Ġdown":897,"Ġdiffe":898,"Ġhere":899,"Ġrequ":900,"Ġche":901,"Ġfu":902,"Ġfin":903,"ĠAs":904,"Ġset":905,"Ġused":906,"oy":907,"Ġins":908,"Ġbl":909,"Ġsec":910,"its":911,"Ġlong":912,"hes":913,"Ġdid":914,"Ġcar":915,"ually":916,"omet":917,"Ġday":918,"oc":919,"ward":920,"pect":921,"ract":922,"ited":923,"stem":924,"Ġtoo":925,"ĠUn":926,"Ġmade":927,"ĠWh":928,"Ġdoes":929,"hip":930,"Ġatt":931,"Ġtake":932,"ident":933,"ĠAnd":934,"Ġdesign":935,"Ġav":936,"Ġplay":937,"Ġsaid":938,"Ġloc":939,"Ġbel":940,"velop":941,"riv":942,"rib":943,"ĠCom":944,"Ġexperi":945,"Ġworld":946,"Ġprovid":947,"lease":948,"Ġpost":949,"Ġbeing":950,"Ġhome":951,"ener":952,"ality":953,"Ġbusiness":954,"Ġass":955,"ĠPro":956,"Ġsim":957,"),":958,"ject":959,"Ġ$":960,"arket":961,"air":962,"Ġmin":963,"Ġtrans":964,"Ġsub":965,"cy":966,"Ġdisc":967,"Ġmon":968,"ied":969,"other":970,"Ġagain":971,"Ġmod":972,"Ġbefore":973,"Ġthose":974,"ustom":975,"der":976,"Ġfam":977,"Ġbr":978,"Ġreally":979,"Ġart":980,"gan":981,"Ġlife":982,"Ġhim":983,"ata":984,"rest":985,"land":986,"Ġbook":987,"ng":988,"ale":989,"Ġthink":990,"eb":991,"Ġlove":992,"ank":993,"Ġ2020":994,"Ġend":995,"Ġcall":996,"Ġshow":997,"Ġ6":998,"chool":999,"Ġpur":1000,"Ġpres":1001,"Ġdet":1002,"Ġsur":1003,"Ġcre":1004,"Ġhand":1005,"chn":1006,"Ġmed":1007,"cept":1008,"az":1009,"ven":1010,"Ġeas":1011,"arn":1012,"Ġnum":1013,"Ġwee":1014,"Ġexp":1015,"ĠAn":1016,"up":1017,"Ġvis":1018,"led":1019,"Ġsystem":1020,"kes":1021,"ives":1022,"We":1023,"Ġaut":1024,"ize":1025,"Ġadv":1026,"Ġdifferent":1027,"ince":1028,"Ġdevelop":1029,"ines":1030,"self":1031,"ake":1032,"ix":1033,"ues":1034,"ric":1035,"Ġcur":1036,"Ġcomple":1037,"Ġop":1038,"way":1039,"view":1040,"ional":1041,"ss":1042,"ages":1043,"Ġsupport":1044,"Ġwhile":1045,"ctions":1046,"Ġret":1047,"read":1048,"arm":1049,"Ġform":1050,"ather":1051,"ouse":1052,"Ġfeel":1053,"Ġsomet":1054,"ork":1055,"ner":1056,"Ġbo":1057,"Ġeach":1058,"Ġgr":1059,"ave":1060,"atch":1061,"io":1062,"ason":1063,"Ġwebs":1064,"ways":1065,"Ġinter":1066,"ness":1067,"Ġfree":1068,"gg":1069,"Ġprocess":1070,"imes":1071,"Ġsame":1072,"Ġcle":1073,"une":1074,"Ġstr":1075,"Ġblo":1076,"Ġmet":1077,"Ġcustom":1078,"Ġpub":1079,"Ġthough":1080,"ĠMay":1081,"In":1082,"Ġprof":1083,"riend":1084,"Ġaround":1085,"Ġcare":1086,"olut":1087,"Ġlist":1088,"ĠSh":1089,"Ġpol":1090,"Ġfollow":1091,"Ġsk":1092,"gram":1093,"Ġfun":1094,"ĠFor":1095,"Ġlot":1096,"anu":1097,".âĢĿ":1098,"ever":1099,"less":1100,"Ġser":1101,"Ġstill":1102,"Ġmarket":1103,"Ġusing":1104,"ved":1105,"ash":1106,"Ġchar":1107,"ween":1108,"ĠSo":1109,"Ġavail":1110,"This":1111,"Ġ10":1112,"ene":1113,"Ġcount":1114,"Ġed":1115,"Ġext":1116,"ĠBut":1117,"Ġgoing":1118,"Ġsay":1119,"irect":1120,"Ġ2019":1121,"Ġcommun":1122,"ĠAl":1123,"ized":1124,"Ġlast":1125,"ving":1126,"Ġcour":1127,"Ġhapp":1128,"Ġcr":1129,"Ġ7":1130,"Ġlead":1131,"be":1132,"Ġty":1133,"Ġchild":1134,"Ġhealth":1135,"ins":1136,"Ġi":1137,"Ġplace":1138,"Ġbetween":1139,"ober":1140,"amp":1141,"Ġboth":1142,"Ġsign":1143,"Ġ2018":1144,"Ġfound":1145,"Ġcor":1146,"Ġonline":1147,"Ġref":1148,"Ġtop":1149,"ient":1150,"000":1151,"Ġvar":1152,"Ġkeep":1153,"Ġreal":1154,"Ġpay":1155,"Ġdata":1156,"ittle":1157,"thing":1158,"Ġthings":1159,"ĠBe":1160,"ĠNew":1161,"Ġservice":1162,"ety":1163,"ĠThey":1164,"ten":1165,"Ġtechn":1166,"ired":1167,"Ġ2017":1168,"oun":1169,"Ġfew":1170,"Ġsite":1171,"ĠFeb":1172,"ĠMarch":1173,"Ġpoint":1174,"anuary":1175,"Ġexperience":1176,"Ġ8":1177,"Ġimport":1178,"ars":1179,"ffect":1180,"Ġavailable":1181,"Ġwebsite":1182,"Ġwithout":1183,"stand":1184,"Ġlar":1185,"Ġval":1186,"Ġsl":1187,"Ġopt":1188,"Ġ2016":1189,"ering":1190,"uc":1191,"ruary":1192,"Ġalways":1193,"ants":1194,"Ġgener":1195,"ivers":1196,"Ġposs":1197,"ĠOct":1198,"ĠJanuary":1199,"ody":1200,"Ġinterest":1201,"Ġteam":1202,"cember":1203,"Ġwr":1204,"Ġmonth":1205,"Ġmain":1206,"Ġob":1207,"ature":1208,"ining":1209,"Ġresp":1210,"ĠCl":1211,"Ġincluding":1212,"ets":1213,"Ġorder":1214,"ĠAd":1215,"ology":1216,"Ġfact":1217,"ĠFebruary":1218,"Ġiss":1219,"Ġappro":1220,"ĠAr":1221,"Ġrece":1222,"co":1223,"ah":1224,"ically":1225,"ross":1226,"ĠJu":1227,"Ġdef":1228,"ital":1229,"Ġsure":1230,"tt":1231,"Ġtry":1232,"ĠThere":1233,"Ġlittle":1234,"rand":1235,"pril":1236,"Ġresult":1237,"Ġprovide":1238,"ptember":1239,"Ġplan":1240,"iving":1241,"Ġide":1242,"ovember":1243,"21":1244,"ĠDecember":1245,"Ġduring":1246,"aut":1247,"Ġcompany":1248,"Ġservices":1249,"ĠAug":1250,"Ġsomething":1251,"Ġ2015":1252,"Ġprogram":1253,"Ġallow":1254,"ves":1255,"Ġbetter":1256,"Ġquest":1257,"blem":1258,"Ġmust":1259,"Ġfr":1260,"und":1261,"Ġfriend":1262,"Ġpartic":1263,"Ġrun":1264,"ĠOctober":1265,"Ġsmall":1266,"Ġcome":1267,"Ġ9":1268,"ĠJune":1269,"ĠApril":1270,"ertain":1271,"Ġint":1272,"meric":1273,"ural":1274,"ĠNovember":1275,"Ġstate":1276,"Ġ'":1277,"Ġwater":1278,"ĠSeptember":1279,"Ġfamily":1280,"Ġpat":1281,"Ġconf":1282,"ĠJuly":1283,"ames":1284,"Ġrest":1285,"Ġdist":1286,"ell":1287,"cl":1288,"ists":1289,"alk":1290,"Ġcontin":1291,"Ġnumber":1292,"ined":1293,"\\\\":1294,"ism":1295,"cer":1296,"Ġopen":1297,"ĠAugust":1298,"Ġproblem":1299,"ĠHow":1300,"Ġexam":1301,"ock":1302,"Ġbuild":1303,"Ġinf":1304,"Ġdays":1305,"Ġspec":1306,"Ġfil":1307,"els":1308,"Ġnever":1309,"Ġstand":1310,"Ġproducts":1311,"erg":1312,"ĠLe":1313,"Ġve":1314,"Ġmem":1315,"orts":1316,"Ġgive":1317,"uss":1318,"Ġ2014":1319,"Ġear":1320,"con":1321,"Ġput":1322,"Ġ[":1323,"âĢľ":1324,"bers":1325,"ware":1326,"Ġmight":1327,"Ġpass":1328,"ems":1329,"ished":1330,"pping":1331,"ention":1332,"Ġproper":1333,"Ġcent":1334,"ĠAll":1335,"au":1336,"ĠâĢĺ":1337,"Ġhard":1338,"ute":1339,"Ġsince":1340,"ared":1341,"Ġaccess":1342,"iqu":1343,"Ġorgan":1344,"Ġwithin":1345,"orn":1346,"me":1347,"vern":1348,"ĠPl":1349,"Ġschool":1350,"oney":1351,"ĠInd":1352,"ton":1353,"Ġgot":1354,"Ġfull":1355,"ĠTe":1356,"ĠAmeric":1357,"loy":1358,"Ġclass":1359,"ĠEx":1360,"ately":1361,"Ġimportant":1362,"the":1363,"Ġ.":1364,"Ġwom":1365,"Ġable":1366,"Ġequ":1367,"pend":1368,"Ġold":1369,"Ġsit":1370,"roup":1371,"ĠOn":1372,"Ġanother":1373,"Ġthree":1374,"Ġpower":1375,"Ġbig":1376,"Ġcost":1377,"ered":1378,"19":1379,"Ġperform":1380,"rist":1381,"Ġtri":1382,"ĠQ":1383,"Ġlevel":1384,"Ġ2013":1385,"Ġprote":1386,"reen":1387,"ier":1388,"Ġnext":1389,"ploy":1390,"ivid":1391,"Ġcheck":1392,"omm":1393,"Ġdirect":1394,"Ġlooking":1395,"Ġmat":1396,"Ġtest":1397,"ling":1398,"Ġunderstand":1399,"Ġproduct":1400,"If":1401,"ield":1402,"ases":1403,"Ġcontro":1404,"ĠShe":1405,"Ġcurrent":1406,"ients":1407,"10":1408,"ense":1409,"It":1410,"Ġopp":1411,"Ġquality":1412,"icle":1413,"Ġless":1414,"Ġexpl":1415,"Ġlight":1416,"Ġbelie":1417,"joy":1418,"Ġbro":1419,"ĠTo":1420,"Ġincre":1421,"ery":1422,"Ġprofess":1423,"ours":1424,"Ġhead":1425,"Ġel":1426,"Ġeng":1427,"Ġinvest":1428,"ĠSc":1429,"br":1430,"ified":1431,"inal":1432,"Ġrese":1433,"raph":1434,"ĠTr":1435,"Ġbre":1436,"ories":1437,"ency":1438,"Ġjo":1439,"Ġweek":1440,"aring":1441,"Ġspecial":1442,"ffic":1443,"Ġwrit":1444,"Ġworking":1445,"Ġoper":1446,"Ġgrow":1447,"Ġlet":1448,"eng":1449,"Ġmus":1450,"Ġgl":1451,"ards":1452,"ral":1453,"ote":1454,"Ġoffer":1455,"man":1456,"ently":1457,"Ġpersonal":1458,"Ġintern":1459,"ability":1460,"Ġest":1461,"Ġmov":1462,"lish":1463,"Ġmaking":1464,"Ġaddition":1465,"Ġapplic":1466,"Ġpos":1467,"Ġpublic":1468,"ĠSp":1469,"ted":1470,"hor":1471,"Ġlaw":1472,"ision":1473,"Ġdi":1474,"ruct":1475,"ify":1476,"Ġfood":1477,"Ġview":1478,"cing":1479,"ccess":1480,"Ġpop":1481,"Ġtru":1482,"aterial":1483,"pos":1484,"ĠIs":1485,"ateg":1486,"Ġprev":1487,"ird":1488,"Ġ2012":1489,"Ġphot":1490,"Ġhum":1491,"lection":1492,"Ġcond":1493,"ortun":1494,"Ġbuy":1495,"Ġprom":1496,"Ġtoday":1497,"Ġgame":1498,"ĠUS":1499,"ably":1500,"ium":1501,"Ġsecond":1502,"ission":1503,"rence":1504,"Ġterm":1505,"Ġchange":1506,"Ġeasy":1507,"ids":1508,"ior":1509,"Ġarea":1510,"Ġindust":1511,"Ġblog":1512,"iversity":1513,"here":1514,"Ġvide":1515,"ode":1516,"Ġwhy":1517,"ains":1518,"ised":1519,"ats":1520,"Ġkind":1521,"Ġvisit":1522,"ope":1523,"load":1524,"Ġ0":1525,"Ġcomplete":1526,"Ġca":1527,"Ġchang":1528,"Ġcase":1529,"Ġleg":1530,",âĢĿ":1531,"gin":1532,"Ġsal":1533,"Ġlearn":1534,"itions":1535,"Ġthing":1536,"Ġaccount":1537,"Ġdetail":1538,"Ġconst":1539,"Ġenjoy":1540,"Ġeffect":1541,"Ġpract":1542,"med":1543,"ider":1544,"Ġcontact":1545,"Ġreport":1546,"ĠZ":1547,"Ġname":1548,"Ġmoney":1549,"work":1550,"ann":1551,"50":1552,"ured":1553,"!!":1554,"iron":1555,"Ġactiv":1556,"Ġmill":1557,"Ġmar":1558,"ator":1559,"Ġcook":1560,"Ġunt":1561,"outh":1562,"Ġimpro":1563,"Ġmean":1564,"Ġbas":1565,"ential":1566,"Ġdeli":1567,"Ġfeat":1568,"acy":1569,"Ġcourse":1570,"ax":1571,"Ġbased":1572,"Ġreview":1573,"Ġagainst":1574,"lling":1575,"ĠThat":1576,"ĠOr":1577,"ream":1578,"cent":1579,"Ġmaterial":1580,"Ġmeet":1581,"ĠPh":1582,"ividual":1583,"Ġcap":1584,"Ġpresent":1585,"pped":1586,"ĠJo":1587,"Ġword":1588,"ĠChrist":1589,"ript":1590,"ĠFr":1591,"Ġaway":1592,"Ġconne":1593,"Ġtimes":1594,"Ġactually":1595,"Ġlarge":1596,"ina":1597,"Ġturn":1598,"ĠCon":1599,"Ġhaving":1600,"Ġneeds":1601,"ron":1602,"ffe":1603,"Ġemail":1604,"ĠWith":1605,"por":1606,"Ġcreat":1607,"ĠMy":1608,"ump":1609,"ret":1610,"Ġ12":1611,"Ġroom":1612,"part":1613,"Ġcertain":1614,"Ġask":1615,"Ġsing":1616,"Ġbeaut":1617,"ising":1618,"Ġbeh":1619,"ĠBl":1620,"Ġdem":1621,"port":1622,"Ġlocal":1623,"Ġchildren":1624,"ĠEng":1625,"Ġair":1626,"ries":1627,"ĠGod":1628,"Ġpain":1629,"agement":1630,"Ġ|":1631,"Ġperfect":1632,"anks":1633,"Ġhist":1634,"ĠâĢ¦":1635,"ills":1636,"Ġpurch":1637,"Ġpossible":1638,"ott":1639,"bo":1640,"ration":1641,"ination":1642,"tain":1643,"ization":1644,"Ġhouse":1645,"Ġweb":1646,"Ġann":1647,"Ġpa":1648,"Ġtoget":1649,"itive":1650,"Ġstudents":1651,"Ġtrad":1652,"Ġtogether":1653,"Ġbene":1654,"Wh":1655,"Ġwin":1656,"Ġdev":1657,"ex":1658,"You":1659,"Ġuntil":1660,"ĠWhen":1661,"ï¿":1662,"ĠâĢĶ":1663,"Ġoften":1664,"ead":1665,"Ġindividual":1666,"iven":1667,"ï¿½":1668,"Ġ2011":1669,"ique":1670,"ĠCan":1671,"ĠCol":1672,"aking":1673,"Ġes":1674,"Ġpar":1675,"Ġever":1676,"Ġtreat":1677,"Ġ18":1678,"Ġnon":1679,"icy":1680,"soci":1681,"Ġmakes":1682,"redit":1683,"vernment":1684,"fer":1685,"Ġfac":1686,"ived":1687,"Ġplease":1688,"cus":1689,"ury":1690,"ĠÂ":1691,"ĠCo":1692,"arent":1693,"ken":1694,"Ġalong":1695,"ĠRes":1696,"Ġmeans":1697,"ec":1698,"Ġpast":1699,"aster":1700,"Ġdra":1701,"Ġlive":1702,"Ġemploy":1703,"Ġdone":1704,"Ġinclude":1705,"att":1706,"Ġresearch":1707,"Ġprice":1708,"Ġnear":1709,"Ġbit":1710,"Ġlim":1711,"Ġcontent":1712,"ĠNo":1713,"uro":1714,"uck":1715,"Ġcontrol":1716,"Ġcommunity":1717,"ready":1718,"Ġbody":1719,"orth":1720,"Ġspecific":1721,"ĠOur":1722,"Ġdr":1723,"utes":1724,"ww":1725,"ots":1726,"Ġsw":1727,"Ġothers":1728,"ĠComm":1729,"ged":1730,"Ġpage":1731,"Ġbenef":1732,"ances":1733,"Ġreturn":1734,"min":1735,"ney":1736,"tend":1737,"ger":1738,"Ġsuccess":1739,"Ġelect":1740,"Ġgetting":1741,"let":1742,"Ġsocial":1743,"of":1744,"yle":1745,"'m":1746,"âĢĶ":1747,"Ġenough":1748,"Ġorig":1749,"Ġlow":1750,"Ġmind":1751,"side":1752,"Ġcreate":1753,"aim":1754,"rap":1755,"Ġdri":1756,"ern":1757,"Ġgroup":1758,"Ġtyp":1759,"Ġside":1760,"olution":1761,"Ġsoft":1762,"ER":1763,"Ġstore":1764,"Ġquick":1765,"Ġbecome":1766,"Ġ...":1767,"oice":1768,"room":1769,"Ġanal":1770,"Ġmult":1771,"fact":1772,"veral":1773,"Ġvari":1774,"Ġalready":1775,"Ġrecomm":1776,"Ġrequire":1777,"ording":1778,"Ġline":1779,"ĠAm":1780,"Ġ2021":1781,"ither":1782,"Ġrecommend":1783,"Ġcomes":1784,"Ġdoing":1785,"ĠSu":1786,"cially":1787,"Ġfav":1788,"Ġfollowing":1789,"Ġdeal":1790,"Ġmove":1791,"Ġevent":1792,"Ġcou":1793,"iful":1794,"Ġshare":1795,"ike":1796,"Ġshort":1797,"Ġacross":1798,"Ġjob":1799,"Ġocc":1800,"Ġreason":1801,"ĠMan":1802,"Ġpot":1803,"ee":1804,"Ġ30":1805,"Ġworks":1806,"'re":1807,"Ġpriv":1808,"Ġstory":1809,"iting":1810,"ĠPr":1811,"not":1812,"Ġens":1813,"lement":1814,"Ġnews":1815,"oose":1816,"ands":1817,"lf":1818,"ĠWhat":1819,"ĠThese":1820,"Ġeduc":1821,"Ġnight":1822,"Ġpack":1823,"conom":1824,"uture":1825,"Ġexpect":1826,"viron":1827,"Ġwomen":1828,"jor":1829,"crib":1830,"Ġtre":1831,"Ġcountry":1832,"Ġfocus":1833,"Ġproject":1834,"Ġclo":1835,"cu":1836,"Ġdidn":1837,"irm":1838,"ĠServ":1839,"osed":1840,"As":1841,"Ġmen":1842,"Ġsol":1843,"Ġla":1844,"by":1845,"Ġ15":1846,"Ġhot":1847,"ull":1848,"ĠAt":1849,"Ġvers":1850,"Ġoffers":1851,"Ġfar":1852,"oint":1853,"Ġseveral":1854,"12":1855,"Ġtem":1856,"30":1857,"hod":1858,"Ġleast":1859,"ĠCont":1860,"Ġ2010":1861,"Ġclean":1862,"ĠCent":1863,"Ġcalled":1864,"ane":1865,"Ġident":1866,"Ġfour":1867,"ai":1868,"Ġaddress":1869,"Ġdoesn":1870,"Ġcharact":1871,"urity":1872,"ides":1873,"ili":1874,"//":1875,"Ġet":1876,"cript":1877,"Ġmembers":1878,"Ġparticular":1879,"Ġtax":1880,"ribut":1881,"Ġfore":1882,"Ġonce":1883,"urs":1884,"Ġleft":1885,"Ġhold":1886,"Ġthought":1887,"Ġopportun":1888,"cell":1889,"Ġmom":1890,"Ġste":1891,"Ġsho":1892,"Ġclear":1893,"ĠDo":1894,"Ġce":1895,"Ġhig":1896,"ches":1897,"Ġhours":1898,"ĠMar":1899,"Ġnet":1900,"ush":1901,"rop":1902,"sw":1903,"Ġauthor":1904,"most":1905,"Ġwond":1906,"aff":1907,"rodu":1908,"11":1909,"Ġrespons":1910,".\"":1911,"Ġeverything":1912,"Ġbrand":1913,"bal":1914,"ift":1915,"irl":1916,"Ġfuture":1917,"Ġindustry":1918,"uff":1919,"Ġrange":1920,"Ġredu":1921,"app":1922,"Ġvideo":1923,"anies":1924,"Ġtool":1925,"ĠUniversity":1926,"ley":1927,"Ġdue":1928,"atic":1929,"Ġdevelopment":1930,"Ġexample":1931,"Ġfriends":1932,"Ġbelow":1933,"sh":1934,"Ġstudy":1935,"Ġmil":1936,"Ġmajor":1937,"ply":1938,"mm":1939,"Ġcomb":1940,"alf":1941,"Ġrecord":1942,"ences":1943,"'ve":1944,"Ġsomeone":1945,"://":1946,"urther":1947,"Ġcover":1948,"Ġamount":1949,"ĠApp":1950,"ched":1951,"vironment":1952,"Ġsuper":1953,"Ġfeatures":1954,"err":1955,"Ġcredit":1956,"atural":1957,"Ġris":1958,"idd":1959,"Ġmonths":1960,"Ġbeautiful":1961,"arr":1962,"Ġbring":1963,"ĠHowever":1964,"ctor":1965,"Ġwa":1966,"Ġtell":1967,"wards":1968,"Ġmusic":1969,"Ġdiscuss":1970,"Ġaff":1971,"Ġtype":1972,"augh":1973,"par":1974,"vert":1975,"for":1976,"Ġheart":1977,"Ġstep":1978,"ik":1979,"Ġkey":1980,"Ġagree":1981,"Ġprofessional":1982,"Ġhappen":1983,"Ġrele":1984,"Ġbelieve":1985,"Ġfund":1986,"Ġstarted":1987,"ograph":1988,"fort":1989,"ulation":1990,"Ġ100":1991,"Ġ#":1992,"Ġstay":1993,"book":1994,"Ġyoung":1995,"Ġwriting":1996,"over":1997,"Ġknown":1998,"ape":1999,"Ġpie":2000,"Ġ,":2001,"Ġhope":2002,"Ġyet":2003,"ledge":2004,"ister":2005,"Ġcal":2006,"ource":2007,"iod":2008,"Ġcame":2009,"ibility":2010,"Ġupd":2011,"resent":2012,"go":2013,"Ġstrong":2014,"Ġwhole":2015,"Ġess":2016,"Ġsearch":2017,"lished":2018,"IN":2019,"Ġoffic":2020,"cted":2021,"Ġey":2022,"Ġtot":2023,"enn":2024,"ips":2025,"aces":2026,"light":2027,"wh":2028,"ilt":2029,"ĠYour":2030,"Ġcut":2031,"ĠComp":2032,"Ġcustomers":2033,"Ġinstall":2034,"Ġhuman":2035,"Ġgovernment":2036,"ancial":2037,"Ġrelations":2038,"Ġspace":2039,"Ġquestions":2040,"Ġprovided":2041,"ilities":2042,"ones":2043,"Ġvalue":2044,"ners":2045,"Ġissues":2046,"Ġoil":2047,"Ġmethod":2048,"ilar":2049,"ĠChe":2050,"Ġtravel":2051,"pecially":2052,"jects":2053,"Ġresults":2054,"Ġabove":2055,"Ġmach":2056,"ĠAmerican":2057,"ites":2058,"Ġgiven":2059,"ources":2060,"Ġsays":2061,"ĠMed":2062,"ians":2063,"Ġcompanies":2064,"Ġpri":2065,"cle":2066,"hn":2067,"Ġprob":2068,"Ġinvol":2069,"Ġanything":2070,"hers":2071,"Ġappear":2072,"Ġcra":2073,"ĠCO":2074,"\\\\\\\\":2075,"Ġexc":2076,"Ġclose":2077,"Ġfre":2078,"Ġcult":2079,"ĠCar":2080,"oring":2081,"Ġbegin":2082,"Ġcommon":2083,"ental":2084,"Ġsingle":2085,"Ġquestion":2086,"ges":2087,"ino":2088,"ĠNot":2089,"Ġant":2090,"irt":2091,"ĠMe":2092,"cks":2093,"Ġconsider":2094,"Ġcity":2095,"ID":2096,"Ġmanu":2097,"arning":2098,"ĠUnited":2099,"Ġ11":2100,"Ġmot":2101,"Ġreading":2102,"Ġmanufact":2103,"Ġimprove":2104,"ĠFl":2105,"ĠInst":2106,"Ġprovides":2107,"icult":2108,"Ġtal":2109,"Ġchall":2110,"ony":2111,"Ġsound":2112,"Ġsex":2113,"ĠX":2114,"ĠSte":2115,"Ġenc":2116,"osp":2117,"Ġmeas":2118,"Ġseason":2119,"Ġtaking":2120,"ĠEn":2121,"Ġwhether":2122,"Ġ/":2123,"Ġmess":2124,"Ġage":2125,"Ġcompet":2126,"Ġsci":2127,"Ġtechnology":2128,"Ġvarious":2129,"Ġface":2130,"Ãĥ":2131,"Ġwon":2132,"rict":2133,"Ġcard":2134,"pro":2135,"ĠOne":2136,"gle":2137,"Ġeconom":2138,"ĠWor":2139,"ows":2140,"idence":2141,"fully":2142,"ĠPlease":2143,"Ġdiff":2144,"Ġseries":2145,"Ġz":2146,"Ġphys":2147,"Ġago":2148,"imate":2149,"ively":2150,"ĠBo":2151,"Ġport":2152,"ored":2153,"Ġlat":2154,"Ġpress":2155,"Ġeveryone":2156,"Ġsimple":2157,"inking":2158,"Ġsugg":2159,"Ġsuggest":2160,"ergy":2161,"aps":2162,"Ġproperty":2163,"omes":2164,"rain":2165,"Ġdefin":2166,"15":2167,"Ġperiod":2168,"Ġtext":2169,"Ġdesigned":2170,"Ġrepl":2171,"Ġearly":2172,"Ġsize":2173,"come":2174,"Ġseen":2175,"illed":2176,"astic":2177,"Ġeither":2178,"Ġtook":2179,"ĠEuro":2180,"uation":2181,"Ġclaim":2182,".,":2183,"Ġreceive":2184,"Ġmedia":2185,"ference":2186,"Ġbad":2187,"Ġtraining":2188,"Ġself":2189,"Ġglo":2190,"ĠIntern":2191,"RE":2192,"Ġdam":2193,"Ġaccept":2194,"Ġdig":2195,"ĠSy":2196,"asing":2197,"Ġfield":2198,"Ġrequired":2199,"Ġlater":2200,"Ġenvironment":2201,"Ġwent":2202,"Ġminutes":2203,"'ll":2204,"Ġsend":2205,"Ġidea":2206,"Ġsimply":2207,"iously":2208,"Ġansw":2209,"Ġarticle":2210,"ĠGu":2211,"selves":2212,"Ġabs":2213,"Ġgames":2214,"AT":2215,"ipment":2216,"de":2217,"Ġbuilding":2218,"itted":2219,"unch":2220,"Ġentire":2221,"new":2222,"eral":2223,"urance":2224,"Ġunique":2225,"Ġhtt":2226,"He":2227,"opy":2228,"Ġwind":2229,"Ġhy":2230,"Ġwide":2231,"Ġ2009":2232,"though":2233,"Ġetc":2234,"Ġdownload":2235,"Ġextra":2236,"Ġhistory":2237,"Ġnecess":2238,"Ġdetails":2239,"Ġrelationship":2240,"Ġfavor":2241,"Ġcamp":2242,"Ġbed":2243,"ogn":2244,"angu":2245,"Ġquite":2246,"ume":2247,"Ġlink":2248,"iday":2249,"ĠPol":2250,"urch":2251,"Ġamong":2252,"Ġtrying":2253,"ples":2254,"There":2255,"ask":2256,"Ġmillion":2257,"Ġwatch":2258,"Ġperformance":2259,"ification":2260,"Ġenergy":2261,"Ġseem":2262,"Ġsafe":2263,"Ġitems":2264,"Ġespecially":2265,"Ġvol":2266,"gest":2267,"Ġmag":2268,"ler":2269,"itten":2270,"Ġ14":2271,"mb":2272,"Ġ24":2273,"Ġsoon":2274,"Ġpict":2275,"che":2276,"Ġrequest":2277,"ĠSchool":2278,"....":2279,"Ġliving":2280,"lege":2281,"Ġfurther":2282,"ided":2283,"Ġensure":2284,"18":2285,"Ġele":2286,"Ġthird":2287,"gs":2288,"Ġ16":2289,"Ġcrus":2290,"Ġfunction":2291,"reet":2292,"ĠBr":2293,"Ġpopular":2294,"used":2295,"Ġneeded":2296,"Ġcustomer":2297,"Ġtalk":2298,"ÃĤ":2299,"Ġchoose":2300,"Ġalmost":2301,"Ġamaz":2302,"ĠMore":2303,"Ġissue":2304,"Ġmanagement":2305,"ĠRep":2306,"St":2307,"aving":2308,"Ġfront":2309,"aged":2310,"Ġelse":2311,"chie":2312,"aging":2313,"Ġmor":2314,"rew":2315,"Ġnatural":2316,"ST":2317,"Ġconcer":2318,"ruction":2319,"abor":2320,"Ġfilm":2321,"Ġsubject":2322,"ained":2323,"Ġregard":2324,"Ġblack":2325,"Ġcomfort":2326,"Ġhappy":2327,"ĠRo":2328,"Ġhowever":2329,"ication":2330,"16":2331,"Ġwonder":2332,"ster":2333,"Ġincludes":2334,"Ġsent":2335,"af":2336,"14":2337,"Ġyourself":2338,"Ġdate":2339,"obile":2340,"For":2341,"play":2342,"Ġcrit":2343,"ĠEurope":2344,"Ġbar":2345,"Ġassist":2346,"AN":2347,"umb":2348,"inks":2349,"Ġcomput":2350,"Ġstrateg":2351,"An":2352,"ĠCal":2353,"Ġareas":2354,"Ġeff":2355,"ĠRead":2356,"Ġknowledge":2357,"ĠAfter":2358,"ires":2359,"ĠNe":2360,"ights":2361,"Ġprint":2362,"Ġways":2363,"Ġveh":2364,"Ġwanted":2365,"Ġmatter":2366,"Ġpolit":2367,"Ġimpact":2368,"Ġparent":2369,"reme":2370,"Ġsignific":2371,"aching":2372,"Ġfall":2373,"Ġaud":2374,"Ġselect":2375,"where":2376,"Ġmiss":2377,"Ġshall":2378,"Ġ199":2379,"Ġexist":2380,"yl":2381,"Ġbreak":2382,"ued":2383,"When":2384,"Ġsimilar":2385,"ĠAust":2386,"Ġdocu":2387,"ators":2388,"itional":2389,"Ġprobably":2390,"Ġcannot":2391,"Ġland":2392,"13":2393,"Ġdifficult":2394,"Ġproblems":2395,"Ġoffice":2396,"elt":2397,"ried":2398,"Ġoptions":2399,"Ġcir":2400,"Ġful":2401,"Ġpret":2402,"atform":2403,"aur":2404,"Ġrespect":2405,"ĠGo":2406,"resh":2407,"Ġwhite":2408,"Ġflo":2409,"ĠDes":2410,"Ġfit":2411,"Ġfast":2412,"Ġspend":2413,"nam":2414,"ĠState":2415,"Ġoriginal":2416,"ĠBy":2417,"Ġ50":2418,"ON":2419,"Ġcontinue":2420,"Ġparticip":2421,"Ġmodel":2422,"Ġassoci":2423,"Ġengine":2424,"Ġcolor":2425,"Ġ)":2426,"Ġjour":2427,"ĠJohn":2428,"Ġhost":2429,"Ġtold":2430,"Ġfinancial":2431,"Ġnice":2432,"Ġwords":2433,"Ġrather":2434,"AR":2435,"Ġstaff":2436,"Ġdou":2437,"xim":2438,"ensive":2439,"Ġrepresent":2440,"lex":2441,"Ġstop":2442,"Ġconsum":2443,"Ġ25":2444,"Ġrisk":2445,",\"":2446,"Ġparty":2447,"Ġchanges":2448,"Ġlikely":2449,"ĠStates":2450,"oon":2451,"Ġ:":2452,"Ġcell":2453,"itch":2454,"Ġtaken":2455,"ially":2456,"Ġskin":2457,"Ġanyone":2458,"Ġphone":2459,"ĠQu":2460,"Ġforward":2461,"Ġlearning":2462,"ises":2463,"do":2464,"ĠGr":2465,"Ġcollect":2466,"ĠSouth":2467,"Ġprep":2468,"ĠMin":2469,"Ġplant":2470,"Ġpurchase":2471,"Ġdepend":2472,"pper":2473,"Ġtrue":2474,"Ġcharacter":2475,"Ġgirl":2476,"Ġvia":2477,"icles":2478,"Ġpretty":2479,"aily":2480,"Ġfail":2481,"25":2482,"On":2483,"Ġreci":2484,"Ġevents":2485,"rect":2486,"medi":2487,"Ġdeterm":2488,"ĠDis":2489,"17":2490,"Ġusually":2491,"Ġsecurity":2492,"Ġpick":2493,"oid":2494,"itut":2495,"Ġbooks":2496,"Ġcreated":2497,"Ġred":2498,"Ġstat":2499,"anced":2500,"ball":2501,"Ġsoftware":2502,"time":2503,"Ġisn":2504,"Ġapplication":2505,"son":2506,"vent":2507,"Ġlonger":2508,"Ġstyle":2509,"ĠCount":2510,"Ġterms":2511,"Ġord":2512,"ĠPart":2513,"Ġtrack":2514,"Ġcoming":2515,"ison":2516,"gress":2517,"Ġexpress":2518,"Ġhalf":2519,"Ġdeb":2520,"Ġseems":2521,"Ġ13":2522,"ada":2523,"Ġfive":2524,"back":2525,"nov":2526,"cellent":2527,"ze":2528,"emic":2529,"Ġgen":2530,"ables":2531,"Ġworth":2532,"Ġnothing":2533,"ipping":2534,"Ġ17":2535,"Ġachie":2536,"ĠSome":2537,"Ġautom":2538,"ĠPe":2539,"ĠTra":2540,"Ġsignificant":2541,"verage":2542,"rown":2543,"Ġtakes":2544,"Ġadded":2545,"Ġupon":2546,"Ġgeneral":2547,"Ġdel":2548,"Ġtou":2549,"Ġsle":2550,"Ġmedical":2551,"Ġnorm":2552,"istic":2553,"uge":2554,"ublic":2555,"Ġswe":2556,"Ġhair":2557,"Ġinit":2558,"Ġexact":2559,"Ġfa":2560,"ok":2561,"Ġuser":2562,"ules":2563,"Ġapply":2564,"Ġut":2565,"ring":2566,"Ġgra":2567,"empt":2568,"Ġpolicy":2569,"Ġsale":2570,"izing":2571,"Ġamazing":2572,"Ġinfl":2573,"Ġfoot":2574,"ĠCity":2575,"Ġsat":2576,"olutions":2577,"Ġoutside":2578,"--":2579,"iol":2580,"Ġsystems":2581,"itting":2582,"Ġpaper":2583,"Ġlatest":2584,"Ġusers":2585,"ees":2586,"ĠSec":2587,"ole":2588,"Ġinde":2589,"ience":2590,"Ġposition":2591,"face":2592,"Ġregular":2593,"Ġlangu":2594,"Ġ2008":2595,"rs":2596,"Ġprior":2597,"oogle":2598,"ades":2599,"pose":2600,"ĠJust":2601,"Ġsales":2602,"Ġsell":2603,"Ġrelated":2604,"ille":2605,"verse":2606,"Ġweeks":2607,"clus":2608,"erc":2609,"Ġple":2610,"Ġtable":2611,"dd":2612,"Ġkids":2613,"ĠMon":2614,"ĠDr":2615,"Ġwritten":2616,"Ġplatform":2617,"Ġready":2618,"itor":2619,"Ġeducation":2620,"Ġhigher":2621,"âĢĵ":2622,"Ġestab":2623,"Ġhon":2624,"ĠReg":2625,"ĠNorth":2626,"Ġvac":2627,"Ġequipment":2628,"Ġadditional":2629,"Ġwrite":2630,"Ġill":2631,"Ġcomment":2632,"apt":2633,"Ġstruct":2634,"itely":2635,"iet":2636,"Ġtreatment":2637,"icro":2638,"ung":2639,"Ġpan":2640,"Ġbox":2641,"Ġlay":2642,"ĠPer":2643,"Ġaction":2644,"ĉĊ":2645,"ĠHealth":2646,"ĠNational":2647,"minist":2648,"ĠEnglish":2649,"Ġreceived":2650,"just":2651,"Ġcoll":2652,"itc":2653,"Ġinsp":2654,"arget":2655,"Ġincrease":2656,"ams":2657,"Ġconditions":2658,"Ġcurrently":2659,"Ġloss":2660,"Ġsum":2661,"ĠInc":2662,"Ġstock":2663,"ĠUs":2664,"Ġleave":2665,"Ġvariety":2666,"Ġeasily":2667,"Our":2668,"sy":2669,"Ġmultip":2670,"reg":2671,"mit":2672,"ĠAct":2673,"Ġversion":2674,"Ġtour":2675,"head":2676,"gu":2677,"ening":2678,"Ġrecogn":2679,"Ã¢":2680,"Ġthroughout":2681,"Ġrate":2682,"my":2683,"ĠAf":2684,"Ġproduction":2685,"Ġinside":2686,"ĠThanks":2687,"Ġfeed":2688,"ysis":2689,"ned":2690,"Ġshows":2691,"ana":2692,"Ġanim":2693,"iter":2694,"ging":2695,"Ġbott":2696,"Ġaccording":2697,"Ġx":2698,"arant":2699,"ĠIm":2700,"Ġchoice":2701,"ĠNow":2702,"action":2703,"cription":2704,"ager":2705,"Ġmass":2706,"Ġopportunity":2707,"cast":2708,"Ġrole":2709,"Ġdom":2710,"Ġlocated":2711,"Ġweight":2712,"Ġroad":2713,"Ġbill":2714,"Ġsens":2715,"Ġdelivery":2716,"Ġpoints":2717,"Ġmeaning":2718,"lebr":2719,"Ġstandard":2720,"Ġdeath":2721,"Ġdescrib":2722,"Ġhol":2723,"Ġprivate":2724,"aced":2725,"Ġmarketing":2726,"gree":2727,"Ġbi":2728,"Ġsaf":2729,"ux":2730,"Ġcookies":2731,"Ġrights":2732,"Ġlooks":2733,"Ch":2734,"wise":2735,"Â½":2736,"ĠAb":2737,"Ġpercent":2738,"Ġcases":2739,"Ġclients":2740,"atory":2741,"Ġrunning":2742,"Ġmodern":2743,"ĠUK":2744,"Ġactivities":2745,"Ġwalk":2746,"Ġdest":2747,"Ġtotal":2748,"ĠHis":2749,"Ġfire":2750,"So":2751,"Ġparts":2752,"ĠPres":2753,"ĠEd":2754,"oura":2755,"ama":2756,"ese":2757,"ĠKe":2758,"Ġtypes":2759,"Ġcouple":2760,"Ġbehind":2761,"Ġmix":2762,"Ġquickly":2763,"Ġtit":2764,"Â¿":2765,"reci":2766,"Ġfig":2767,"Ġmoment":2768,"Ġmyself":2769,"oud":2770,"ĠTw":2771,"sc":2772,"Ġpotential":2773,"iction":2774,"Ġsites":2775,"Ġcause":2776,"ĠWorld":2777,"Ġideas":2778,"Ġproviding":2779,"aining":2780,"AL":2781,"Ġdeep":2782,"Ġannoun":2783,"Ġpers":2784,"Ġlives":2785,"ef":2786,"Ġneg":2787,"Ġheav":2788,"Ġprim":2789,"atter":2790,"Ġpractice":2791,"ĠBu":2792,"Ġbal":2793,"Ġeffic":2794,"Ġskills":2795,"Ġprotect":2796,"na":2797,"atur":2798,"ival":2799,"Ġground":2800,"ĠPre":2801,"hib":2802,"Ġdrive":2803,"edd":2804,"ĠHigh":2805,"ĠHere":2806,"Ġlegal":2807,"ĠDep":2808,"Ġoption":2809,"ES":2810,"AS":2811,"Ġones":2812,"Ġmember":2813,"ĠCor":2814,"Ġmaterials":2815,"Ġsong":2816,"Ġstra":2817,"Ġfavorite":2818,"irit":2819,"Ġep":2820,"akes":2821,"Ġbase":2822,"AC":2823,"eth":2824,"lier":2825,"ĠFin":2826,"OR":2827,"Ġexcellent":2828,"ĠSpe":2829,"Ġexcept":2830,"ED":2831,"ops":2832,"ĠAustral":2833,"right":2834,"based":2835,"ĠYork":2836,"ox":2837,"ĠSm":2838,"Ġnecessary":2839,"wor":2840,"Ġmention":2841,"Ġasked":2842,"What":2843,"Ġtrust":2844,"Ġsense":2845,"ief":2846,"Ġcode":2847,"Ġfirm":2848,"Ġrecent":2849,"ĠScot":2850,"era":2851,"oph":2852,"Ġmaintain":2853,"Ġcool":2854,"Ġwish":2855,"Ġsil":2856,"Ġmachine":2857,"rows":2858,"Ġrad":2859,"22":2860,"aves":2861,"Ġintrodu":2862,"ming":2863,"Ġhighly":2864,"mas":2865,"irus":2866,"ude":2867,"ceed":2868,"ffects":2869,"uth":2870,"Ġbuilt":2871,"ðŁ":2872,"Ġrecently":2873,"Ġleading":2874,"Ġcam":2875,"enced":2876,"Ġwall":2877,"put":2878,"Ġcy":2879,"Ġinsurance":2880,"Ġincluded":2881,"itchen":2882,"Ġsafety":2883,"Ġobs":2884,"irth":2885,"Ġfinal":2886,"Ġremember":2887,"like":2888,"ĠOff":2889,"Ġsmo":2890,"ground":2891,"ms":2892,"ĠStud":2893,"Ġteac":2894,"Ġsett":2895,"icated":2896,"Ġgrowth":2897,"ecut":2898,"60":2899,"Ġallows":2900,"Ġdraw":2901,"Ġpatients":2902,"Ġglobal":2903,"IC":2904,"mission":2905,"Ġimmedi":2906,"Ġinstead":2907,"Ġcoun":2908,"Ġscreen":2909,"Ġdefinitely":2910,"amb":2911,"Ġdise":2912,"VID":2913,"ĠGe":2914,"Ġeffective":2915,"Ġcompletely":2916,"My":2917,"Ġdaily":2918,"ters":2919,"Ġitem":2920,".)":2921,"Ġlocation":2922,"Ġflow":2923,"aby":2924,"To":2925,"ha":2926,"ĠWill":2927,"Ġinternational":2928,"erve":2929,"ĠEm":2930,"Ġfile":2931,"ĠArt":2932,"Ġimm":2933,"Ġaw":2934,"Ġsubs":2935,"Ġinteresting":2936,"Ġcollection":2937,"reng":2938,"Ġintegr":2939,"Ġthemselves":2940,"Ġdirectly":2941,"Ġball":2942,"Ġtarget":2943,"iddle":2944,"ĠAmerica":2945,"OT":2946,"Ġextreme":2947,"Ġregist":2948,"Ġanswer":2949,"Ġability":2950,"Ġtools":2951,"Ġcondition":2952,"Ġwrong":2953,"idge":2954,"ham":2955,"ĠDon":2956,"Ġchalleng":2957,"Ġemb":2958,"Ġdigital":2959,"Ġclos":2960,"âĢ¦]":2961,"Ġsepar":2962,"Ġheld":2963,"Ġremov":2964,"IT":2965,"Ġcountries":2966,"Ġdeliver":2967,"Ġsolution":2968,"Ġcelebr":2969,"Ġlif":2970,"Ġlower":2971,"Ġprojects":2972,"Ġsix":2973,"Ġcas":2974,"Ġhelps":2975,"Ġwoman":2976,"ĠSw":2977,"EN":2978,"ĠPar":2979,"Ġprices":2980,"ological":2981,"Ġsaw":2982,"Ġlic":2983,"40":2984,"pri":2985,"Ġsun":2986,"Ġdriv":2987,"Ġworked":2988,"Ġcosts":2989,"ĠAdd":2990,"Ġstuff":2991,"nal":2992,"fl":2993,"Ġinternet":2994,"ky":2995,"Ġbenefits":2996,"Ġcomputer":2997,"ĠFrom":2998,"airs":2999,"hood":3000,"Ġnetwork":3001,"Ġhear":3002,"Ġfix":3003,"inary":3004,"Ġtown":3005,"Ġitself":3006,"Ġ40":3007,"onse":3008,"Ġconc":3009,"cil":3010,"Ġcopy":3011,"Ġexpert":3012,"Ġspeak":3013,"ĠAut":3014,"Ġuses":3015,"olute":3016,"ĠScotland":3017,"Ġminim":3018,"Ġapproach":3019,"ales":3020,"lim":3021,"Ġcontract":3022,"eter":3023,"earch":3024,"urg":3025,"year":3026,"Ġadvert":3027,"ties":3028,"And":3029,"Ġwood":3030,"ĠAfric":3031,"ĠWhile":3032,"Ġsection":3033,"Ġattack":3034,"Ġlost":3035,"ached":3036,"Ġgives":3037,"Ġmatch":3038,"Ġhuge":3039,"ray":3040,"Ġhands":3041,"Ġmultiple":3042,"ought":3043,"ĠOf":3044,"ciety":3045,"Ġboard":3046,"ĠPark":3047,"ĠIndia":3048,"Ġofficial":3049,"Ġmother":3050,"Ġlevels":3051,"Ġdep":3052,"Ġdecision":3053,"Ġpiece":3054,"aste":3055,"Ġmanufacture":3056,"Ġclick":3057,"ivity":3058,"Ġmobile":3059,"Ġqual":3060,"Ġsave":3061,"IS":3062,"Ġâ":3063,"Ġlate":3064,"ram":3065,"Ġlanguage":3066,"Ġindividuals":3067,"bor":3068,"Ġthinking":3069,"iring":3070,"Ġstri":3071,"Ġgoes":3072,"Ġcertainly":3073,"ĠGoogle":3074,"Ġleaders":3075,"Ġcorrect":3076,"Ġtouch":3077,"Ġfresh":3078,"Ġsubst":3079,"hold":3080,"ests":3081,"Ġchance":3082,"Ġnational":3083,"Ġenter":3084,"rel":3085,"roups":3086,"Ġlimited":3087,"ĠBar":3088,"ĠWest":3089,"ĠThank":3090,"inc":3091,"ĠService":3092,"idered":3093,"ĠCounty":3094,"eal":3095,"Ġsource":3096,"Ġfully":3097,"band":3098,"Ġgiving":3099,"ension":3100,"Ġlab":3101,"Ġviol":3102,"Ġaffect":3103,"erous":3104,"Ġcand":3105,"Ġwar":3106,"Ġpurpose":3107,"Ġsqu":3108,"Ġpositive":3109,"Ġded":3110,"haps":3111,"Ġsolutions":3112,"Ġspeed":3113,"Ġdisplay":3114,"mon":3115,"Ġinterested":3116,"Ġnote":3117,"ule":3118,"ĠAcc":3119,"val":3120,"With":3121,"nds":3122,"ĠBlack":3123,"ĠInt":3124,"Ġattention":3125,"izes":3126,"Ġprevent":3127,"asons":3128,"iff":3129,"Ġnature":3130,"Ġprin":3131,"Ġappreci":3132,"ĠHouse":3133,"Ġ2007":3134,"Al":3135,"Ġstudent":3136,"Ġresources":3137,"Ġmorning":3138,"ĠFace":3139,"Ġattend":3140,"ĠServices":3141,"Ġadvice":3142,"cious":3143,"How":3144,"Ġdoor":3145,"Ġimage":3146,"Ġphotos":3147,"Ġencoura":3148,"cies":3149,"ption":3150,"Ġinform":3151,"Ġfine":3152,"Ġcirc":3153,"Ġsummer":3154,"Ġsituation":3155,"Ġstreng":3156,"Ġprograms":3157,"Ġround":3158,"Ġvehicle":3159,"Ġgrad":3160,"Ġaverage":3161,"Ġplayers":3162,"pre":3163,"Ġcert":3164,"Ġparents":3165,"hel":3166,"80":3167,"agn":3168,"Ġconsist":3169,"ĠMc":3170,"Ġdevice":3171,"Ġwonderful":3172,"Ġloan":3173,"Ġrout":3174,"vant":3175,"Ġguarant":3176,"Ġpath":3177,"Ġsometimes":3178,"ek":3179,"ibly":3180,"Ġblood":3181,"ession":3182,"Ġplaying":3183,"Ġgold":3184,"ny":3185,"itable":3186,"Ġoffe":3187,"Ġ21":3188,"Ġdog":3189,"erved":3190,"Ġphysical":3191,"Ġhor":3192,"Ġsn":3193,"ĠChina":3194,"ĠTV":3195,"roll":3196,"ags":3197,"atives":3198,"ĠDay":3199,"ĠThen":3200,"Ġloans":3201,"ĠCOVID":3202,"Ġrequirements":3203,"But":3204,"Ġsurpr":3205,"Ġpred":3206,"Ġgets":3207,"Ġcommer":3208,"Ġanalysis":3209,"Ġbud":3210,"Ġrev":3211,"Ġcross":3212,"Ġrent":3213,"All":3214,"gy":3215,"isf":3216,"iding":3217,"âĢĿ.":3218,"aly":3219,"Ġcareer":3220,"Ã©":3221,"bit":3222,"99":3223,"Ġdry":3224,"ĠCenter":3225,"usiness":3226,"Ġattempt":3227,"apan":3228,"igation":3229,"Ġdocument":3230,"Ġconcept":3231,"Ġfair":3232,"zy":3233,"Ġpromot":3234,"arden":3235,"ĠGerm":3236,"Ġver":3237,"Ġsus":3238,"Ġhttps":3239,"Ġconsidered":3240,"Ġregul":3241,"Ġprem":3242,"Ġmount":3243,"ube":3244,"24":3245,"Ġexactly":3246,"iver":3247,"Ġaccur":3248,"hern":3249,"Ġarch":3250,"Ġsaying":3251,"Ġ*":3252,"ĠTH":3253,"Ġdecided":3254,"ĠPresident":3255,"duct":3256,"ĠChristmas":3257,"Ġinvolved":3258,"ĠÂ£":3259,"ĠHer":3260,"ĠCr":3261,"Ġhit":3262,"Ġsupply":3263,"su":3264,"ÂĢ":3265,"Ġplans":3266,"Ġsche":3267,"Ġsold":3268,"isions":3269,"Ġfight":3270,"Ġdiv":3271,"Ġload":3272,"Ġhealthy":3273,"ederal":3274,"urb":3275,"body":3276,"Ġaware":3277,"Ġfeature":3278,"Ġpayment":3279,"Ġpublished":3280,"ĠAlso":3281,"Ġfelt":3282,"gar":3283,"yond":3284,"Ġinstru":3285,"Ġinnov":3286,"Ġobtain":3287,"org":3288,"Ġreviews":3289,"Ġreach":3290,"arily":3291,"23":3292,"rences":3293,"ĠPa":3294,"Ġactivity":3295,"Ġdark":3296,"Ġresponse":3297,"chan":3298,"Ġcomplex":3299,"Ġtruly":3300,"Ġge":3301,"Ġthank":3302,"Ġbra":3303,"artment":3304,"Ġfab":3305,"Ġgroups":3306,"Ġdream":3307,"Ġgoal":3308,"vey":3309,"Ġwarm":3310,"Ġthanks":3311,"Ġshipping":3312,"Ġearn":3313,"aign":3314,"lied":3315,"ishing":3316,"Ġexerc":3317,"ĠGet":3318,"itter":3319,"ĠĠ":3320,"Ġstories":3321,"Ġcat":3322,"ĠFe":3323,"ĠAny":3324,"ĠVal":3325,"Ġmeeting":3326,"illing":3327,"Ġunderstanding":3328,"ĠAc":3329,"ĠEl":3330,"ĠBrit":3331,"ÂĢÂ":3332,"Ġbehav":3333,"Ġanaly":3334,"Ġstarting":3335,"Ġimages":3336,"nes":3337,"enty":3338,"Ġrelease":3339,"aries":3340,"Ġinj":3341,"wood":3342,"hest":3343,"ĠAir":3344,"Ġcarry":3345,"Ġpartners":3346,"Ġcenter":3347,"ĠEvery":3348,"Ġavoid":3349,"Ġdru":3350,"ĠBook":3351,"ĠCB":3352,"Ġabsolute":3353,"antly":3354,"Ġindepend":3355,"pes":3356,"Ġcommit":3357,"word":3358,"Ġmaybe":3359,"Ġgreen":3360,"itute":3361,"ĠInternational":3362,"oms":3363,"ĠAre":3364,"onst":3365,"Ġenh":3366,"Ġcourt":3367,"ĠChar":3368,"ĠHome":3369,"Ġkitchen":3370,"Ġformer":3371,"ĠBro":3372,"Ġplaces":3373,"Ġimplement":3374,"Ġdeveloped":3375,"Ġconsult":3376,"ns":3377,"Ġrestaur":3378,"Ġpolitical":3379,"Ġsleep":3380,"Ġloved":3381,"ester":3382,"Ġtraditional":3383,"Ġconnect":3384,"Ġsharing":3385,"ruit":3386,"ma":3387,"Ġapart":3388,"Ġtried":3389,"Ġpaid":3390,"Ġdifference":3391,"ography":3392,"Ġjud":3393,"itation":3394,"cul":3395,"Ġblock":3396,"ĠAssoci":3397,"www":3398,"Ġ+":3399,"Ġconvers":3400,"more":3401,"Ġemerg":3402,"ffee":3403,"Ġtowards":3404,"Ġfeeling":3405,"Ġbirth":3406,"Ġeyes":3407,"\\\\\\\\\\\\\\\\":3408,"Ġheard":3409,"Re":3410,"aches":3411,"Ġadult":3412,"Ġresponsible":3413,"Ġguide":3414,"change":3415,"Ġcash":3416,"Ġwasn":3417,"rought":3418,"Ġessential":3419,"ĠCons":3420,"uses":3421,"Ġfrequ":3422,"Ġachieve":3423,"ĠðŁ":3424,"ker":3425,"Ġadminist":3426,"Ġreve":3427,"Ġbusinesses":3428,"Ġbecame":3429,"iforn":3430,"Ġuseful":3431,"itary":3432,"Ġmessage":3433,"Ġinflu":3434,"Ġslow":3435,"board":3436,"Ġwel":3437,"amed":3438,"ĠNet":3439,"Ġapplications":3440,"anc":3441,"raft":3442,"Ġnut":3443,"Ġpattern":3444,"Ġaltern":3445,"Ġcreating":3446,"oul":3447,"Ġobject":3448,"Ġtemper":3449,"Ġwait":3450,"ĠFree":3451,"Ġcontain":3452,"ĠMost":3453,"Ġeffects":3454,"iles":3455,"Ġprogress":3456,"Ġorganization":3457,"ength":3458,"Ġlog":3459,"ĠCour":3460,"ĠSupp":3461,"Ġing":3462,"Ġemployees":3463,"Ġwal":3464,"ĠGreat":3465,"Ġprevious":3466,"Ġtrip":3467,"ĠHar":3468,"Ġcharge":3469,"Ġbrows":3470,"Ġheat":3471,"ĠAg":3472,"Ġposts":3473,"Ġimag":3474,"Ġimpress":3475,"Ġprofession":3476,"Ġstress":3477,"sp":3478,"Ġdire":3479,"sych":3480,"Ġaim":3481,"Ġopin":3482,"Ġstru":3483,"ĠDirect":3484,"Ġplanning":3485,"ilies":3486,"Ġgrowing":3487,"Ġculture":3488,"Ġnormal":3489,"Ġdistribut":3490,"Ġmis":3491,"ĠSer":3492,"ondon":3493,"ifornia":3494,"Â®":3495,"Ġter":3496,"urning":3497,"Ġson":3498,"ara":3499,"Ġassociated":3500,"ibr":3501,"Ġappropri":3502,"het":3503,"iced":3504,"Ġdress":3505,"Ġbroad":3506,"Ġadvant":3507,"ĠFacebook":3508,"ĠJes":3509,"ĠAmaz":3510,"omen":3511,"Ġcommercial":3512,"wide":3513,"orage":3514,"Ġcomments":3515,"rial":3516,"Ġbank":3517,"Ġdamage":3518,"70":3519,"ĠKing":3520,"ĠJapan":3521,"Ġgave":3522,"'d":3523,"ened":3524,"Ġfem":3525,"Ġpen":3526,"ĠMus":3527,"Ġnotice":3528,"ĠBest":3529,"Ġ[âĢ¦]":3530,"uate":3531,"Ġcrusher":3532,"Ġowners":3533,"Ġroll":3534,"Ġeat":3535,"Ġmark":3536,"AM":3537,"ancing":3538,"ĠLaw":3539,"ancy":3540,"sequ":3541,"aughter":3542,"Ġregarding":3543,"Ġpow":3544,"At":3545,"ospital":3546,"Ġbath":3547,"Ġeffort":3548,"enge":3549,"Ġshop":3550,"ashion":3551,"off":3552,"ashing":3553,"ĠSim":3554,"arter":3555,"place":3556,"Ġbegan":3557,"Ġinvestment":3558,"uk":3559,"rote":3560,"Ġsatisf":3561,"Ġdepart":3562,"ĠDepartment":3563,"rench":3564,"ares":3565,"Ġdead":3566,"Ġassess":3567,"ĠSci":3568,"ari":3569,"Ġult":3570,"Ġhour":3571,"Ġinterview":3572,"ĠFirst":3573,"add":3574,"set":3575,"ĠCanada":3576,"Ġtele":3577,"ĠGl":3578,"Ġdefe":3579,"down":3580,"Ġfloor":3581,"Ġmid":3582,"Ġoffering":3583,"care":3584,"Ġexpected":3585,"nded":3586,"Ġadjust":3587,"ĠMr":3588,"Ġ22":3589,"Ġhus":3590,"rast":3591,"ĠTrans":3592,"Ġrespond":3593,"Ġconstruction":3594,"ague":3595,"Ġarriv":3596,"ications":3597,"duc":3598,"Ġoffered":3599,"iam":3600,"oday":3601,"Ġgas":3602,"ĠUp":3603,"Ġrates":3604,"ĠRed":3605,"Ġneigh":3606,"attle":3607,"Ġfant":3608,"orge":3609,"ĠCompany":3610,"ores":3611,"ĠGener":3612,"Ġ;":3613,"Ġreleased":3614,"atever":3615,"Ġextremely":3616,"idents":3617,"Ġri":3618,"Ġacqu":3619,"Ġmoving":3620,"ica":3621,"Ġfarm":3622,"ĠDav":3623,"Ġdemand":3624,"Ġdisease":3625,"Ġsort":3626,"Ġstates":3627,"vis":3628,"Ġpressure":3629,"dom":3630,"Ġhous":3631,"Ġcateg":3632,"ĠGroup":3633,"sec":3634,"ĠSee":3635,"Ġreplace":3636,"Ġmeasure":3637,"Ġspirit":3638,"ĠSan":3639,"Ġflav":3640,"Ġtransfer":3641,"AP":3642,"Ġpropos":3643,"ĠDel":3644,"Ġwear":3645,"oming":3646,"Ġthous":3647,"Ġpages":3648,"Ġ60":3649,"key":3650,"mitted":3651,"Ġreli":3652,"Ġ--":3653,"Ġreported":3654,"Ġsav":3655,"Ġ23":3656,"Ġdy":3657,"Ġgift":3658,"unt":3659,"ronic":3660,"inding":3661,"ĠCommun":3662,"Ġimmediately":3663,"Ġhistor":3664,"Ġbaby":3665,"Ġsuccessful":3666,"Ġprotection":3667,"Ġcontinu":3668,"Ġeasier":3669,"Ġliter":3670,"Ġemot":3671,"Ġmovie":3672,"icks":3673,"Ġactive":3674,"ĠCalifornia":3675,"ipped":3676,"Ġevidence":3677,"ĠLet":3678,"Ġtips":3679,"Ġknew":3680,"Ġscience":3681,"Ġsam":3682,"zz":3683,"Ġsmart":3684,"Ġbeyond":3685,"Ġble":3686,"Ġkn":3687,"Ġbasis":3688,"Ġprefer":3689,"pite":3690,"icate":3691,"Ġsteel":3692,"Ġcampaign":3693,"Ġcompon":3694,"pects":3695,"Ġdating":3696,"error":3697,"urt":3698,"Ġbasic":3699,"ĠCoun":3700,"ĠEven":3701,"ĠWar":3702,"Ġopportunities":3703,"istics":3704,"Ġlots":3705,"oke":3706,"Ġlack":3707,"Ġregion":3708,"vest":3709,"ĠSund":3710,"ĠRuss":3711,"ĠBusiness":3712,"ĠTechn":3713,"aks":3714,"ĠOut":3715,"One":3716,"Ġafford":3717,"Ġcapt":3718,"ses":3719,"Ġcontribut":3720,"ĠâĢĻ":3721,"Ġbeginning":3722,"Ġwants":3723,"Ġoccur":3724,"etic":3725,"Ġfinally":3726,"ĠMarket":3727,"Ġten":3728,"ĠLondon":3729,"Ġbrought":3730,"EO":3731,"Ġfra":3732,"Ġpet":3733,"Ġpicture":3734,"Sh":3735,"Ġtalking":3736,"Ġglass":3737,"Ġselection":3738,"ĠTrump":3739,"EC":3740,"oly":3741,"ĠFriday":3742,"Ġlinks":3743,"Ġnumbers":3744,"ĠDesign":3745,"Ġfat":3746,"Ġstraight":3747,"ĠJesus":3748,"anch":3749,"Ġeconomic":3750,"Ġorganiz":3751,"Ġvirt":3752,"Ġutil":3753,"Ġwife":3754,"Ġspread":3755,"Ġproced":3756,"Ġexecut":3757,"ously":3758,"aint":3759,"Ġlargest":3760,"Ġfather":3761,"Ġrules":3762,"oot":3763,"Ġhomes":3764,"ĠPost":3765,"Ġeye":3766,"ĠNews":3767,"Ġrock":3768,"Ġbenefit":3769,"ĠProf":3770,"Ġreduce":3771,"Ġscient":3772,"Ġcomfortable":3773,"Ġspot":3774,"Ġgar":3775,"ils":3776,"Ġoptim":3777,"amm":3778,"Ġguid":3779,"edding":3780,"house":3781,"PS":3782,"26":3783,"Ġchem":3784,"Ġfeet":3785,"Ġalone":3786,"Ġshown":3787,"Ġpowerful":3788,"Ġturned":3789,"Ġjoin":3790,"Ġweeke":3791,"Ġframe":3792,"Ġclient":3793,"Ġtrade":3794,"Ġcollege":3795,"ĠMany":3796,"ivil":3797,"Ġfamilies":3798,"bon":3799,"Ġchanged":3800,"ĠWell":3801,"Ġcold":3802,"OS":3803,"Ġdro":3804,"Ġsurface":3805,"lies":3806,"rate":3807,"ato":3808,"US":3809,"ĠAmazon":3810,"Ġexperienced":3811,"Ġrelig":3812,"Ġelectric":3813,"inated":3814,"ĠGood":3815,"aling":3816,"ida":3817,"Ġhusband":3818,"Ġinfo":3819,"Ġclin":3820,"Ġaccom":3821,"Ġreasons":3822,"à¤":3823,"Ġspent":3824,"Ġhelpful":3825,"Ġ28":3826,"Ġmaxim":3827,"ĠEuropean":3828,"Be":3829,"Ġmodels":3830,"27":3831,"Ġvideos":3832,"ault":3833,"ĠMod":3834,"Ġextend":3835,"iling":3836,"Ġbatter":3837,"Ġnation":3838,"Ġschools":3839,"Ġprinci":3840,"Ġserve":3841,"pen":3842,"Ġ=":3843,"Ġsweet":3844,"ĠAustralia":3845,"Ġcry":3846,"ĠAss":3847,"undred":3848,"ville":3849,"Ġhelping":3850,"Ġexclus":3851,"col":3852,"rive":3853,"Ġjourney":3854,"Ġparticularly":3855,"ris":3856,"Ġhotel":3857,"200":3858,"Ġidentify":3859,"Ġlooked":3860,"ĠMet":3861,"Ġideal":3862,"ĠPat":3863,"Ġpolice":3864,"Ġincred":3865,"Ġmechan":3866,"lock":3867,"Ġdevices":3868,"Ġled":3869,"Ġtitle":3870,"Ġestate":3871,"mail":3872,"Ġarr":3873,"After":3874,"porate":3875,"ĠPriv":3876,"Ġhighest":3877,"Ġclot":3878,"28":3879,"ĠMich":3880,"Ġtruth":3881,"poses":3882,"Ġtransport":3883,"Ġsetting":3884,"Ġphoto":3885,"Ġrefer":3886,"lying":3887,"ĠOther":3888,"Ġ26":3889,"Ġdegree":3890,"Ġband":3891,"ĠEast":3892,"ET":3893,"Ġinstitut":3894,"Ġshared":3895,"tee":3896,"onday":3897,"Ġund":3898,"ING":3899,"Ġincreased":3900,"acity":3901,"bum":3902,"estern":3903,"ĠEduc":3904,"Ġ2006":3905,"Ġhimself":3906,"ĠCollege":3907,"Ġpull":3908,"Ġ@":3909,"Ex":3910,"Ġremain":3911,"Ġproduce":3912,"Ġdoub":3913,"Ġ198":3914,"Ġincome":3915,"aker":3916,"hens":3917,"LL":3918,"eria":3919,"Ġfear":3920,"Ġoverall":3921,"Ġaren":3922,"aming":3923,"Ġwrote":3924,"Ġfinish":3925,"ĠProgram":3926,"Ġappropriate":3927,"Ġposted":3928,"Ġplus":3929,"Ġstage":3930,"Ġbudget":3931,"Ġstructure":3932,"Ġrecipe":3933,"Ġeval":3934,"Ġstrength":3935,"Ġhelped":3936,"force":3937,"Ġjobs":3938,"Ġoccas":3939,"Ġcru":3940,"Ġvict":3941,"esome":3942,"ologies":3943,"Ġincreasing":3944,"icking":3945,"overed":3946,"Ġstudies":3947,"cause":3948,"Ġpleas":3949,"rated":3950,"Ġhop":3951,"log":3952,"idential":3953,"Ġpartner":3954,"Ġnearly":3955,"Ġthreat":3956,"Ġcreative":3957,"cel":3958,"Ġcapital":3959,"Ġsurv":3960,"Ġpurposes":3961,"Ġsecure":3962,"Ġsust":3963,"well":3964,"Ġactual":3965,"Ġallowed":3966,"Ġserious":3967,"rol":3968,"istry":3969,"Ġsports":3970,"Ġotherwise":3971,"Ġplayed":3972,"Ġprocessing":3973,"ald":3974,"ĠIndian":3975,"Ġplayer":3976,"alt":3977,"ĠSunday":3978,"Ġstatement":3979,"Ġingred":3980,"Ġresist":3981,"Ġfiles":3982,"Ġorders":3983,"Ġsteps":3984,"hy":3985,"Ġalthough":3986,"Ġgenerally":3987,"eds":3988,"Ġconnection":3989,"Ġlines":3990,"Ġstrugg":3991,"AD":3992,"Ġdoll":3993,"Ġgoals":3994,"hol":3995,"Ġwild":3996,"Ġappoint":3997,"\".":3998,"Ġpictures":3999,"rapy":4000,"free":4001,"asc":4002,"order":4003,"Ġcontains":4004,"Ġ27":4005,"iny":4006,"Ġmethods":4007,"Ġparties":4008,"ĠClick":4009,"ĠPort":4010,"Ġlength":4011,"Ġstorage":4012,"Ġlisted":4013,"Ġunit":4014,"Ġcoffee":4015,"ubs":4016,"anging":4017,"Ġye":4018,"oices":4019,"door":4020,"Ġguys":4021,"Ġaward":4022,"olf":4023,"Ġweather":4024,"Ġconven":4025,"Ġcancer":4026,"odes":4027,"Ġtick":4028,"raw":4029,"icing":4030,"Ġprec":4031,"29":4032,"Ġgreater":4033,"Ġharm":4034,"ĠPolicy":4035,"pective":4036,"Ġcompared":4037,"Ġowner":4038,"Ġsurround":4039,"inate":4040,"asy":4041,"ĠUse":4042,"ĠSen":4043,"unk":4044,"orrow":4045,"ani":4046,"Ġconv":4047,"Ġcolle":4048,"Ġviews":4049,"Ġmiddle":4050,"ĠLa":4051,"Ġbottom":4052,"ĠWhite":4053,"Ġsty":4054,"ĠBel":4055,"Ġvot":4056,"Ġprimary":4057,"Ġcove":4058,"eed":4059,"Ġtherefore":4060,"Ar":4061,"lin":4062,"aled":4063,"__":4064,"Ã¯":4065,"Ph":4066,"Ġforce":4067,"Ġpatient":4068,"35":4069,"Ġplants":4070,"Ġtrou":4071,"Ġgrand":4072,"Ġhaven":4073,"Ġcards":4074,"ĠLear":4075,"Ġshopping":4076,"iant":4077,"encies":4078,"ugh":4079,"inese":4080,"âĢĿ,":4081,"reed":4082,"ĠEar":4083,"Ġseeing":4084,"ĠWind":4085,"itiz":4086,"Ġnovel":4087,"Ġcandid":4088,"Ġlock":4089,"ocr":4090,"Ġreports":4091,"Ġhundred":4092,"Ġborn":4093,"Ġcouldn":4094,"ford":4095,"Ġdouble":4096,"iler":4097,"Ġir":4098,"iber":4099,"ĠRem":4100,"Ġdiscover":4101,"Ġrace":4102,"andemic":4103,"ĠDist":4104,"Ġsociety":4105,"Ġstream":4106,"atically":4107,"Ġdelic":4108,"Ġpeace":4109,"Ġexisting":4110,"term":4111,"Ġdemonst":4112,"Ġsym":4113,"ett":4114,"OU":4115,"ounds":4116,"Ġtopic":4117,"Ġpieces":4118,"ĠSystem":4119,"Ġden":4120,"Ġfaith":4121,"arrant":4122,"porary":4123,"inner":4124,"Ġarticles":4125,"Ġwebsites":4126,"That":4127,"Ġsand":4128,"ĠMonday":4129,"Ġrelevant":4130,"inger":4131,"Ġstrategy":4132,"Ġefficient":4133,"Ġheavy":4134,"Ġtechnical":4135,"Ġcraft":4136,"Ġblue":4137,"Ġproperties":4138,"ĠTex":4139,"Ġslight":4140,"Ġcharacters":4141,"ĠCle":4142,"Ġahead":4143,"Ġperhaps":4144,"BC":4145,"Ġearlier":4146,"Ġannounced":4147,"Ġfan":4148,"Ġrestrict":4149,"Ġpray":4150,"ĠWhe":4151,"Ġhttp":4152,"Ġexperiences":4153,"atively":4154,"Ġfurn":4155,"Ġpool":4156,"Ġwhose":4157,"Ġremove":4158,"ĠSuper":4159,"ĠSatur":4160,"ĠOb":4161,"Ġmanage":4162,"Ġchurch":4163,"ico":4164,"itude":4165,"Ġnames":4166,"coming":4167,"Ġentertain":4168,"Ġpassion":4169,"Ġfinding":4170,"ĠStreet":4171,"ero":4172,"Ġrequires":4173,"ooking":4174,"Ġtransl":4175,"ĠHot":4176,"Ġestablished":4177,"75":4178,"Ġchann":4179,"usion":4180,"rael":4181,"45":4182,"Ġorigin":4183,"text":4184,"mark":4185,"Ġrepair":4186,"icip":4187,"Ġbreat":4188,"Ġtrain":4189,"gal":4190,"using":4191,"Ġdecor":4192,"ĠDem":4193,"Ġexperts":4194,"AA":4195,"Ġabsolutely":4196,"icine":4197,"pm":4198,"Ġcast":4199,"Ġcollabor":4200,"Ġfactors":4201,"ship":4202,"Ġguess":4203,"Ġobv":4204,"Ġbackground":4205,"Ġgirls":4206,"Ġpu":4207,"Ġpsych":4208,"oos":4209,"Ġbrain":4210,"Ġbur":4211,"Ġupdate":4212,"ĠGold":4213,"Ġweekend":4214,"Ġhappened":4215,"la":4216,"nding":4217,"Ġship":4218,"ĠFrench":4219,"dule":4220,"Ġassign":4221,"que":4222,"tenance":4223,"Ġpoor":4224,"iques":4225,"Ġmentioned":4226,"ying":4227,"ĠIr":4228,"Ġstatus":4229,"Ġretail":4230,"Ġchallenge":4231,"lands":4232,"Ġluck":4233,"Hi":4234,"Ġaffili":4235,"iment":4236,"Ġesc":4237,"ĠEach":4238,"ament":4239,"Ġalbum":4240,"ĠSince":4241,"Ġvoice":4242,"press":4243,"Ġwhatever":4244,"IP":4245,"gen":4246,"ĠCourt":4247,"Ġfriendly":4248,"Ġattract":4249,"Ġpaint":4250,"Ġcovered":4251,"ĠGreen":4252,"Ġdang":4253,"Ġsuff":4254,"pa":4255,"Ġstandards":4256,"Ġmicro":4257,"Ġfashion":4258,"Ġdiet":4259,"ĠOver":4260,"Ġfees":4261,"Ġtree":4262,"ĠSk":4263,"ech":4264,"33":4265,"Ġrelax":4266,"gage":4267,"ĠClass":4268,"Ġdaughter":4269,"Ġtim":4270,"Ġsen":4271,"iation":4272,"rief":4273,"Ġhonest":4274,"Ġmaster":4275,"Ġpopulation":4276,"Ġgone":4277,"Ġanti":4278,"Ġmo":4279,"ĠRec":4280,"Ġrich":4281,"Ġmoved":4282,"Ġgarden":4283,"Ġcritical":4284,"itect":4285,"iture":4286,"Ġbul":4287,"ĠLord":4288,"Ġbuying":4289,"ĠWhy":4290,"apter":4291,"Ġtesting":4292,"Ġolder":4293,"ĠJe":4294,"Ġreality":4295,"standing":4296,"ipe":4297,"Ġdat":4298,"Ġprivacy":4299,"Ġfigure":4300,"Ġteams":4301,"field":4302,"isc":4303,"Ġpros":4304,"By":4305,"Ġflex":4306,"Ġunf":4307,"osing":4308,"ĠOnce":4309,"roud":4310,"Ġproduced":4311,"Ġtraffic":4312,"ĠII":4313,"asks":4314,"Ġdur":4315,"Ġacad":4316,"Pro":4317,"Ġdriving":4318,"Ġfollowed":4319,"Ġcommunication":4320,"ĠInternet":4321,"Ġentry":4322,"ĠDevelop":4323,"arc":4324,"Ġexpand":4325,"ĠMa":4326,"Ġban":4327,"Ġmilitary":4328,"Ġdedicated":4329,"Please":4330,"Ġdrop":4331,"Ġlimit":4332,"Ġlarger":4333,"Ġgraph":4334,"Ġdiscount":4335,"Ġannual":4336,"Ġlearned":4337,"ĠChristian":4338,"Ġmovement":4339,"see":4340,"Ġkept":4341,"rab":4342,"ĠCustom":4343,"Ġpandemic":4344,"Ġvalid":4345,"Ġcolors":4346,"Ġrat":4347,"Ġfol":4348,"Ġargu":4349,"ĠBoard":4350,"ĠCare":4351,"Ġteaching":4352,"Ġcells":4353,"ĠSaturday":4354,"Ġincor":4355,"These":4356,"roid":4357,"Ġadop":4358,"Ġplaced":4359,"ĠFind":4360,"\",":4361,"Ġhandle":4362,"100":4363,"Ġstar":4364,"ĠInter":4365,"Ġguy":4366,"ij":4367,"unn":4368,"ĠCBD":4369,"Ġadvertising":4370,"Ġstone":4371,"Ġunless":4372,"Ġcann":4373,"ĠPal":4374,"enses":4375,"ĠOnline":4376,"Ġadvantage":4377,"Ġadvance":4378,"box":4379,"Ġmiles":4380,"ĠPeople":4381,"ĠHol":4382,"rupt":4383,"Ġsmooth":4384,"ĠPC":4385,"ĠSelect":4386,"ĠData":4387,"Ġshape":4388,"ĠYear":4389,"venue":4390,"ĠBritish":4391,"vision":4392,"ribute":4393,"phone":4394,"ĠChurch":4395,"Ġindependent":4396,"ĠInformation":4397,"rem":4398,"ĠOffice":4399,"Ġbag":4400,"Ġcompleted":4401,"ĠManagement":4402,"Ġefforts":4403,"Ġchallenges":4404,"ĠTexas":4405,"Ġwouldn":4406,"ctors":4407,"ael":4408,"ĠAP":4409,"ĠEducation":4410,"fast":4411,"Ġcentury":4412,"MS":4413,"Ġwedding":4414,"Ġbutton":4415,"Do":4416,"Ġmist":4417,"Ġbought":4418,"acing":4419,"actions":4420,"Ġrepe":4421,"Ġ29":4422,"Ġexercise":4423,"ollow":4424,"osure":4425,"Ġscore":4426,"ĠCouncil":4427,"ĠChinese":4428,"Ġcapacity":4429,"Ġmer":4430,"Com":4431,"emy":4432,"65":4433,"Ġmetal":4434,"Ġprofessionals":4435,"Ġwat":4436,"ym":4437,"Ġpackage":4438,"ortunately":4439,"No":4440,"Ġvacc":4441,"Ġbalance":4442,"Ġmission":4443,"Ġlands":4444,"Ġearth":4445,"Ġtend":4446,"Ġkeeping":4447,"ĠSch":4448,"Ġfill":4449,"Ġbrother":4450,"Ġwindow":4451,"bu":4452,"Ġinvestig":4453,"Ġhom":4454,"ught":4455,"Ġknows":4456,"rim":4457,"Ġestablish":4458,"Ġonto":4459,"Ġappreciate":4460,"Ġfinished":4461,"Ġbillion":4462,"Ġvalues":4463,"ĠSpr":4464,"Ġforms":4465,"know":4466,"Ġdisapp":4467,"ĠPlay":4468,"Ġcleaning":4469,"ented":4470,"Ġfans":4471,"ashington":4472,"Ġcream":4473,"ĠMor":4474,"ula":4475,"Ġopening":4476,"Ġadvanced":4477,"Ġwinter":4478,"Ġlaws":4479,"OM":4480,"LC":4481,"ĠSa":4482,"Ġcompl":4483,"Ġvill":4484,"Ġelements":4485,"Ġthoughts":4486,"olic":4487,"ĠBra":4488,"Ġcab":4489,"Ġrare":4490,"Ġdescribed":4491,"useum":4492,"Ġ80":4493,"ĠTop":4494,"iled":4495,"ĠFlor":4496,"Ġlibr":4497,"rig":4498,"Ġdete":4499,"ĠUSA":4500,"ĠBecause":4501,"Ġletter":4502,"Ġdecl":4503,"ĠIT":4504,"Ġwaiting":4505,"orial":4506,"Ġshoot":4507,"Ġholiday":4508,"Ġbow":4509,"ĠReview":4510,"31":4511,"iency":4512,"ading":4513,"arge":4514,"Ġsto":4515,"Ġorganizations":4516,"ĠWeb":4517,"works":4518,"Ġadvent":4519,"Ġepis":4520,"LE":4521,"Ġdetermine":4522,"Ġworkers":4523,"Ġmeant":4524,"ĠIsrael":4525,"Ġbeauty":4526,"Ġclassic":4527,"Ġtemperature":4528,"Ġthousands":4529,"ĠAnt":4530,"Ġexplore":4531,"Ġupdated":4532,"fit":4533,"Ġmotor":4534,"ĠAfrica":4535,"oman":4536,"Ġsolid":4537,"ĠResearch":4538,"Ġdoctor":4539,"ails":4540,"vere":4541,"âĦ":4542,"Ġscen":4543,"rey":4544,"rehens":4545,"Ġhappens":4546,"Ġadding":4547,"ĠAN":4548,"hem":4549,"ĠEngine":4550,"olate":4551,"miss":4552,"Ġmort":4553,"ads":4554,"While":4555,"Ġimpl":4556,"Ġcheap":4557,"ios":4558,"Ġwelcome":4559,"Ġcris":4560,"Ġcommunities":4561,"ĠPlan":4562,"Ġmemory":4563,"Ġpractices":4564,"Ġreflect":4565,"Ġbiggest":4566,"90":4567,"ĠCheck":4568,"ĠTerm":4569,"Ġboy":4570,"riage":4571,"Ġcaused":4572,"overy":4573,"ĠRel":4574,"ĠLife":4575,"Ġclosed":4576,"Ġremind":4577,"Ġsexual":4578,"ady":4579,"entially":4580,"Ġpresented":4581,"ĠWord":4582,"Ġdiagn":4583,"Ġoperations":4584,"Ġleaves":4585,"itors":4586,"ĠAssociation":4587,"ĠTy":4588,"Ġfederal":4589,"Ġshot":4590,"ĠRet":4591,"ĠIns":4592,"Ġnamed":4593,"ĠPay":4594,"Ġsources":4595,"amily":4596,"Ġclaims":4597,"ĠAv":4598,"Ġeconomy":4599,"icken":4600,"Ġgovern":4601,"rees":4602,"Ġtotally":4603,"ls":4604,"Ġcalls":4605,"Ġbecomes":4606,"Ġtaste":4607,"Ġgain":4608,"icies":4609,"ishes":4610,"Ġ90":4611,"ivered":4612,"Ġpassed":4613,"Ġserved":4614,"isl":4615,"Ġopinion":4616,"Ġflu":4617,"ĠRepublic":4618,"Ġcircum":4619,"Ġwarrant":4620,"Ġsustain":4621,"ĠGeneral":4622,"âĦ¢":4623,"500":4624,"Ġquant":4625,"Ġrelationships":4626,"ĠLove":4627,"Ġcars":4628,"Ġconnected":4629,"Ġbrowser":4630,"Ġign":4631,"ferences":4632,"Ġexchange":4633,"arks":4634,"Ġdirection":4635,"Ġplenty":4636,"ĠPhot":4637,"ga":4638,"Ġbedroom":4639,"lled":4640,"ĠWashington":4641,"Ġdecide":4642,"Ġhighlight":4643,"ĠWed":4644,"Ġbright":4645,"yer":4646,"ĠSing":4647,"Ġfabric":4648,"ĠAnn":4649,"Ġlose":4650,"Ġselected":4651,"Ġcannab":4652,"ĠDavid":4653,"ston":4654,"Ġbon":4655,"ĠMac":4656,"imb":4657,"ternal":4658,"Â¯":4659,"Ġleader":4660,"ommod":4661,"Ġprovider":4662,"oles":4663,"Ġspring":4664,"Ġmaintenance":4665,"ĠJew":4666,"Ġfantastic":4667,"Ġunc":4668,"ĠVis":4669,"ĠFound":4670,"semb":4671,"ĠMem":4672,"Ġcamera":4673,"Ġconfirm":4674,"Ġregistered":4675,"Ġgrant":4676,"ĠIN":4677,"Ġclearly":4678,"icon":4679,"Ġ2005":4680,"ĠPublic":4681,"apers":4682,"Ġcalcul":4683,"ller":4684,"Ġresponsibility":4685,"state":4686,"Ġfee":4687,"Ġemp":4688,"Ġprot":4689,"omb":4690,"Ġnumerous":4691,"Ġingredients":4692,"Ġproud":4693,"ĠEngland":4694,"Ġmedium":4695,"orry":4696,"ups":4697,"Ġcombination":4698,"Ġforget":4699,"gn":4700,"ifying":4701,"Ġrob":4702,"Ġpark":4703,"ĠLoc":4704,"Ġoperating":4705,"Ġcompar":4706,"ĠDec":4707,"Ġsitu":4708,"Ġseparate":4709,"Ġprepared":4710,"SS":4711,"ĠJack":4712,"Ġenjoyed":4713,"ĠCong":4714,"ros":4715,"Ġselling":4716,"oop":4717,"uesday":4718,"Ġsecret":4719,"Ġglad":4720,"Ġeth":4721,"Ġapplied":4722,"osis":4723,"Ġserver":4724,"Ġflat":4725,"Ġworry":4726,"Cl":4727,"Ġfamous":4728,"how":4729,"ĠBank":4730,"Ġchanging":4731,"udd":4732,"abilities":4733,"ĠSub":4734,"Ġbehavior":4735,"ION":4736,"za":4737,"Ġstick":4738,"Ġagreement":4739,"Ġintended":4740,"Ġrap":4741,"Ġcentral":4742,"Ġrecommended":4743,"Ġawesome":4744,"Your":4745,"Ġdeveloping":4746,"Ġsounds":4747,"itar":4748,"Ġcart":4749,"Ġiniti":4750,"Ġmental":4751,"Ġdetailed":4752,"ĠMo":4753,"Ġactions":4754,"Ġcounter":4755,"Ġnav":4756,"Ġthus":4757,"Ġclasses":4758,"Ġtom":4759,"ĠMake":4760,"Ġexhib":4761,"Ġton":4762,"Ġboo":4763,"umber":4764,"Ġchat":4765,"Ġjournal":4766,"Ġbrands":4767,"Ġbeg":4768,"tra":4769,"Ġran":4770,"isation":4771,"gment":4772,"Ġmostly":4773,"ersonal":4774,"EM":4775,"Ġwatching":4776,"craft":4777,"Ġtypically":4778,"Ġreliable":4779,"Ġestim":4780,"ĠMonth":4781,"ervation":4782,"ĠPaul":4783,"Ġtechniques":4784,"Ġadapt":4785,"Ġseven":4786,"ĠWater":4787,"ĠMag":4788,"ĠVe":4789,"36":4790,"Ġwine":4791,"Ġfunds":4792,"??":4793,"OL":4794,"active":4795,"Ġcourses":4796,"Ġmajority":4797,"Ġshowing":4798,"**":4799,"Ġ31":4800,"Ġcloud":4801,"Ġdiscussion":4802,"ĠAlthough":4803,"Ġalternative":4804,"Ġice":4805,"ĠHy":4806,"Un":4807,"rd":4808,"Ġexcited":4809,"rics":4810,"agram":4811,"ĠST":4812,"bl":4813,"ĠIts":4814,"Ġdelivered":4815,"unction":4816,"top":4817,"ĠRoad":4818,"Ġanimals":4819,"Ġnor":4820,"Ġpolicies":4821,"Ġhospital":4822,"ota":4823,"ĠFood":4824,"Ġstreet":4825,"llig":4826,"Ġenhance":4827,"Ġsmaller":4828,"Ġforeign":4829,"ĠAnge":4830,"ĠPower":4831,"ulated":4832,"uman":4833,"Ġrecords":4834,"CC":4835,"ked":4836,"hips":4837,"ression":4838,"IM":4839,"Ġschedule":4840,"ĠCap":4841,"Ġstation":4842,"yn":4843,"Ġplastic":4844,"Ġdisp":4845,"estic":4846,"cket":4847,"Ġfish":4848,"Ġmeasures":4849,"Ġdesigns":4850,"ĠReal":4851,"Ġcore":4852,"?âĢĿ":4853,"umin":4854,"ursday":4855,"Ġappears":4856,"ifts":4857,"Ġbecoming":4858,"Ġ70":4859,"Ġproperly":4860,"Ġdistance":4861,"Ġupgr":4862,"Ġchemical":4863,"Ġ>":4864,"ĠLake":4865,"Ġfacilities":4866,"Ġsugar":4867,"Ġaudience":4868,"DA":4869,"Now":4870,"Ġgoods":4871,"Ġtask":4872,"inct":4873,"Ġinitial":4874,"Ġeight":4875,"rier":4876,"unning":4877,"Ġconcent":4878,"Ġmaximum":4879,"Ġindic":4880,"Ġaccommod":4881,"Ġmulti":4882,"IV":4883,"NA":4884,"Ġdrug":4885,"hi":4886,"Ġreaders":4887,"Ġwilling":4888,"Ġalle":4889,"Ġdut":4890,"ĠEv":4891,"Ġblogg":4892,"ĠLike":4893,"Ġprofile":4894,"ĠBay":4895,"Ġwaste":4896,"EL":4897,"rical":4898,"ĠHel":4899,"Ġpredict":4900,"with":4901,"but":4902,"ĠView":4903,"Ġagency":4904,"ĠVol":4905,"Ġpresident":4906,"!!!":4907,"Ġminimum":4908,"39":4909,"34":4910,"Ġclub":4911,"ĠPrivacy":4912,"Ġtheme":4913,"Ġvary":4914,"Ġartist":4915,"ĠHall":4916,"Thank":4917,"Ġegg":4918,"They":4919,"ĠSur":4920,"ka":4921,"ĠCur":4922,"itness":4923,"Ġsession":4924,"nesday":4925,"sey":4926,"ĠInstitute":4927,"ado":4928,"Ġremote":4929,"Ġdecisions":4930,"onav":4931,"Ġoperation":4932,"Ġencourage":4933,"Ġfemale":4934,"going":4935,"ĠMicro":4936,"Ġlux":4937,"Ġsurg":4938,"Ġcommitted":4939,"Ġdocuments":4940,"Ġguarantee":4941,"ona":4942,"ror":4943,"ĠLo":4944,"Ġpresence":4945,"Ġrooms":4946,"Ġcitiz":4947,"Ġprocesses":4948,"Thanks":4949,"net":4950,"ĠGovernment":4951,"Ġclimate":4952,"Ġcivil":4953,"ĠFore":4954,"Ġaccurate":4955,"Ġupdates":4956,"ĠDown":4957,"Ġexciting":4958,"Ġdied":4959,"Ġcup":4960,"Ġleaving":4961,"Ġbrings":4962,"cking":4963,"resp":4964,"umn":4965,"ĠBig":4966,"ĠMal":4967,"Ġcomprehens":4968,"Ġanywhere":4969,"Ġrid":4970,"Ġinstallation":4971,"ĠSam":4972,"ĠCam":4973,"ĠUnder":4974,"ĠFlorida":4975,"Ġ197":4976,"Ġsnow":4977,"Ġobl":4978,"Ġsem":4979,"Ġcontinued":4980,"Ġspending":4981,"Ġteacher":4982,"Ġvisual":4983,"Ġdepending":4984,"Ġthick":4985,"Ġhyd":4986,"ĠOh":4987,"Ġbattery":4988,"ya":4989,"Ġrule":4990,"Ġveget":4991,"Ġsector":4992,"Ġgun":4993,"Ġreturned":4994,"fficient":4995,"unte":4996,"rie":4997,"ocolate":4998,"Ġeating":4999,"rete":5000,"Ġsympt":5001,"Ġremains":5002,"ĠMount":5003,"iration":5004,"Ġfocused":5005,"onavirus":5006,"ixt":5007,"Ġarm":5008,"Not":5009,"Ġdu":5010,"Ġvisitors":5011,"Ġdogs":5012,"luding":5013,"Ġreference":5014,"32":5015,"Ġdeals":5016,"oma":5017,"pet":5018,"Ġcontext":5019,"iliar":5020,"Ġlaunch":5021,"Ġlocations":5022,"ĠScience":5023,"Ġsuitable":5024,"Ġassistance":5025,"ĠGlo":5026,"known":5027,"ĠContin":5028,"ĠTuesday":5029,"uable":5030,"Ġrefund":5031,"Ġguests":5032,"ĠCommission":5033,"antic":5034,"Ġoutdoor":5035,"Ġtoward":5036,"New":5037,"amin":5038,"Ġcontinues":5039,"Ġnegative":5040,"Ġswitch":5041,"Ġlovely":5042,"ĠToday":5043,"Ġexplain":5044,"Ġvision":5045,"Ġscale":5046,"Ġconsid":5047,"ago":5048,"cient":5049,"iers":5050,"ĠIS":5051,"Ġmine":5052,"friend":5053,"Ġdepos":5054,"ĠSal":5055,"95":5056,"ĠOpen":5057,"Ġintellig":5058,"Ġspecifically":5059,"Ġkid":5060,"Ġexpensive":5061,"ĠElect":5062,"Ġdriver":5063,"Ġcatch":5064,"ĠMill":5065,"De":5066,"Is":5067,"Ġpair":5068,"ĠChild":5069,"ĠJames":5070,"fr":5071,"Ġslightly":5072,"Ġstarts":5073,"Ġindustrial":5074,"ifications":5075,"44":5076,"Ġsettings":5077,"Ġformat":5078,"Ġspecies":5079,"Ġarrange":5080,"Ġpal":5081,"ximately":5082,"Ġconsent":5083,"list":5084,"Ġended":5085,"Ġmanaged":5086,"eless":5087,"Ġdoubt":5088,"no":5089,"ĠÃ¢":5090,"Ġcolour":5091,"Ġlisten":5092,"ĠSil":5093,"Ġcasino":5094,"Ġfeels":5095,"Ġ<":5096,"Ġkill":5097,"ĠProfess":5098,"Ġpreviously":5099,"Ġplug":5100,"Ġquarter":5101,"bed":5102,"Ġmarkets":5103,"Ġspl":5104,"ĠWork":5105,"ĠMil":5106,"Ġputting":5107,"ĠConst":5108,"Ġur":5109,"Ġmanner":5110,"Ġrestaurant":5111,"Ġsumm":5112,"ĠSpecial":5113,"ĠThursday":5114,"Ġdatab":5115,"Ġdim":5116,"quality":5117,"Ġwriter":5118,"Ġdele":5119,"Ġarchitect":5120,"Ġmanufacturer":5121,"men":5122,"hop":5123,"Ġseeking":5124,"Ġshowed":5125,"Ġcircumst":5126,"ĠApple":5127,"Ġvehicles":5128,"Ġsea":5129,"ĠYes":5130,"ĠJer":5131,"anish":5132,"Ġopened":5133,"ĠWin":5134,"point":5135,"Ġdiscovered":5136,"ĠRock":5137,"Ġbathroom":5138,"ette":5139,"ĠMary":5140,"ĠSl":5141,"Ġdirector":5142,"Ġtransform":5143,"soft":5144,"ĠBre":5145,"life":5146,"Ġillust":5147,"Ġstores":5148,"Ġasking":5149,"ĠArch":5150,"DF":5151,"ĠLat":5152,"bre":5153,"Ġcomponents":5154,"ĠProdu":5155,"Ġessay":5156,"ÂŃ":5157,"Ġap":5158,"ulate":5159,"ĠWednesday":5160,"ĠSun":5161,"ooper":5162,"Ġpossibly":5163,"cribe":5164,"spe":5165,"ĠTime":5166,"Ġsch":5167,"Ġseek":5168,"Ġartists":5169,"Ġsole":5170,"Ġscene":5171,"Ġproviders":5172,"mp":5173,"38":5174,"Ġcoverage":5175,"Ġdelicious":5176,"atures":5177,"ĠClub":5178,"Ġconsumers":5179,"Ġfunctions":5180,"Ġevening":5181,"which":5182,"azine":5183,"Ġconduct":5184,"Ġnotes":5185,"Ġdrink":5186,"Ġfreed":5187,"Ġteachers":5188,"Ġsets":5189,"osition":5190,"Ġwalking":5191,"Ġremoved":5192,"Ġder":5193,"ception":5194,"Ġsouth":5195,"ĠDirector":5196,"Ġunits":5197,"Ġresidents":5198,"tion":5199,"Ġspect":5200,"ĠTheir":5201,"ĠRich":5202,"Ġconcerns":5203,"ipp":5204,"Ġwww":5205,"Ġourselves":5206,"aked":5207,"PA":5208,"yal":5209,"ĠMex":5210,"Ġcred":5211,"Ġhar":5212,"aj":5213,"Ġwire":5214,"ĠNOT":5215,"ĠRiver":5216,"Se":5217,"Ġminute":5218,"Ġthr":5219,"Ġvirus":5220,"reek":5221,"Ġdesire":5222,"Ġbeach":5223,"Ġliqu":5224,"Ġrealize":5225,"ructure":5226,"elines":5227,"Ġstrategies":5228,"IG":5229,"Ġcompetition":5230,"Ġcontem":5231,"Ġmap":5232,"Ġroof":5233,"Ġconfig":5234,"Ġmouth":5235,"outhern":5236,"Ġteach":5237,"Ġbird":5238,"Ġfilled":5239,"rowd":5240,"Ġrain":5241,"Ġ35":5242,"Ġmale":5243,"Ġaffordable":5244,"ĠStar":5245,"Ġsoul":5246,"win":5247,"Ġbear":5248,"ograp":5249,"uce":5250,"ĠWindows":5251,"Ġneighbor":5252,"Ġdespite":5253,"icians":5254,"ĠGerman":5255,"ĠPet":5256,"alls":5257,"Ġgeneration":5258,"Ġride":5259,"ĠHave":5260,"Ġallowing":5261,"cohol":5262,"Ġmanager":5263,"ĠCommit":5264,"âĢ¦.":5265,"what":5266,"ĠStr":5267,"race":5268,"TS":5269,"Ġcharges":5270,"ĠMedical":5271,"orney":5272,"Ġstars":5273,"Ġdepartment":5274,"Ġbike":5275,"37":5276,"Ġiron":5277,"eared":5278,"Ġjoint":5279,"Ġfold":5280,"oll":5281,"Ġautomatically":5282,"Ġbusy":5283,"ĠPhil":5284,"Ġinternal":5285,"RA":5286,"ulations":5287,"Ġmanufacturing":5288,"Ġvolume":5289,"Ġproceed":5290,"OW":5291,"Ġassum":5292,"Ġyes":5293,"Ġtrees":5294,"Ġfuel":5295,"idden":5296,"ĠID":5297,"ĠAM":5298,"Ġpoly":5299,"ĠÐ":5300,"night":5301,"otic":5302,"Ġsport":5303,"Ġlandsc":5304,"ĠMat":5305,"Ġtrading":5306,"rip":5307,"Ġcombined":5308,"Ġleadership":5309,"Ġapproved":5310,"Ġtrial":5311,"fection":5312,"ĠTwitter":5313,"rad":5314,"Ġleads":5315,"td":5316,"hent":5317,"Ġcommand":5318,"ĠDet":5319,"Ġdistrict":5320,"Ġpremium":5321,"Ġfavour":5322,"Ĥ¬":5323,"Ġpromote":5324,"Ġserving":5325,"Ġlaun":5326,"Ġfixed":5327,"Ġquot":5328,"Ġinstructions":5329,"ĠList":5330,"Ġvirtual":5331,"Ġfruit":5332,"Ġpurchased":5333,"ĠDevelopment":5334,"Ġacademic":5335,"fin":5336,"Ġforg":5337,"ĠHist":5338,"ĠSum":5339,"Ġdebt":5340,"Ġtechnologies":5341,"Ġmotiv":5342,"Ġaccounts":5343,"Some":5344,"oe":5345,"anta":5346,"estyle":5347,"ums":5348,"ĠMart":5349,"Ġmissing":5350,"Ġtopics":5351,"rian":5352,"Ġsongs":5353,"48":5354,"Ġjump":5355,"roy":5356,"ĠLight":5357,"cont":5358,"Ġcities":5359,"Ġbound":5360,"Ġbond":5361,"Ġlabor":5362,"ĠSocial":5363,"oses":5364,"Ġraised":5365,"Ġsched":5366,"aning":5367,"Ġfootball":5368,"ĠCamp":5369,"55":5370,"zer":5371,"Ġaspects":5372,"estival":5373,"Pl":5374,"Ġinstalled":5375,"Ġenvironmental":5376,"Ġdynam":5377,"hab":5378,"Ġanswers":5379,"Ġstated":5380,"Ġperformed":5381,"Ġprotected":5382,"Ġrub":5383,"lor":5384,"Ġwhom":5385,"Ġchoices":5386,"ĠBet":5387,"Ġkinds":5388,"Ġbrief":5389,"Ġcorporate":5390,"ĠðŁĻ":5391,"ĠIP":5392,"Ġinterests":5393,"Ġerror":5394,"ï¿½ï¿½":5395,"orthern":5396,"ĠLim":5397,"tered":5398,"Ġju":5399,"Ġmining":5400,"Ġphil":5401,"ĠCommunity":5402,"Ġruns":5403,"Ġtow":5404,"Ġcovers":5405,"ae":5406,"Ġsymb":5407,"urd":5408,"Ġflowers":5409,"ĠWebs":5410,"Ġaf":5411,"Ġfeedback":5412,"ĠRE":5413,"Ġshut":5414,"uled":5415,"Ġdinner":5416,"ĠMichael":5417,"ĠCentral":5418,"isco":5419,"ĠQue":5420,"ĠEqu":5421,"Ġpublish":5422,"Ġconference":5423,"Ġseat":5424,"Ġer":5425,"Ġrot":5426,"adian":5427,"related":5428,"Ġenable":5429,"osen":5430,"iest":5431,"ĠDistrict":5432,"Ġcomprehensive":5433,"inations":5434,"\\\\\\\\\\\\\\\\\\\\\\\\\\\\\\\\":5435,"ĠSite":5436,"Des":5437,"ĠOil":5438,"Ġreasonable":5439,"Ġchart":5440,"ĠIsland":5441,"Ġemergency":5442,"Ġspo":5443,"Ġsymptoms":5444,"ĠTerms":5445,"ĠForm":5446,"Ġapproximately":5447,"bour":5448,"Ġinjury":5449,"ĠWomen":5450,"outs":5451,"Ġmarried":5452,"ĠRob":5453,"ĠCD":5454,"Ġmovies":5455,"Ġcorner":5456,"odies":5457,"Ġ500":5458,"Ġowned":5459,"illa":5460,"Ġelement":5461,"Ġcooking":5462,"Ġquiet":5463,"Ġlegisl":5464,"ĠStand":5465,"Ġdie":5466,"Ġinfluence":5467,"Ġfaster":5468,"ĠMiss":5469,"ĠBlue":5470,"Ġcultural":5471,"ĠHind":5472,"Ġaccident":5473,"Ġpanel":5474,"Ġuns":5475,"Ġpure":5476,"encing":5477,"Ġanimal":5478,"Ġmenu":5479,"IL":5480,"ĠMot":5481,"Ġinspired":5482,"Ġtea":5483,"Ġrecipes":5484,"Ġvisiting":5485,"Ġmut":5486,"Ġhearing":5487,"Ġpun":5488,"Ġdesk":5489,"Ġrom":5490,"Ġperfectly":5491,"Ġedge":5492,"ometimes":5493,"ĠBill":5494,"alian":5495,"Ġ2004":5496,"Ġsequ":5497,"Ġexpertise":5498,"Ġthrow":5499,"Ġbeat":5500,"Ġcrim":5501,"Ġfacility":5502,"Ġminor":5503,"Ġexclusive":5504,"Ġimportance":5505,"ĠWood":5506,"Ġseemed":5507,"inating":5508,"fol":5509,"ĠFire":5510,"Ġconversation":5511,"you":5512,"Ġeducational":5513,"ĠRoy":5514,"Ġpractical":5515,"Ġapplicable":5516,"ĠMark":5517,"ĠAC":5518,"Ġadults":5519,"ĠCook":5520,"ĠTur":5521,"Ġok":5522,"ĠEU":5523,"Ġthread":5524,"Ġgather":5525,"Ġsenior":5526,"Ġweak":5527,"ĠTake":5528,"Ġconfidence":5529,"akers":5530,"Ġtheory":5531,"Ġclinical":5532,"Ġcop":5533,"ĠNY":5534,"ĠMain":5535,"mes":5536,"Ġprepare":5537,"Ġsizes":5538,"ĠPR":5539,"ĠAtt":5540,"Ġsuit":5541,"Ġnorth":5542,"never":5543,"ician":5544,"pan":5545,"Ġresource":5546,"ĠSol":5547,"uries":5548,"Ġaudio":5549,"BA":5550,"Ġvictim":5551,"Ġinnovative":5552,"ĠKeep":5553,"Ġaccompl":5554,"Ġlibrary":5555,"Ġbrown":5556,"Ġworldwide":5557,"Ġrise":5558,"Ġcalling":5559,"Ġprop":5560,"Ġlicense":5561,"ĠCommittee":5562,"Ġcake":5563,"lam":5564,"ĠAcad":5565,"ulous":5566,"Ġfamiliar":5567,"Ġprotein":5568,"Ġrapid":5569,"ĠAfrican":5570,"ilding":5571,"Ġoccasion":5572,"Ġappeal":5573,"ĠCall":5574,"Ġburn":5575,"Ġknowing":5576,"ĠProv":5577,"Ġmarriage":5578,"Ġfulf":5579,"ĠOrgan":5580,"ĠBoth":5581,"esterday":5582,"oor":5583,"met":5584,"Ġvote":5585,"orter":5586,"Ġregister":5587,"Ġstret":5588,"ĠOnly":5589,"Ġpayments":5590,"Ġmagn":5591,"Ġcircumstances":5592,"cean":5593,"Ġinstance":5594,"Ġelim":5595,"essions":5596,"Ġelection":5597,"Ġscientific":5598,"liers":5599,"ĠBack":5600,"Ġfactor":5601,"Ġcondu":5602,"zen":5603,"edy":5604,"ĠJapanese":5605,"Ġmilk":5606,"Ġincredible":5607,"Ġdistribution":5608,"Ġfurniture":5609,"Ġbutter":5610,"ĠPM":5611,"Ġexamples":5612,"Ġmachines":5613,"Ġsquare":5614,"Ġmonthly":5615,"Ġmir":5616,"ĠðŁĻĤ":5617,"Ġadministration":5618,"erves":5619,"ĠPrice":5620,"Ġdecre":5621,"kin":5622,"Ġvent":5623,"elcome":5624,"Ġeventually":5625,"Ġtast":5626,"Ġflight":5627,"Ġconsequ":5628,"Ġgrade":5629,"pal":5630,"irgin":5631,"ĠGermany":5632,"abled":5633,"ĠJan":5634,"Le":5635,"Ġjoy":5636,"Ġsupported":5637,"ario":5638,"ĠFamily":5639,"xy":5640,"aught":5641,"cipl":5642,"Ġvolunte":5643,"Ġcategory":5644,"Ġconvenient":5645,"ĠEarth":5646,"Ġsupporting":5647,"Ġvs":5648,"tters":5649,"ĠFrance":5650,"ĠHill":5651,"lls":5652,"Ġcrowd":5653,"hetic":5654,"Ġsad":5655,"aser":5656,"ht":5657,"orough":5658,"Ġsimpl":5659,"ĠIndust":5660,"Ġtight":5661,"Ġpersonally":5662,"cknow":5663,"AG":5664,"water":5665,"weight":5666,"Ġpregn":5667,"Ġment":5668,"Ġlived":5669,"Ġneck":5670,"Ġsigns":5671,"olars":5672,"Ġuniversity":5673,"uality":5674,"Ġsupposed":5675,"Ġscript":5676,"ĠProte":5677,"Ġsurvey":5678,"Ġreput":5679,"Ġring":5680,"ste":5681,"Ġepisode":5682,"Ġpush":5683,"\":":5684,"ĠMer":5685,"Ġmail":5686,"TC":5687,"Ġchain":5688,"Ġbelong":5689,"Ġcoast":5690,"ĠGrand":5691,"cles":5692,"Ġengineering":5693,"ĠBen":5694,"ĠWhether":5695,"Here":5696,"Ġcauses":5697,"ĠFoundation":5698,"Ġcomplic":5699,"Ġsitting":5700,"Ġbelief":5701,"Ġcompetitive":5702,"Ġdecades":5703,"ĠMaybe":5704,"88":5705,"agers":5706,"Ġtail":5707,"ĠDuring":5708,"Ġreached":5709,"Ġtherapy":5710,"ĠDig":5711,"Ġshap":5712,"ĠColor":5713,"Ġvaluable":5714,"Ġagent":5715,"Ġang":5716,"Ġscr":5717,"Ġregularly":5718,"Ġnurs":5719,"Ġelig":5720,"ĠKore":5721,"ĠâĢ¢":5722,"Ġmeat":5723,"ĠTest":5724,"Don":5725,"Ġdish":5726,"Ġmode":5727,"Ġmeal":5728,"ĠSecurity":5729,"Ġimagine":5730,"lines":5731,"iance":5732,"Ġfoods":5733,"Ġannounce":5734,"Ġpod":5735,"ĠLou":5736,"Ġbringing":5737,"Ġsan":5738,"Ġconsumer":5739,"liance":5740,"Ġ196":5741,"Ġelectronic":5742,"ĠTechnology":5743,"Ġauth":5744,"pot":5745,"Ġreceiving":5746,"Ġradio":5747,"xi":5748,"Ġperspective":5749,"iveness":5750,"ĠPlus":5751,"Ġreduced":5752,"Ġpump":5753,"ano":5754,"Ġdetermined":5755,"ĠTwo":5756,"From":5757,"ĠSeries":5758,"wing":5759,"Ġlicens":5760,"49":5761,"):":5762,"Ġfreedom":5763,"ĠTHE":5764,"Ġswim":5765,"Ġintroduced":5766,"Ġholding":5767,"Ġpaying":5768,"rag":5769,"eper":5770,"ius":5771,"Ġboost":5772,"Ġreturns":5773,"bert":5774,"ki":5775,"Ġoccup":5776,"itionally":5777,"ĠCard":5778,"Ġtough":5779,"Ġtests":5780,"Ġrecovery":5781,"ĠExper":5782,"She":5783,"Ġjoined":5784,"uts":5785,"Every":5786,"Ġapps":5787,"ĠMedia":5788,"uine":5789,"respond":5790,"Ġsignificantly":5791,"asp":5792,"inder":5793,"Ġhundreds":5794,"Ġcarefully":5795,"Ġ45":5796,"vention":5797,"ĠRober":5798,"ĠWestern":5799,"Ġconsidering":5800,"appy":5801,"Ġcrisis":5802,"Ġconflic":5803,"pected":5804,"Ġdelight":5805,"ĠParty":5806,"Ġlabel":5807,"ĠSign":5808,"istan":5809,"Yes":5810,"Ġdefined":5811,"ĠTor":5812,"ĠThom":5813,"ĠLearn":5814,"Ġworse":5815,"Ġtag":5816,"Ġrestaurants":5817,"Ġvit":5818,"OP":5819,"ushing":5820,"while":5821,"rastructure":5822,"Ġcrushing":5823,"ainless":5824,"lets":5825,"ĠContact":5826,"Ġfunding":5827,"Ġbattle":5828,"ossible":5829,"Ġeffectively":5830,"ĠUnion":5831,"ĠAuthor":5832,"Ġappearance":5833,"htt":5834,"Ġauthority":5835,"itate":5836,"Ġacknow":5837,"ĠMaster":5838,"prise":5839,"Ġdeg":5840,"Ġhun":5841,"!)":5842,"Ġmatters":5843,"Ġconstruct":5844,"Ġwearing":5845,"Ġshares":5846,"Ġadvis":5847,"ĠAmericans":5848,"Con":5849,"Ġgreatest":5850,"Ġsigned":5851,"lla":5852,"Ġsurf":5853,"ĠAlex":5854,"Ġfailure":5855,"ĠWho":5856,"Ġdatabase":5857,"ander":5858,"Ġcreation":5859,"prene":5860,"ĠEnter":5861,"Ġemployee":5862,"Ġbroken":5863,"Ġconstantly":5864,"ĠFull":5865,"ucle":5866,"Ġaccepted":5867,"ĠCongress":5868,"Ġhealthcare":5869,"Ġefficiency":5870,"ĠWhere":5871,"Post":5872,"ĠHam":5873,"Ġmessages":5874,"weet":5875,"Ġtreated":5876,"TH":5877,"Ġhousing":5878,"oosing":5879,"ava":5880,"ensions":5881,"Ġcentre":5882,"Ġspeaking":5883,"Ġauto":5884,"equ":5885,"Ġsubmit":5886,"Ġbless":5887,"icial":5888,"Ġyouth":5889,"47":5890,"Ġeditor":5891,"Ġissued":5892,"iat":5893,"ibilities":5894,"ampions":5895,"ĠWebsite":5896,"ĠTom":5897,"Just":5898,"Ġparking":5899,"Ġmanufacturers":5900,"Ġdial":5901,"46":5902,"eries":5903,"Ġwinning":5904,"SA":5905,"oration":5906,"Ġmainly":5907,"Ġaid":5908,"reprene":5909,"jo":5910,"ini":5911,"Ġfields":5912,"Ġsample":5913,"Ġequal":5914,"Ġchocolate":5915,"Ġaffected":5916,"ĠDemocr":5917,"Ġsides":5918,"ĠInvest":5919,"Ġec":5920,"Ġentirely":5921,"Ġsister":5922,"greg":5923,"road":5924,"Ġfellow":5925,"Ġfolks":5926,"Ġgear":5927,"Ġextensive":5928,"Ġunivers":5929,"Ġlights":5930,"Ġ2000":5931,"Ġrand":5932,"Ġseconds":5933,"Ġchair":5934,"vin":5935,"Ġcutting":5936,"Ġtested":5937,"Ġweap":5938,"Ġeveryday":5939,"Ġfrequently":5940,"Read":5941,"Ġtut":5942,"ĠGeorge":5943,"Ġguest":5944,"asts":5945,"Ġking":5946,"Ġidentified":5947,"Ġtrouble":5948,"ĠTeam":5949,"Ġhousehold":5950,"dden":5951,"ĠMel":5952,"Ġhistorical":5953,"Ġfilter":5954,"ĠProject":5955,"SC":5956,"ulty":5957,"een":5958,"Ġorganic":5959,"ĠOld":5960,"ĠLtd":5961,"arian":5962,"ĠJour":5963,"OD":5964,"nect":5965,"Ġcitizens":5966,"Ġresearc":5967,"ĠAccording":5968,"ĠMass":5969,"OC":5970,"ĠOffic":5971,"Jo":5972,"Ġisland":5973,"reens":5974,"Ġcarried":5975,"Ġplate":5976,"anges":5977,"Ġkilled":5978,"Ġkeeps":5979,"IA":5980,"Ġdelay":5981,"ĠPack":5982,"away":5983,"Ġgall":5984,"ĠWal":5985,"Ġperman":5986,"Ġbirthday":5987,"tr":5988,"ĠShow":5989,"Ġchannel":5990,"Ġ%":5991,"Ġalcohol":5992,"Ġcollected":5993,"ĠPress":5994,"Ġdiam":5995,"Ġchicken":5996,"ĠRussian":5997,"ĠFil":5998,"Ġmassive":5999,"Ġpleasure":6000,"ii":6001,"Ġboat":6002,"Ġlifestyle":6003,"Ġsymbol":6004,"Ġmedicine":6005,"Ġloves":6006,"Ġphotograph":6007,"uction":6008,"cher":6009,"anda":6010,"ĠMusic":6011,"ĠMach":6012,"Ġreplacement":6013,"gl":6014,"ĠLong":6015,"ĠMen":6016,"Ġdescription":6017,"Ġbigger":6018,"nel":6019,"ounder":6020,"Ġcabin":6021,"Ġauthent":6022,"Ġmal":6023,"Ġimproved":6024,"Ġsudden":6025,"van":6026,"arp":6027,"ĠBeach":6028,"ĠDiv":6029,"Ġrandom":6030,"Ġturns":6031,"Ġaccord":6032,"urban":6033,"ĠCarol":6034,"uu":6035,"Ġnoticed":6036,"Ġamb":6037,"Ġidentity":6038,"ĠSto":6039,"Ġpatterns":6040,"Ġregistration":6041,"Ġbread":6042,"Ġchosen":6043,"Ġfle":6044,"Ġsevere":6045,"osoph":6046,"osite":6047,"Ġvan":6048,"Ġviolence":6049,"berg":6050,"sm":6051,".!":6052,"anged":6053,"Ġcarbon":6054,"Ġapartment":6055,"alog":6056,"Ġshock":6057,"Ġsac":6058,"hand":6059,"ello":6060,"pay":6061,"Ġconcerned":6062,"ĠGlobal":6063,"Ġregulations":6064,"Ġforces":6065,"Ġreligious":6066,"Ġsearching":6067,"uated":6068,"Ġsalt":6069,"Ġraise":6070,"IR":6071,"Ġlaunched":6072,"irmed":6073,"Ġoutput":6074,"rome":6075,"Ġfacts":6076,"Ġcoord":6077,"Ġassets":6078,"ĠĠĠĠ":6079,"Ġbreakfast":6080,"Ġarrived":6081,"aturally":6082,"âĢĺ":6083,"Ġtelling":6084,"ca":6085,"Ġcommitment":6086,"Ġstopped":6087,"Ġgrown":6088,");":6089,"Ġcommission":6090,"âĢĻ.":6091,"Ġwheel":6092,"Ġexpression":6093,"ĠItalian":6094,"Ġpharm":6095,"Ġprocedure":6096,"Ġinput":6097,"Ġtells":6098,"Ġfro":6099,"Ġdomain":6100,"Ġwid":6101,"Ġshoes":6102,"PR":6103,"Ġforced":6104,"Ad":6105,"igration":6106,"Ġinterior":6107,"Ġincl":6108,"ĠStart":6109,"Ġroot":6110,"IF":6111,"ĠUN":6112,"ĠNor":6113,"alled":6114,"rency":6115,"ita":6116,"ĠLead":6117,"ĠCode":6118,"Ġfly":6119,"ĠTre":6120,"Ġtempl":6121,"isher":6122,"Ġarg":6123,"Ġhappening":6124,"phas":6125,"hus":6126,"ĠPri":6127,"noon":6128,"Ġwindows":6129,"Ġstanding":6130,"lements":6131,"Ġteen":6132,"ĠLu":6133,"ĠValley":6134,"icago":6135,"secut":6136,"Ġ300":6137,"den":6138,"ords":6139,"CH":6140,"Ġguidance":6141,"Ġodd":6142,"ria":6143,"ĠAustralian":6144,"ĠHead":6145,"Ġauthors":6146,"Ġjack":6147,"Ġgro":6148,"Ġprocedures":6149,"Ġcorrespond":6150,"rum":6151,"Ġdollars":6152,"ĠLog":6153,"Ġrenew":6154,"Ġconcern":6155,"ĠVict":6156,"ĠMinister":6157,"ĠOper":6158,"Ġliquid":6159,"ĠAbout":6160,"Ġplays":6161,"Ġneighborhood":6162,"ĠSupport":6163,"ĠLast":6164,"Ġsolar":6165,"ĠSet":6166,"ĠCov":6167,"imately":6168,"abet":6169,"ĠMad":6170,"Ġcoronavirus":6171,"Ġappeared":6172,"ĠAsia":6173,"made":6174,"Ġwidely":6175,"Ġnone":6176,"ait":6177,"ĠTherefore":6178,"ĠWall":6179,"Ġemotional":6180,"Ġlayer":6181,"Ġmoments":6182,"ĠCanadian":6183,"Ġexternal":6184,"Ġsin":6185,"Ġsurgery":6186,"Ġbearing":6187,"ĠSoft":6188,"Ġbuildings":6189,"ĠFund":6190,"ĠSteel":6191,"Ġbask":6192,"ĠCy":6193,"Ġclothes":6194,"olve":6195,"Ġcheese":6196,"Ġadministr":6197,"SP":6198,"Ġmoist":6199,"Ġtwice":6200,"Ġ2003":6201,"Ġends":6202,"Ġusual":6203,"Ġdrugs":6204,"Ġdoors":6205,"ĠLibr":6206,"Ġtaught":6207,"Ġexcess":6208,"Ġemployment":6209,"Ġparticipants":6210,"ĠCert":6211,"Ġproof":6212,"App":6213,"irty":6214,"ĠRad":6215,"poration":6216,"rition":6217,"ĠCA":6218,"ĠBer":6219,"ĠCond":6220,"ĠAtl":6221,"Ġgenuine":6222,"Ġwealth":6223,"Ġproposed":6224,"ĠBas":6225,"II":6226,"Ġofficials":6227,"ĠCentre":6228,"Ġhouses":6229,"ighter":6230,"Ġposting":6231,"ye":6232,"ĠLLC":6233,"Ġappointment":6234,"Ġprompt":6235,"Ġpermission":6236,"ĠArab":6237,"ĠFranc":6238,"Ġcro":6239,"Ġpassword":6240,"Ġlunch":6241,"comes":6242,"inte":6243,"Ġroute":6244,"ĠGen":6245,"Ġholds":6246,"pass":6247,"Ġlit":6248,"Ġdance":6249,"Ġteeth":6250,"Ġfailed":6251,"Ġmonit":6252,"look":6253,"pon":6254,"Ġchallenging":6255,"ml":6256,"Ġsick":6257,"ĠScott":6258,"Ġtruck":6259,"Ġcompens":6260,"Ġpainting":6261,"ÂĢÂĻ":6262,"Ġsupports":6263,"luded":6264,"ĠTim":6265,"ĠAccount":6266,"Ġordered":6267,"Ġapparent":6268,"Ġentertainment":6269,"aded":6270,"Ġspons":6271,"Ġtech":6272,"Ġguidelines":6273,"Ġportion":6274,"Ġcaught":6275,"Ġdistinct":6276,"idays":6277,"ĠJoe":6278,"Ġnoted":6279,"Ġmanual":6280,"Ġrecorded":6281,"inos":6282,"otton":6283,"Ġmel":6284,"Ġunable":6285,"Ġobtained":6286,"Ġinvent":6287,"Ġjudge":6288,"ĠCath":6289,"loc":6290,"Ġresistance":6291,"alse":6292,"Ġinstitutions":6293,"Ġassume":6294,"ĠNov":6295,"ĠSociety":6296,"Ġbegins":6297,"!âĢĿ":6298,"car":6299,"ĠBuy":6300,"Ġwriters":6301,"Ġcontinuing":6302,"icit":6303,"ownt":6304,"Ġtrig":6305,"ĠLab":6306,"Ġbehavi":6307,"Ġtaxes":6308,"ĠAT":6309,"ĠDen":6310,"Ġnom":6311,"Ġforest":6312,"iki":6313,"Ġacid":6314,"Ġaccessories":6315,"oga":6316,"Ġengage":6317,"Ġseriously":6318,"nergy":6319,"mosp":6320,"].":6321,"Ġmask":6322,"Ġoperate":6323,"Ġsyn":6324,"ĠLeague":6325,"uration":6326,"ĠPan":6327,"ĠExt":6328,"Ġcycle":6329,"ĠHand":6330,"rowse":6331,"Ġconcrete":6332,"Ġmechanism":6333,"Ġobvious":6334,"Ġbonus":6335,"mar":6336,"ĠAdv":6337,"Ġkick":6338,"Well":6339,"Ġicon":6340,"ĠAdminist":6341,"Ġspeech":6342,"Ġmere":6343,"ĠMicrosoft":6344,"Ġhate":6345,"riting":6346,"Ġreporting":6347,"2020":6348,"ĠContinue":6349,"ĠAccess":6350,"Ġupper":6351,"Ġtrail":6352,"ias":6353,"77":6354,"Ġven":6355,"ĠTem":6356,"Ġindeed":6357,"Ġvoc":6358,"ĠReport":6359,"ĠBrown":6360,"Ġrevenue":6361,"Ġadventure":6362,"Ġassemb":6363,"real":6364,"Acc":6365,"Ġtrend":6366,"Ġcharged":6367,"REE":6368,"Ġfort":6369,"However":6370,"ensity":6371,"Ġsituations":6372,"ificate":6373,"Ġlinked":6374,"ĠCat":6375,"Ġsoil":6376,"Ġid":6377,"Ġthorough":6378,"Ġstyles":6379,"Ġchecking":6380,"SE":6381,"erts":6382,"Ġpresentation":6383,"Ġforth":6384,"ĠFinancial":6385,"elf":6386,"pret":6387,"arsh":6388,"ints":6389,"Ġtypical":6390,"Ġdangerous":6391,"ĠRest":6392,"Ġleather":6393,"ala":6394,"Ġluxury":6395,"ears":6396,"ĠHuman":6397,"Ġheight":6398,"66":6399,"ĠEp":6400,"Ġcopyright":6401,"Ġwitness":6402,"osh":6403,"Ġliber":6404,"Ġyours":6405,"Ġrough":6406,"Ġparticipate":6407,"Ġpoll":6408,"date":6409,"ĠIll":6410,"Ġinfrastructure":6411,"can":6412,"ĠShop":6413,"Ġtab":6414,"Ġextended":6415,"Ġmillions":6416,"Ġillness":6417,"ĠIre":6418,"Ġcontemporary":6419,"quir":6420,"ĠSand":6421,"Ġinvestors":6422,"Ġrelatively":6423,"Ġstim":6424,"Ġcrime":6425,"ĠThose":6426,"Ġcloser":6427,"Ġassessment":6428,"ĠCEO":6429,"ailable":6430,"Ġquote":6431,".[":6432,"Ġraw":6433,"ĠManager":6434,"ĠTown":6435,"ĠTimes":6436,"ĨĴ":6437,"ospit":6438,"ĠAff":6439,"ĠBible":6440,"Ġremaining":6441,"Ġagencies":6442,"Ġsupplies":6443,"Ġ48":6444,"CA":6445,"Ġvacation":6446,"Ġtasks":6447,"Ġrisks":6448,"Ġagents":6449,"Ġpowder":6450,"fortunately":6451,"Ġyesterday":6452,"Me":6453,"Ġvul":6454,"Ġfeaturing":6455,"Ġsurrounding":6456,"Ġgod":6457,"ican":6458,"Ġguaranteed":6459,"under":6460,"ĠAndroid":6461,"othe":6462,"igr":6463,"Ġdifferences":6464,"UN":6465,"ideo":6466,"Ġrelief":6467,"olved":6468,"Ġfollows":6469,"Ġprecise":6470,"letter":6471,"ĠBi":6472,"Ġprofit":6473,"ĠJul":6474,"ĠRussia":6475,"ĠPeter":6476,"Ġsilver":6477,"iden":6478,"pack":6479,"pat":6480,"Ġwarranty":6481,"ĠInte":6482,"Ġoutstanding":6483,"Ġ''":6484,"Ġdiss":6485,"ola":6486,"ĠÂ©":6487,"Ġtrends":6488,"Ġavailability":6489,"Ġath":6490,"Ġdiverse":6491,"Ġboys":6492,"ĠExpl":6493,"Ġinspiration":6494,"Ġskill":6495,"CO":6496,"Ġhero":6497,"ĠVirgin":6498,"Ġcoach":6499,"jection":6500,"Ġdomestic":6501,"Ġease":6502,"Ġcoal":6503,"Ġrevealed":6504,"Ġaccessible":6505,"Ġinformed":6506,"iable":6507,"Ġplanet":6508,"Ġimpossible":6509,"umps":6510,"Get":6511,"ĠSecret":6512,"Ġ{":6513,"ushed":6514,"Ġmixed":6515,"Ġdining":6516,"ĠInstagram":6517,"Ġretire":6518,"Ġsuccessfully":6519,"ĠBefore":6520,"Ġqualified":6521,"ora":6522,"Ġreferred":6523,"Ġspr":6524,"Ġfacing":6525,"Ġsauce":6526,"rible":6527,"Ġstre":6528,"ĠSecond":6529,"ĠFederal":6530,"Ġmortgage":6531,"ingly":6532,"Ġadvoc":6533,"Ġsending":6534,"Ġwet":6535,"Ġdefinition":6536,"Ġpin":6537,"LA":6538,"Ġafternoon":6539,"cked":6540,"edia":6541,"bi":6542,"Us":6543,"Ġerr":6544,"Ġnormally":6545,"ĠPrem":6546,"mond":6547,"Ġspaces":6548,"Ġped":6549,"Ġsubstant":6550,"Ġwithd":6551,"Ġdiscl":6552,"Ġherself":6553,"Ġfeatured":6554,"hire":6555,"Ġlogo":6556,"apest":6557,"ĠLos":6558,"Ġmur":6559,"Ġads":6560,"ĠNetwork":6561,"Ġemails":6562,"Ġyellow":6563,"Ġdestroy":6564,"42":6565,"Ġdisappoint":6566,"Ġstunning":6567,"oty":6568,"Ġwalls":6569,"Ġunlike":6570,"etry":6571,"Ġspa":6572,"ĠMont":6573,"Ġcrazy":6574,"Ġrecognized":6575,"ev":6576,"ĠRights":6577,"Ġspiritual":6578,"Ġagreed":6579,"Ġamounts":6580,"Ġhire":6581,"ĠMult":6582,"Ġsheet":6583,"that":6584,"</":6585,"BS":6586,"Ġpositions":6587,"Ġsurprise":6588,"merce":6589,"Ġfif":6590,"01":6591,"Ġcertified":6592,"working":6593,"Ġgender":6594,"xiety":6595,"Â°":6596,"Ġdepth":6597,"Ġflavor":6598,"west":6599,"Ġarrest":6600,"Ġvast":6601,"Ġfitness":6602,"Ġfunny":6603,"Ġcandidates":6604,"Ġ:)":6605,"Ġstudio":6606,"Ġtur":6607,"Ġinnovation":6608,"Ġapproval":6609,"Ġroutine":6610,"ĠChicago":6611,"ĠSpanish":6612,"Ġabuse":6613,"Ġexpectations":6614,"Ġille":6615,"ĠâĢĿ":6616,"Ġmotion":6617,"ĠHD":6618,"Ġveter":6619,"ulture":6620,"Ġrental":6621,"Ġliked":6622,"Ġaccordance":6623,"Ġplatforms":6624,"Hello":6625,"Ġancient":6626,"ĠPersonal":6627,"Ġcontrast":6628,"onym":6629,"Ġcock":6630,"Oh":6631,"ĠObama":6632,"Ġast":6633,"Ġpicked":6634,"May":6635,"Ġprepar":6636,"gas":6637,"orgeous":6638,"ĠAgree":6639,"ĠEconom":6640,"Cont":6641,"Ġconducted":6642,"Ġdegrees":6643,"Ġsuppliers":6644,"UR":6645,"han":6646,"Ġatmosp":6647,"Ġemphas":6648,"ĠTrust":6649,"Ġpleased":6650,"eration":6651,"ĠSaf":6652,"ĠSmith":6653,"Ġstrict":6654,"Ġeleg":6655,"ĠJud":6656,"Ġclothing":6657,"ua":6658,"Ġedition":6659,"Ġgifts":6660,"cover":6661,"Ġupload":6662,"Ġpersons":6663,"Ġcriminal":6664,"Ġconsistent":6665,"Ġsusp":6666,"ilst":6667,"Ġfavourite":6668,"Since":6669,"Ġexceed":6670,"Ġenthus":6671,"Ġpurchasing":6672,"Ġabsor":6673,"ĠWil":6674,"Ġpayday":6675,"Ġcritic":6676,"Ġclar":6677,"43":6678,"Ġfilms":6679,"Ġmissed":6680,"Ġconclus":6681,"PC":6682,"orders":6683,"Ġinvolve":6684,"Ġpossibility":6685,"ĠControl":6686,"uel":6687,"stone":6688,"ĠLow":6689,"Ġrecommendations":6690,"including":6691,"aren":6692,"Ġfoundation":6693,"earing":6694,"Ġimprovement":6695,"achel":6696,"Ġtechnique":6697,"igan":6698,"Ġargument":6699,"Ġphase":6700,"bur":6701,"igned":6702,"Ġexecutive":6703,"Ġexplained":6704,"tics":6705,"Ġongoing":6706,"Ġdestination":6707,"Ġchoosing":6708,"Ġconfident":6709,"Ġcapable":6710,"Ġchapter":6711,"LS":6712,"azz":6713,"Ġconfirmed":6714,"eline":6715,"Ġinches":6716,"omy":6717,"orable":6718,"Ġdrivers":6719,"ĠTour":6720,"ache":6721,"Ġtank":6722,"CT":6723,"ĠRoyal":6724,"ĠOF":6725,"MA":6726,"agon":6727,"itution":6728,"Ġeligible":6729,"Ġdates":6730,"etime":6731,"ellect":6732,"Ġdefault":6733,"ĠNon":6734,"ĠHope":6735,"Ġbasically":6736,"Ġrow":6737,"resents":6738,"Ġfell":6739,"ras":6740,"oral":6741,"ĠInstead":6742,"Ġmountain":6743,"ĠNE":6744,"Ġrecognize":6745,"Ġplanned":6746,"Ġcrew":6747,"Ġintegrated":6748,"arrow":6749,"ĠIreland":6750,"ĠSearch":6751,"Ġreader":6752,"FL":6753,"ĠDownload":6754,"Ġdefense":6755,"berry":6756,"Ġgaming":6757,"Ġprinted":6758,"Ġstands":6759,"Ġinvestigation":6760,"41":6761,"Ġ32":6762,"Ġweekly":6763,"Ġupcoming":6764,"po":6765,"Ġjustice":6766,"Ġentreprene":6767,"ĠFrank":6768,"Ġages":6769,"Ġhang":6770,"ĠUl":6771,"HS":6772,"Ġfeelings":6773,"she":6774,"Ġvibr":6775,"Ġreward":6776,"ĠMuseum":6777,"Ġdiscussed":6778,"Ġfacil":6779,"Ġturning":6780,"Ġstatements":6781,"paper":6782,"Ġhumans":6783,"Ġfinance":6784,"Ġsuggested":6785,"Ġentered":6786,"Ġtrained":6787,"Ġreserved":6788,"ĠArts":6789,"Ġlessons":6790,"gend":6791,"ĠWeek":6792,"opyright":6793,"Phone":6794,"ĠHotel":6795,"Ġmagic":6796,"Ġhook":6797,"Ġvital":6798,"Ġgolf":6799,"VE":6800,"Ġrein":6801,"ĠFollow":6802,"Ġpursu":6803,"Ġsolve":6804,"Ġnetworks":6805,"Ġtiny":6806,"Ġtables":6807,"ena":6808,"Ġspin":6809,"ĠAud":6810,"Ġhorse":6811,"ĠTru":6812,"Ġextent":6813,"Ġdescribe":6814,"ĠMax":6815,"ĠVery":6816,"bles":6817,"racts":6818,"Ġfasc":6819,"ĠDou":6820,"Ġconsists":6821,"Ġtiss":6822,"Ġflexible":6823,"ĠMiddle":6824,"Ġdealing":6825,"Ġlistening":6826,"Ġnegot":6827,"Ġsurprised":6828,"ĠAward":6829,"Ġsaved":6830,"Tube":6831,"izer":6832,"ployment":6833,"ĠDi":6834,"Ġsky":6835,"ĠNav":6836,"comm":6837,"Ġtelevision":6838,"ĠAcademy":6839,"ambling":6840,"Ġ?":6841,"Ġphotograp":6842,"Ġconver":6843,"Ġenforce":6844,"ĠBur":6845,"ĠKnow":6846,"Ġamend":6847,"ixture":6848,"ĠMexico":6849,"Ġbes":6850,"Ġpolitics":6851,"ĠHim":6852,"Ġresulting":6853,"Ġdepends":6854,"ĠVictor":6855,"Ġprimarily":6856,"Ġaspect":6857,"anufact":6858,"ĠCrus":6859,"Ġgrinding":6860,"GB":6861,"Ġfrust":6862,"Ġworst":6863,"endar":6864,"Ġben":6865,"Ġtransition":6866,"ether":6867,"Ġcreates":6868,"class":6869,"Tr":6870,"cling":6871,"ĠDigital":6872,"ĠCreat":6873,"Ġsustainable":6874,"Ġseed":6875,"Ġmonitor":6876,"unnels":6877,"ĠDev":6878,"Ġjew":6879,"Ġtracking":6880,"Ġvillage":6881,"âĢ¢":6882,"Ġmuscle":6883,"coin":6884,"Ġsessions":6885,"ĠYe":6886,"ĠON":6887,"igate":6888,"ĠChief":6889,"Ġexposure":6890,"Ġoriginally":6891,"Ġawareness":6892,"Ġlad":6893,"ĠHaw":6894,"Ġdust":6895,"Ġobjects":6896,"Ġtradem":6897,"ĠWilliam":6898,"ĠAND":6899,"Ġnucle":6900,"Ġnative":6901,"Ġpapers":6902,"ĠItaly":6903,"ĠStore":6904,"Ġrepresents":6905,"Ġattorney":6906,"Bl":6907,"Ġsorry":6908,"Any":6909,"Ġwash":6910,"Ġstored":6911,"Ġcute":6912,"Ġshel":6913,"Ġsmell":6914,"celer":6915,"Ġgrab":6916,"Ġfairly":6917,"Ġ36":6918,"host":6919,"bel":6920,"Ġversions":6921,"grad":6922,"Ġphilosoph":6923,"ĠMS":6924,"59":6925,"Ġphotography":6926,"ta":6927,"Once":6928,"Ġbasket":6929,"ĠSpirit":6930,"Ġpipe":6931,"Ġbottle":6932,"Ġrealized":6933,"Ġcomponent":6934,"Ġnic":6935,"Ġcos":6936,"arry":6937,"Ġresidential":6938,"ĠHindi":6939,"ĠLand":6940,"Ġbowl":6941,"Many":6942,"Ġhell":6943,"ingu":6944,"utch":6945,"Ġkit":6946,"Ġsufficient":6947,"Ġcooper":6948,"ĠCustomer":6949,"Ġproven":6950,"urse":6951,",...":6952,"Ġrestrictions":6953,"Ġbreath":6954,"UT":6955,"Ġattached":6956,"Ġimpressive":6957,"Ġrear":6958,"56":6959,"kers":6960,"Ġbelieved":6961,"Ġlaugh":6962,"ĠSqu":6963,"Ġhosting":6964,"ĠSale":6965,"mal":6966,"Ġlisting":6967,"Ġgrew":6968,"ĠLook":6969,"Ġbodies":6970,"pons":6971,".âĢĻ":6972,"Ġsmile":6973,"rations":6974,"57":6975,"nders":6976,"Ġrank":6977,"Ġsubsequ":6978,"Ġadm":6979,"Ġelev":6980,"Ġrating":6981,"iece":6982,"Ġhardware":6983,"Ġlighting":6984,"ĠId":6985,"alle":6986,"Posted":6987,"Ġphen":6988,"ĠLive":6989,"ĠLibrary":6990,"Ġhoping":6991,"Ġindustries":6992,"Ġriver":6993,"Ġcelebrate":6994,"Ġcontained":6995,"ĠGuide":6996,"Ġofficer":6997,"ĠThrough":6998,"Ġcrucial":6999,"vy":7000,"Ġlikes":7001,"ĠPDF":7002,"rates":7003,"ĠJournal":7004,"Ġthin":7005,"Ġincreases":7006,"icity":7007,"Ġcompare":7008,"ĠOrder":7009,"Ġvulner":7010,"Ġresearchers":7011,"Ġincredibly":7012,"ĠSports":7013,"En":7014,"ien":7015,"ppers":7016,"Ġreligion":7017,"burg":7018,"Ġjaw":7019,"Ġtrick":7020,"Ġflour":7021,"ĠCa":7022,"Ġmerch":7023,"Ġlosing":7024,"Ġcookie":7025,"ĠIslam":7026,"missions":7027,"zil":7028,"istant":7029,"Ġdrawing":7030,"cers":7031,"ĠÂ»":7032,"ĠAngeles":7033,"entle":7034,"Ġreprodu":7035,"Ġregional":7036,"Ġformed":7037,"iate":7038,"HA":7039,"ĠTer":7040,"iner":7041,"Ġaccuracy":7042,"Ġserves":7043,"Ġanyway":7044,"Ġarms":7045,"stream":7046,"ĠEngineering":7047,"Ġdesigner":7048,"Ġletters":7049,"Ġwondering":7050,"Ġtickets":7051,"Ġtransp":7052,"Ġpackaging":7053,"cuit":7054,"Arch":7055,"Ġresolution":7056,"Ġprinciples":7057,"acific":7058,"ansion":7059,"ĠJose":7060,"Ġmarked":7061,"Res":7062,"ĠAnother":7063,"Ġlandscape":7064,"ĠMid":7065,"Ind":7066,"ĠâĨĴ":7067,"ĠStep":7068,"worth":7069,"ĠVer":7070,"Ġlapt":7071,"58":7072,"ĠExecut":7073,"Ġstretch":7074,"Press":7075,"ĠFort":7076,"Ġaffiliate":7077,"Ġmini":7078,"Ġduty":7079,"Ġshower":7080,"Ġsomewhere":7081,"Ġfounded":7082,"Ġfalse":7083,"Ġhidden":7084,"Ġattacks":7085,"Ġnine":7086,"ĠChildren":7087,"ĠFurther":7088,"Ġpill":7089,"Ġindex":7090,"ĠApplic":7091,"Su":7092,"Ġhandling":7093,"Ne":7094,"ĠSpring":7095,"Ġclosely":7096,"Ġforum":7097,"Ġshift":7098,"Ġmand":7099,"Ġimproving":7100,"Ġdeposit":7101,"Ġcommonly":7102,"law":7103,"ĠCre":7104,"stood":7105,"ifies":7106,"ĠJun":7107,"Ġusage":7108,"Ġvisited":7109,"Ġimmediate":7110,"ĠFarm":7111,"Ġnaturally":7112,"ĠLouis":7113,"ĠEnergy":7114,"Ġfunctional":7115,"²Ð":7116,"Most":7117,"Ġremark":7118,"rating":7119,"Ġrail":7120,"Ġprove":7121,"Ġsight":7122,"ĠWay":7123,"Ġmembership":7124,"Ġblogs":7125,"Ġflower":7126,"Ġforever":7127,"ogen":7128,"Ġdram":7129,"Ġwhenever":7130,"Che":7131,"Ġconcerning":7132,"Ġstorm":7133,"Ġcompat":7134,"ĠBrand":7135,"ĠKey":7136,"Ġsignal":7137,"Ġfourth":7138,"Ġcompr":7139,"Ġauthorities":7140,"Ġarrive":7141,"Ġpossess":7142,"ĠÂ·":7143,"Ġrice":7144,"First":7145,"Ġconstant":7146,"Ġsupplement":7147,"ĠRobert":7148,"Ġempt":7149,"ĠYOU":7150,"Ġcommunications":7151,"owing":7152,"front":7153,"Ġsuggestions":7154,"Ġticket":7155,"iger":7156,"TA":7157,"ĠPass":7158,"Ġfighting":7159,"MP":7160,"asters":7161,"itage":7162,"oster":7163,"Ġmeetings":7164,"Ġcompliance":7165,"Ġprison":7166,"iverse":7167,"ĠWild":7168,"CE":7169,"Ġexpenses":7170,"Ġgorgeous":7171,"Ġnecessarily":7172,"Ġultimate":7173,"ĠOk":7174,"ĠEnd":7175,"Ġcategories":7176,"Ġbrill":7177,"ĠGame":7178,"Ġbeer":7179,"Ġinn":7180,"Ġtransaction":7181,"Ġarts":7182,"folio":7183,"roph":7184,"Ġcharm":7185,"Ġinstant":7186,"ĠAgreement":7187,"Ġzero":7188,"ĠSon":7189,"Ġobviously":7190,"%.":7191,"Ġofficers":7192,"Ġbanks":7193,"Ġexplan":7194,"Ġnearby":7195,"ĠiPhone":7196,"Ġtalent":7197,"Ġporn":7198,"Ġtrave":7199,"Ġenjoying":7200,"Ġchief":7201,"lywood":7202,"bing":7203,"Ġmemories":7204,"Ġ2002":7205,"Ġmonitoring":7206,"Ġslowly":7207,"ĠCross":7208,"Ġsoci":7209,"tle":7210,"ĠAD":7211,"Ġscholars":7212,"Ġguard":7213,"ĠWatch":7214,"yan":7215,"ĠFair":7216,"ĠCovid":7217,"Can":7218,"Ġclassroom":7219,"ppy":7220,"Ġcomparison":7221,"Ġevil":7222,"ĠSometimes":7223,"ĠDoes":7224,"Ġyounger":7225,"Today":7226,"ĠWhich":7227,"Ġdecade":7228,"ĠProper":7229,"âĢĻ,":7230,"rid":7231,"kins":7232,"Ġbags":7233,"wear":7234,"Ġvaccine":7235,"Ġelectrical":7236,"Ġexpressed":7237,"Ġsaving":7238,"astern":7239,"Ġbab":7240,"ĠInf":7241,"Ġoverw":7242,"ĠGra":7243,"ĠDC":7244,"Ġlucky":7245,"Ġpartnership":7246,"ĠHelp":7247,"Ġclicking":7248,"long":7249,"Ġintent":7250,"Ġpil":7251,"level":7252,"Ġreputation":7253,"Ġopinions":7254,"raid":7255,"aper":7256,"tocol":7257,"Ġsynt":7258,"Ġrequests":7259,"Ġinstruct":7260,"ĠProduct":7261,"Ġpromise":7262,"ĠStat":7263,"lessly":7264,"ĠNote":7265,"Ġtall":7266,"Ġinterpret":7267,"born":7268,"ĠYouTube":7269,"Ġsuffering":7270,"Ġterror":7271,"des":7272,"Ġcollaboration":7273,"lose":7274,"ĠUr":7275,"Ġgenerate":7276,"Ġparam":7277,"Ġdynamic":7278,"Ġsavings":7279,"oh":7280,"Ġ`":7281,"ĠRev":7282,"Ġnarr":7283,"ĠCoast":7284,"Ġrig":7285,"Ġintelligence":7286,"Ġanxiety":7287,"eding":7288,"profit":7289,"ĠGal":7290,"Ġcounsel":7291,"Ġacts":7292,"Ġexistence":7293,"ĠHistory":7294,"gers":7295,"irts":7296,"Ġhurt":7297,"ĠPak":7298,"Ġfirms":7299,"Ġcontribute":7300,"Ġphr":7301,"acc":7302,"ĠUsing":7303,"Ġregardless":7304,"Ġtransportation":7305,"ealand":7306,"Ġkm":7307,"agues":7308,"Ġbare":7309,"ults":7310,"ĠNext":7311,"Ab":7312,"ĠPub":7313,"umes":7314,"Ġmeals":7315,"Ġspray":7316,"Ġguitar":7317,"Ġmagazine":7318,"Ġcommunicate":7319,"ĠExam":7320,"atoes":7321,"Ġunw":7322,"omin":7323,"eping":7324,"Ġinsight":7325,"Ġcable":7326,"uls":7327,"ĠDu":7328,"Ġinteract":7329,"Ġsuperior":7330,"ĠÃ":7331,"Ġurban":7332,"Ġfactory":7333,"ĠHospital":7334,"cons":7335,"urities":7336,"Ġconscious":7337,"ĠTravel":7338,"Ġcodes":7339,"Ġhealing":7340,"Ġbreast":7341,"ĠThomas":7342,"Ġdraft":7343,"Ġpodcast":7344,"ĠMike":7345,"ĠPen":7346,"Ġorganized":7347,"plete":7348,"ĠJim":7349,"ĠLED":7350,"Am":7351,"page":7352,"Ġmanaging":7353,"Ġfishing":7354,"ctive":7355,"zing":7356,"aints":7357,"Ġje":7358,"acks":7359,"Ġexception":7360,"friendly":7361,"Ġentr":7362,"Ġattractive":7363,"Ġsensitive":7364,"ĠFREE":7365,"Ġsatisfied":7366,"Ġequival":7367,"Ġestimated":7368,"Are":7369,"Ġoven":7370,"Ġstruggle":7371,"ĠRoman":7372,"Ġequipped":7373,"Ġther":7374,"Ġloving":7375,"ĠTraining":7376,"athe":7377,"ĠCost":7378,"Ġtaxis":7379,"Ġagric":7380,"Ġreplaced":7381,"site":7382,"Ġsuc":7383,"asure":7384,"Ġwest":7385,"elry":7386,"Ġpassing":7387,"Ġoblig":7388,"ogue":7389,"Ġdisplayed":7390,"Ġexperiment":7391,"Ġairport":7392,"Ġinner":7393,"ĠPenn":7394,"Ġcandidate":7395,"ĠGeorg":7396,"ĠIran":7397,"ĠLittle":7398,"ENT":7399,"Ġfigures":7400,"ĠLin":7401,"Ġimplementation":7402,"ounter":7403,"ĠAS":7404,"Ġdesired":7405,"03":7406,"ĠGirl":7407,"Ġpresents":7408,"Te":7409,"ĠProducts":7410,"emed":7411,"Ġspecialist":7412,"Ġbehalf":7413,"Ġremoval":7414,"Ġtub":7415,"Ġdreams":7416,"Ġliability":7417,"Ġadds":7418,"Ġpriority":7419,"Ġliterature":7420,"Ġtip":7421,"Ġshops":7422,"Ġborder":7423,"Ġkne":7424,"Ġreduction":7425,"Ġpricing":7426,"ĠCas":7427,"Ġblend":7428,"Ġconsideration":7429,"ĠNC":7430,"Ġentit":7431,"Ġdental":7432,"ĠDid":7433,"ĠDisc":7434,"ĠConference":7435,"ĠLimited":7436,"Ġhonor":7437,"Ġheads":7438,"Ġlicensed":7439,"Ġgrass":7440,"Ġengagement":7441,"Ġexceptional":7442,"Ġdiseases":7443,"Ġdefend":7444,"Sp":7445,"Ġconsumption":7446,"ati":7447,"Ġrelative":7448,"ĠCharl":7449,"----":7450,"Ġinterface":7451,"ĠPolice":7452,"Ġsubmitted":7453,"According":7454,"market":7455,"Ġinstrument":7456,"Ġpasseng":7457,"ĠChris":7458,"ĠAR":7459,"ĠParis":7460,"ateful":7461,"Ġobserved":7462,"Ġclimb":7463,"ulf":7464,"apore":7465,"ĠZealand":7466,"intage":7467,"ĠBal":7468,"Ġisol":7469,"atre":7470,"lder":7471,"Ġdamaged":7472,"mercial":7473,"athy":7474,"ĠOpt":7475,"asting":7476,"Ġintellect":7477,"____":7478,"ĠSales":7479,"rage":7480,"Ġanymore":7481,"Ġcounty":7482,"Ġliterally":7483,"ologist":7484,"âĤ¬":7485,"ographic":7486,"Ġ75":7487,"oured":7488,"Ġwithdraw":7489,"05":7490,"ĠMatt":7491,"Ġlegs":7492,"Ġchose":7493,"ĠMP":7494,"abetes":7495,"ĠSP":7496,"Ġarchitecture":7497,"ipt":7498,"Why":7499,"Let":7500,"ĠDef":7501,"Ġcontrolled":7502,"Ġrecy":7503,"Ġhospit":7504,"ĠUser":7505,"gor":7506,"ogether":7507,"Ġboiler":7508,"Ġprohib":7509,"anger":7510,"ĠSar":7511,"Ġacting":7512,"Ġinfection":7513,"Ġheating":7514,"being":7515,"Ġrespective":7516,"Ġpercentage":7517,"ĠCarolina":7518,"Ġengaged":7519,"Ġatmosphere":7520,"DS":7521,"Ġshipped":7522,"Ġcovering":7523,"ĠEs":7524,"amental":7525,"Ġdiscipl":7526,"Ġreact":7527,"Ġprinting":7528,"Ġstuck":7529,"Ġsomewhat":7530,"ĠEr":7531,"holders":7532,"oston":7533,"ĠKen":7534,"ĠðŁĺ":7535,"pel":7536,"ĠWould":7537,"Im":7538,"ĠMarketing":7539,"otal":7540,"Â©":7541,"Ġcorrectly":7542,"Ke":7543,"Ġwinner":7544,"ĠDog":7545,"tes":7546,"Ġdoctors":7547,"ilipp":7548,"Ġpermanent":7549,"300":7550,"Ġnoise":7551,"Ġpreferred":7552,"Ġ2001":7553,"ĠRight":7554,"Ġsubjects":7555,"Ġafraid":7556,"isk":7557,"liament":7558,"bell":7559,"ultural":7560,"ĠKingdom":7561,"ĠTO":7562,"Ġstrange":7563,"Another":7564,"isters":7565,"Ġbunch":7566,"Ġsuggests":7567,"proof":7568,"02":7569,"Ġbooking":7570,"ĠCredit":7571,"Ġstrategic":7572,"Add":7573,"Ġtomorrow":7574,"Ġfinds":7575,"Ġextension":7576,"ĠCatholic":7577,"ĠGar":7578,"tw":7579,"ĠHen":7580,"Ġrelating":7581,"ĠExecutive":7582,"Ġperforming":7583,"Ġopposite":7584,"erate":7585,"Ġcontrols":7586,"Ġ150":7587,"Ġmile":7588,"Ġoverwhel":7589,"ĠBall":7590,"Ġanticip":7591,"Ġachieved":7592,"Ġproducing":7593,"Ġchannels":7594,"Ġincorpor":7595,"Ġhur":7596,"Ġlies":7597,"BI":7598,"Ġcannabis":7599,"rently":7600,"ĠCe":7601,"onna":7602,"Ġsucceed":7603,"Ġregions":7604,"ĠSection":7605,"Ġdirected":7606,"Ġerrors":7607,"Ġupgrade":7608,"Ġconflict":7609,"Ġblind":7610,"ashed":7611,"Also":7612,"Ġprogramme":7613,"Ġvend":7614,"Ġdivid":7615,"Ġeverywhere":7616,"ĠTax":7617,"Ġlets":7618,"Ġinvolves":7619,"Ġreaction":7620,"ĠPrin":7621,"Ġrequirement":7622,"ĠMartin":7623,"Ġcausing":7624,"Ġstructures":7625,"Ġtrusted":7626,"Ġconcepts":7627,"Ġmusical":7628,"ĠJewish":7629,"Ġscheduled":7630,"inem":7631,"Ġstainless":7632,"case":7633,"Ġyield":7634,"Ġrecording":7635,"Ġultimately":7636,"raction":7637,"cific":7638,"stery":7639,"Ġextract":7640,"ĠPoint":7641,"yers":7642,"iral":7643,"ĠDub":7644,"Ð¾":7645,"Ġdip":7646,"df":7647,"Ġdurable":7648,"ĠVirginia":7649,"atics":7650,"Ġfru":7651,"iser":7652,"bar":7653,"Ġboxes":7654,"Ġroles":7655,"Ġensuring":7656,"etary":7657,"ML":7658,"Ġlanguages":7659,"Ġholidays":7660,"Ġexport":7661,"Qu":7662,"Ġpreparation":7663,"ĠPo":7664,"ĠPot":7665,"Ġpotentially":7666,"person":7667,"ĠCir":7668,"Ġmarks":7669,"pir":7670,"Ġtraveling":7671,"Ġgard":7672,"agraph":7673,"Ġstable":7674,"Ġreducing":7675,"Ġenables":7676,"Ġcrypt":7677,"ĠPu":7678,"Ġseeds":7679,"Ġminimal":7680,"Ġore":7681,"ĠQuest":7682,"Over":7683,"Ġflood":7684,"ĠPract":7685,"aken":7686,"ĠNumber":7687,"Ġillegal":7688,"amps":7689,"Fi":7690,"Ġborrow":7691,"ĠThus":7692,"ĠLink":7693,"ĠGall":7694,"onder":7695,"ĠPlace":7696,"Ġgraduate":7697,"Ġpublication":7698,"Ġdownt":7699,"Ġbuyers":7700,"live":7701,"Ġhabit":7702,"orse":7703,"ĠCup":7704,"RS":7705,"gged":7706,"ĠHard":7707,"Ġtox":7708,"Ġnarrow":7709,"Ġconnections":7710,"Ġcapture":7711,"Ġcontaining":7712,"uminum":7713,"Ġtack":7714,"rich":7715,"ĠDisney":7716,"Ġsamples":7717,"Ġdebate":7718,"Ġdealer":7719,"Ġoutcomes":7720,"LY":7721,"Ġplot":7722,"Ġdrinking":7723,"ĠBlo":7724,"Ġexplains":7725,"More":7726,"cue":7727,"Ġshouldn":7728,"Ġtalks":7729,"Ġwarn":7730,"Ġoffices":7731,"ĠSuch":7732,"Ġsatisfaction":7733,"ĠSky":7734,"Ġprogramming":7735,"Ġathlet":7736,"ĠBow":7737,"Ġcriteria":7738,"Ġwanting":7739,"ran":7740,"Ġpubl":7741,"ĠMuslim":7742,"Ġhat":7743,"ĠBrazil":7744,"inent":7745,"Ġmatches":7746,"ĠMic":7747,"Ġprocessed":7748,"ĠTit":7749,"Ġtreatments":7750,"Ġlimits":7751,"Ġcampus":7752,"Ġneither":7753,"Ġgreatly":7754,"Sc":7755,"Book":7756,"Ġcharacteristics":7757,"Ġsupplier":7758,"Ġopens":7759,"Ġzone":7760,"Ġdecent":7761,"Ġbars":7762,"78":7763,"formance":7764,"Ġfraud":7765,"ership":7766,"Ġfunctionality":7767,"Ġcotton":7768,"ĠMade":7769,"ressed":7770,"Ġhyper":7771,"aven":7772,"ĠWorks":7773,"neys":7774,"Ġwra":7775,"Ġformal":7776,"Ġearned":7777,"Ġbact":7778,"ura":7779,"Ġchecked":7780,"ĠBob":7781,"Ġ!":7782,"Ġmoves":7783,"ĠArea":7784,"AY":7785,"riers":7786,"Ġunderstood":7787,"then":7788,"Ġundert":7789,"RI":7790,"Ġshooting":7791,"Ġcareful":7792,"ĠFather":7793,"Ġlie":7794,"Ġspoke":7795,"haust":7796,"uous":7797,"ĠHoly":7798,"Ġinch":7799,"eto":7800,"claim":7801,"inery":7802,"ĠSouthern":7803,"Ġdispos":7804,"cular":7805,"ĠAsian":7806,"Ġpersonality":7807,"Ġscheme":7808,"Ġpackages":7809,"adow":7810,"Ġforecast":7811,"Ġscan":7812,"Ġpink":7813,"Ġhall":7814,"Ġtransmission":7815,"uana":7816,"Ġportfolio":7817,"Ġtradition":7818,"Ġpm":7819,"EA":7820,"uing":7821,"Ġfiled":7822,"ĠAri":7823,"Ġtracks":7824,"Ġmold":7825,"ĠNever":7826,"va":7827,"Ġbaking":7828,"Ġmuseum":7829,"Ġham":7830,"Ġsections":7831,"Ġhes":7832,"ĠEnvironment":7833,"Ġgenerated":7834,"gypt":7835,"Ġblocks":7836,"Ġintroduction":7837,"Ġrose":7838,"ĠJohnson":7839,"Ġpurchases":7840,"Ġterrit":7841,"esh":7842,"Ġfing":7843,"Ġlists":7844,"ĠCast":7845,"Ġframework":7846,"Ġblank":7847,"Ġdropped":7848,"Americ":7849,"Ġincreasingly":7850,"ĠStudents":7851,"Ġgentle":7852,"ĠManufact":7853,"98":7854,"iform":7855,"ĠFed":7856,"anted":7857,"Ġstring":7858,"Pe":7859,"68":7860,"issions":7861,"racy":7862,"Ġaside":7863,"Ġacceler":7864,"Ġmob":7865,"eties":7866,"ouch":7867,"ĠAng":7868,"ĠUt":7869,"ĠSmall":7870,"ĠOR":7871,"Ġvisible":7872,"Int":7873,"Ġgarage":7874,"ccer":7875,"brid":7876,"Ġlesson":7877,"Ġdent":7878,"Ġcomplicated":7879,"Ġretirement":7880,"Ġfits":7881,"ĠPow":7882,"Ġdad":7883,"Ġexperim":7884,"Ġenterprise":7885,"uling":7886,"Ġhole":7887,"Ġlawyer":7888,"Ġmaintaining":7889,"Ġsetup":7890,"Great":7891,"ludes":7892,"ĠCP":7893,"Ġinsights":7894,"Whe":7895,"lers":7896,"izz":7897,"party":7898,"Ġtill":7899,"ĠMur":7900,"Ġexposed":7901,"Ġnewsletter":7902,"Or":7903,"inn":7904,"olit":7905,"Ġratio":7906,"Ġincident":7907,"hyd":7908,"VER":7909,"ificial":7910,"Spe":7911,"Ġstake":7912,"Ġempty":7913,"Ġsharp":7914,"Ġbat":7915,"Ðµ":7916,"Ġrequested":7917,"usive":7918,"itz":7919,"Ġdrag":7920,"nic":7921,"Ġtun":7922,"Ġpra":7923,"53":7924,"ja":7925,"AB":7926,"ĠProm":7927,"Although":7928,"Ġeast":7929,"ĠCra":7930,"Ġstaying":7931,"ruption":7932,"Ġaddresses":7933,"Ste":7934,"elly":7935,"ĠEnt":7936,"Ġfiction":7937,"Ġmatt":7938,"Ġstreets":7939,"OO":7940,"ĠSEO":7941,"Ġhistoric":7942,"Ġsplit":7943,"Bu":7944,"inch":7945,"ĠInsurance":7946,"oom":7947,"Ġmixture":7948,"ĠTry":7949,"ĠPrime":7950,"ĠColl":7951,"Ġstrongly":7952,"essel":7953,"Ġtransactions":7954,"Ġequivalent":7955,"Ġ400":7956,"Ġapplying":7957,"anna":7958,"Ġhotels":7959,"ventional":7960,"oned":7961,"Ġdelivering":7962,"ĠBeaut":7963,"rat":7964,"Ġwalked":7965,"ĠLocal":7966,"Ġcarrying":7967,"ĠNorthern":7968,"Ġsubscription":7969,"ĠVan":7970,"aniel":7971,"ĠSenate":7972,"Ġpulled":7973,"ĠJeff":7974,"Ġgrateful":7975,"Ġwatched":7976,"Ġtutorial":7977,"Ġspecified":7978,"ĠPhys":7979,"Ġlegit":7980,"Ġtor":7981,"flow":7982,"Ġcapabilities":7983,"uster":7984,"Ġtap":7985,"olar":7986,"ĠBoston":7987,"ĠYet":7988,"Ġera":7989,"Ġlegislation":7990,"67":7991,"Ġinspe":7992,"64":7993,"Ġlifetime":7994,"Ġdriven":7995,"Ġarray":7996,"Ġassociation":7997,"Ġforgot":7998,"Ġstronger":7999,"charge":8000,"Ġalive":8001,"ĠSmart":8002,"ĠLy":8003,"Ġalongside":8004,"=\"":8005,"ĠConf":8006,"ĠBox":8007,"making":8008,"ĠRegist":8009,"Ġrecover":8010,"Ġbeneficial":8011,"Ġutilize":8012,"Ġfinger":8013,"Ġfundamental":8014,"ĠMov":8015,"Ġtum":8016,"Ġtalked":8017,"Ġapplies":8018,"Ð¸":8019,"ĠSS":8020,"Ġnewly":8021,"!!!!":8022,"Ġdeck":8023,"Ġrely":8024,"ĠEstate":8025,"onto":8026,"izza":8027,"ĠSC":8028,"Ġcancell":8029,"Ġaccomplish":8030,"Ġobjective":8031,"Ġeggs":8032,"Ġsurprising":8033,"ivery":8034,"Ġdevelopers":8035,"atile":8036,"ĠEnjoy":8037,"Ġrepeated":8038,"ĠPacific":8039,"Ã¡":8040,"Ġoutcome":8041,"ĠMobile":8042,"Ġindicate":8043,"Ġbelieves":8044,"ulating":8045,"Ġattach":8046,"ĠSingapore":8047,"Ġconvey":8048,"Ġwhilst":8049,"Ġflash":8050,"ckets":8051,"Ġscientists":8052,"Ġhydro":8053,"Ġbreaking":8054,"ĠChair":8055,"ĠYoung":8056,"ayer":8057,"Ġslot":8058,"stal":8059,"Ġpenal":8060,"mo":8061,"ĠSU":8062,"Ġcontest":8063,"ĠGames":8064,"fits":8065,"Ġunus":8066,"ĠFun":8067,"²ÐĤ":8068,"Archives":8069,"ijuana":8070,"ĠBang":8071,"aid":8072,"Ġvert":8073,"ributes":8074,"Ġrelation":8075,"08":8076,"Ġtube":8077,"Ġsteam":8078,"ĠPage":8079,"Ġscrew":8080,"tense":8081,"ĠCH":8082,"Ġapproaches":8083,"ĠFriend":8084,"Ġunex":8085,"Ġoccurs":8086,"Ġdisability":8087,"Ġending":8088,"Ġyard":8089,"ĠCrusher":8090,"icious":8091,"ĠNight":8092,"Ġreply":8093,"gging":8094,"star":8095,"ĠPlant":8096,"ĠVideo":8097,"Ġsuddenly":8098,"Ġgambling":8099,"Ġcontents":8100,"Ġsecondary":8101,"ĠTri":8102,"gorith":8103,"Ġbutt":8104,"ĠTable":8105,"ĠSanta":8106,"Ġjoining":8107,"Ġdrawn":8108,"ĠHaving":8109,"Ġmood":8110,"ĠOhio":8111,"ĠColumb":8112,"Ġuncom":8113,"visor":8114,"anned":8115,"Ġwave":8116,"ennis":8117,"fa":8118,"ba":8119,"51":8120,"Ġpride":8121,"Go":8122,"EE":8123,"ĠAgain":8124,"Ġsou":8125,"sters":8126,"Ġbroadcast":8127,"ĠRef":8128,"NN":8129,"ĠArmy":8130,"Ġtooth":8131,"ĠSea":8132,"cture":8133,"lude":8134,"Ġclosing":8135,"Ġevaluation":8136,"Ġstudying":8137,"Ġcommittee":8138,"Ġmole":8139,"ĠLee":8140,"pending":8141,"Ġentering":8142,"ĠWi":8143,"Ġpassionate":8144,"this":8145,"theless":8146,"Ġpul":8147,"Ġalter":8148,"Ġprovision":8149,"ĠWordPress":8150,"ystem":8151,"ĠSn":8152,"Ġspark":8153,"oir":8154,"Ġbridge":8155,"FC":8156,"Ġbrilliant":8157,"interest":8158,"Ġreform":8159,"Welcome":8160,"ref":8161,"ĠThough":8162,"oted":8163,"ĠSystems":8164,"ĠSup":8165,"Ġrac":8166,"uma":8167,"illy":8168,"ĠMO":8169,"ĠProfessional":8170,"Ġalt":8171,"Ġnuclear":8172,"Ġconserv":8173,"Ġmassage":8174,"ĠPop":8175,"upid":8176,"iking":8177,"Co":8178,"bits":8179,"criptions":8180,"igs":8181,"Ġ38":8182,"ĠOrig":8183,"ĠGarden":8184,"Ġmurder":8185,"Ġlady":8186,"teen":8187,"Ġtwenty":8188,"Dr":8189,"Ġoperated":8190,"ĠSpain":8191,"2021":8192,"Ġtitles":8193,"Ġcombine":8194,"Ġfrequency":8195,"Ġconsequences":8196,"ĠKn":8197,"Ġgotten":8198,"Ġmerely":8199,"ĠMeet":8200,"Ġharder":8201,"ĠStock":8202,"Ġinstruction":8203,"Note":8204,"etch":8205,"MC":8206,"Ġgranted":8207,"imal":8208,"Ġhasn":8209,"Ġtrim":8210,"Ġcompensation":8211,"yard":8212,"Ġdeeply":8213,"ĠNatural":8214,"Ġrefres":8215,"ĠStone":8216,"ĠEss":8217,"ĠSoftware":8218,"iversary":8219,"ĠQuality":8220,"ĠVill":8221,"Ġinjuries":8222,"Ġpocket":8223,"Ġreturning":8224,"Ġoccurred":8225,"Ġneut":8226,"Ġrapidly":8227,"ument":8228,"Ġenthusi":8229,"Ġuncertain":8230,"Even":8231,"Ġlaptop":8232,"Ġchances":8233,"inally":8234,"ĠShare":8235,"isdom":8236,"Ġlift":8237,"Ġrepresentative":8238,"Ġaggress":8239,"ĠLic":8240,"from":8241,"Ġmm":8242,"ĠProtection":8243,"Ġdiversity":8244,"Ġcalendar":8245,"erry":8246,"oto":8247,"ĠColorado":8248,"Ġstro":8249,"ĠMedicine":8250,"Ġunknown":8251,"Ġformula":8252,"Ġprotest":8253,"inter":8254,"cal":8255,"inity":8256,"eling":8257,"ĠGeorgia":8258,"Ġobserv":8259,"Ġalleged":8260,"ĠUnfortunately":8261,"Ġintense":8262,"Ġinvited":8263,"alysis":8264,"ĠThree":8265,"Ġcasual":8266,"Ġmanagers":8267,"Ġprotocol":8268,"Ġtired":8269,"52":8270,"Ġexhaust":8271,"acle":8272,"lymp":8273,"ĠViet":8274,"ĠEgypt":8275,"Ġadvertise":8276,"ĠFord":8277,"ĠRichard":8278,"Ġbirds":8279,"Ġly":8280,"Ġmeets":8281,"Ġvegetables":8282,"iano":8283,"Ġexperiencing":8284,"ĠDaily":8285,"ĠFestival":8286,"ĠCR":8287,"achi":8288,"ĠProfessor":8289,"54":8290,"Ġrevolution":8291,"rection":8292,"ifting":8293,"Ġdivor":8294,"Ġchildhood":8295,"Ġevolution":8296,"ĠStill":8297,"Ġmic":8298,"CD":8299,"Ġinitially":8300,"Ġtact":8301,"Ġorient":8302,"Ġresponses":8303,"ĠSecretary":8304,"ĠGreek":8305,"Ġengaging":8306,"Ġgym":8307,"Tw":8308,"Ġescape":8309,"ulum":8310,"Ġrecognition":8311,"ĠMichigan":8312,"During":8313,"Ġinstitution":8314,"...]":8315,"Ġgraphics":8316,"Ġparagraph":8317,"ugs":8318,"Ġvisits":8319,"agged":8320,"ĠLearning":8321,"ĠSafety":8322,"ceived":8323,"phones":8324,"quis":8325,"nament":8326,"Ġmattress":8327,"ione":8328,"vas":8329,"Ġadvantages":8330,"Ġentitled":8331,"Ġintellectual":8332,"Ġcertificate":8333,"Of":8334,"ĠBiden":8335,"Ġfalling":8336,"Ġdemands":8337,"lyn":8338,"ĠJava":8339,"bd":8340,"igen":8341,"Ġtro":8342,"Good":8343,"swe":8344,"Ġhel":8345,"Ġdishes":8346,"Ġimpressed":8347,"Ġasset":8348,"olesale":8349,"==":8350,"],":8351,"Ġseats":8352,"Ġspots":8353,"ĠFour":8354,"Ġnutrition":8355,"ĠBit":8356,"ĠSilver":8357,"ĠTele":8358,"Ġelectron":8359,"eters":8360,"ĠBuilding":8361,"Ġautomatic":8362,"Ġreject":8363,"Per":8364,"Ġjur":8365,"ih":8366,"Ġadequ":8367,"Ġfocuses":8368,"ĠLine":8369,"igence":8370,"iary":8371,"ĠComput":8372,"ĠShould":8373,"amber":8374,"ĠDI":8375,"Ġelegant":8376,"Ġcolon":8377,"Ġconvenience":8378,"ĠSwed":8379,"Ġdirections":8380,"Ġcurrency":8381,"ĠProcess":8382,"Ġstatistics":8383,"Ġpurs":8384,"Ġlargely":8385,"Ġneuro":8386,"produ":8387,"ĠRose":8388,"bro":8389,"ĠFre":8390,"Ġdebut":8391,"umer":8392,"ĠSat":8393,"97":8394,"ĠDan":8395,"ormal":8396,"ĠJon":8397,"step":8398,"Ġloose":8399,"ĠMah":8400,"Ġinvolving":8401,"Ġlistings":8402,"Ġexists":8403,"%,":8404,"ĠSav":8405,"VD":8406,"Ġfaces":8407,"https":8408,"ĠJustice":8409,"Ġphenomen":8410,"ĠFa":8411,"ĠPerhaps":8412,"ĠBritain":8413,"07":8414,"cut":8415,"char":8416,"iana":8417,"Ġtrib":8418,"nce":8419,"Ġsoph":8420,"PM":8421,"Ġ(âĢľ":8422,"ĠHa":8423,"Ġneighb":8424,"Ġemotions":8425,"ĠClin":8426,"ĠJones":8427,"iams":8428,"Ġtone":8429,"ffered":8430,"Ġpacked":8431,"iors":8432,"home":8433,"ĠQueen":8434,"ĠLeg":8435,"Ġsuffer":8436,"Ġflexibility":8437,"tery":8438,"Ġsafely":8439,"ĠEst":8440,"ĠContent":8441,"Ġdont":8442,"Ġcolours":8443,"Ġinsert":8444,"Ġencounter":8445,"ĠFar":8446,"Ġtissue":8447,"ĠPS":8448,"Ġloyal":8449,"ali":8450,"Ġjewelry":8451,"rick":8452,"Ġda":8453,"Ġcenters":8454,"Ġweren":8455,"cribed":8456,"rite":8457,"ĠReading":8458,"Ġindu":8459,"Ġprayer":8460,"olid":8461,"Ġocean":8462,"ĠPhilipp":8463,"Ġfindings":8464,"Ġexploring":8465,"Ġaircraft":8466,"ĠGovern":8467,"ĠExplore":8468,"Ġreveal":8469,"icide":8470,"ĠAp":8471,"Ġru":8472,"Ġaggreg":8473,"Ġcolumn":8474,"ĠType":8475,"ĠAI":8476,"Ġplain":8477,"itches":8478,"Ġmistake":8479,"Ġriding":8480,"amic":8481,"Ġdeeper":8482,"ĠCro":8483,"Ġadmit":8484,"Ġaims":8485,"Ġfilling":8486,"Ġpace":8487,"Ġsentence":8488,"terior":8489,"Ġdrain":8490,"Ġjuice":8491,"Ġpowers":8492,"Ġweird":8493,"wan":8494,"Last":8495,"Ġdepression":8496,"Ġintroduce":8497,"Ġgrace":8498,"ĠAdministration":8499,"Ġdivision":8500,"Ġswimming":8501,"Ġweapons":8502,"Ġresort":8503,"Ġindicated":8504,"ĠMcC":8505,"06":8506,"Ġintention":8507,"Ġtape":8508,"ailing":8509,"Ġsolely":8510,"Ġwise":8511,"Ġinventory":8512,"Ġclaimed":8513,"Ġworkshop":8514,"orous":8515,"RL":8516,"Ġjer":8517,"Ġrespectively":8518,"ĠCommon":8519,"800":8520,"Ġwireless":8521,"Ġmath":8522,"Ġchest":8523,"Ġemployer":8524,"ĠHon":8525,"lections":8526,"Ġattended":8527,"ban":8528,"ĠJersey":8529,"Ġrecre":8530,"Ġexpansion":8531,"ĠBeing":8532,"ĠAgency":8533,"2019":8534,"Ġpreparing":8535,"[âĢ¦]":8536,"Ġ``":8537,"ĠOwn":8538,"low":8539,"Ġbetting":8540,"quest":8541,"Ġmaintained":8542,"Ġvessel":8543,"Ġtexture":8544,"gi":8545,"ĠIss":8546,"Ġsour":8547,"Ġstead":8548,"Ġorganis":8549,"ĠBon":8550,"ĠFrancisco":8551,"ĠAndrew":8552,"oding":8553,"Ġtherap":8554,"ĠExpress":8555,"ucky":8556,"nda":8557,"Ġseam":8558,"Ġeverybody":8559,"Ġ33":8560,"Ġbranch":8561,"ĠStandard":8562,"days":8563,"Ġcomplim":8564,"Ġhosted":8565,"Ġobst":8566,"Ġinteraction":8567,"arters":8568,"da":8569,"Ġgate":8570,"rus":8571,"\\\\\\\\\\\\\\\\\\\\\\\\\\\\\\\\\\\\\\\\\\\\\\\\\\\\\\\\\\\\\\\\":8572,"Ġpounds":8573,"uten":8574,"tical":8575,"Ġokay":8576,"chester":8577,"ĠKind":8578,"ĠChampions":8579,"Ġconclusion":8580,"Ġpleasant":8581,"ĠAge":8582,"ĠFact":8583,"ĠHun":8584,"ĠHeart":8585,"ĠPrint":8586,"Ġcoat":8587,"Ġthousand":8588,"Ġrising":8589,"Ġalign":8590,"Ġaccommodation":8591,"stract":8592,"Ġscope":8593,"Hey":8594,"Ġscenes":8595,"anny":8596,"aka":8597,"bury":8598,"cm":8599,"Ġlaid":8600,"burgh":8601,"Ġflying":8602,"Ð°":8603,"retion":8604,"print":8605,"ĠKar":8606,"ounded":8607,"ruitment":8608,"Ġnursing":8609,"Ġcertification":8610,"'.":8611,"Ġprivile":8612,"Ġtelephone":8613,"epend":8614,"ĠLatin":8615,"ubscribe":8616,"09":8617,"Ġawards":8618,"dis":8619,"ÂĢÂ¦":8620,"Ġconvin":8621,"ĠMA":8622,"ĠEasy":8623,"Ġviewing":8624,"Ġmild":8625,"vironments":8626,"04":8627,"Ġequally":8628,"ĠIra":8629,"Ġalgorith":8630,"ocracy":8631,"ĠDie":8632,"Ġstudied":8633,"Ġgay":8634,"rary":8635,"Ġdose":8636,"ĠiP":8637,"Ġcolleagues":8638,"Ġtemporary":8639,"Ġlayout":8640,"Ġelectricity":8641,"ĠLevel":8642,"Ġ37":8643,"ĠMachine":8644,"inst":8645,"Ġdiabetes":8646,"Ġrural":8647,"Ġacknowledge":8648,"Ġlowest":8649,"ĠSteve":8650,"ĠMembers":8651,"Ġstruggling":8652,"Ġapparently":8653,"ĠAsh":8654,"Ġessentially":8655,"Ġphilosophy":8656,"otive":8657,"Ġfaculty":8658,"Ġlayers":8659,"ĠPakistan":8660,"ĠMort":8661,"ĠPur":8662,"zzle":8663,"ĠAirport":8664,"Ġsurvive":8665,"Ġfiber":8666,"Ġcalm":8667,"Ġimper":8668,"iac":8669,"ĠPhoto":8670,"ĠSus":8671,"ĠCivil":8672,"ansas":8673,"odge":8674,"RC":8675,"Ġranking":8676,"zed":8677,"fall":8678,"Ġbroke":8679,"ĠDNA":8680,"Ġencouraged":8681,"Ġsomehow":8682,"Ġwashing":8683,"ĠOlymp":8684,"Have":8685,"ĠMountain":8686,"Ġinformative":8687,"Ġpermit":8688,"Ġ..":8689,"isd":8690,"och":8691,"Ġleague":8692,"Pre":8693,"uty":8694,"Ġstir":8695,"ĠShipping":8696,"ji":8697,"Ġreserve":8698,"ĠBan":8699,"ĠIrish":8700,"Ġmac":8701,"ĠPrim":8702,"Ġcontinuous":8703,"Ġtoler":8704,"Ġdollar":8705,"Ġstages":8706,"ashes":8707,"olving":8708,"Ġquotes":8709,"cellence":8710,"Ġsubsid":8711,"war":8712,"Ġbuyer":8713,"Ġfinest":8714,"ĠCharles":8715,"Ġmg":8716,"ĠGuard":8717,"eras":8718,"Pr":8719,"Ġfib":8720,"Ġgiant":8721,"ĠRam":8722,"ĠUSB":8723,"Ġknock":8724,"cia":8725,"Ġresid":8726,"Ġcreativity":8727,"Ġmasks":8728,"erman":8729,"rog":8730,"69":8731,"cor":8732,"xid":8733,"Mar":8734,"ĠBed":8735,"Ġorange":8736,"ervice":8737,"mart":8738,"Ġgained":8739,"ĠBlog":8740,"Ġattitude":8741,"Ġputs":8742,"ĠCab":8743,"ounce":8744,"Ġdrinks":8745,"Ġinvestments":8746,"ĠJackson":8747,"inyl":8748,"FA":8749,"ials":8750,"Ġwarning":8751,"Ġextraord":8752,"Ġenforcement":8753,"Man":8754,"Ġtons":8755,"Ġsurely":8756,"ĠAdditionally":8757,"Ġtranslation":8758,"ĠOfficer":8759,"icted":8760,"Ġtwist":8761,"Ġcalories":8762,"icket":8763,"Ġsignature":8764,"iot":8765,"Ġbroker":8766,"iti":8767,"Up":8768,"mitting":8769,"ĠWas":8770,"Ġdesigners":8771,"bridge":8772,"Ġsmoke":8773,"ĠTool":8774,"Ġaccounting":8775,"Ġintegration":8776,"aped":8777,"ĠBul":8778,"Ġsear":8779,"ĠLiving":8780,"Ġwake":8781,"Ġawarded":8782,"400":8783,"ĠMember":8784,"ĠMD":8785,"illion":8786,"Ġsacr":8787,"Ġloud":8788,"ĠLiber":8789,"Ġdiamond":8790,"Ġratings":8791,"dy":8792,"Ġbelt":8793,"ĠJoseph":8794,"igure":8795,"Ġtemplate":8796,"Ġ1000":8797,"Ġ99":8798,"ĠDar":8799,"Ġchronic":8800,"anes":8801,"Ġskilled":8802,"Ġprovisions":8803,"Ġblogging":8804,"Wor":8805,"Ġinfect":8806,"ĠKorea":8807,"Ġgap":8808,"Ġperiods":8809,"ĠAnaly":8810,"ĠRen":8811,"Ġfocusing":8812,"''":8813,"Ġstability":8814,"Ġexercises":8815,"ractions":8816,"Ġvictims":8817,"ĠConnect":8818,"Ġmarijuana":8819,"Ġlatter":8820,"Â·":8821,"ped":8822,"ila":8823,"Ġdefine":8824,"Ġthinks":8825,"ĠSeason":8826,"ĠNO":8827,"Ġtrips":8828,"Ġ~":8829,"Ġprinciple":8830,"Ġadopted":8831,"Ġreceipt":8832,"Ġheaven":8833,"ĠVisit":8834,"ĠOS":8835,"NT":8836,"Ġhoriz":8837,"Ġboss":8838,"Ġinteractive":8839,"Ġpromotion":8840,"Ġshots":8841,"ĠLi":8842,"annel":8843,"Ġbench":8844,"Ġassignment":8845,"fections":8846,"Ġdescribes":8847,"Ġenvironments":8848,"ĠMir":8849,"Ġparticipation":8850,"Ġlake":8851,"Ġsees":8852,"rolled":8853,"assion":8854,"Ġphones":8855,"ĠWithout":8856,"Ġtemperatures":8857,"Ġquantity":8858,"?\"":8859,"onic":8860,"Ġdiscrim":8861,"Ġreb":8862,"uct":8863,"Ġsuspect":8864,"ilet":8865,"Ġvictory":8866,"Ġroots":8867,"riving":8868,"ĠSenior":8869,"ĠAutom":8870,"Ġcontribution":8871,"sex":8872,"Ġplane":8873,"Ġfalls":8874,"Ġ39":8875,"oes":8876,"Ġuniverse":8877,"Ġauthentic":8878,"ĠRom":8879,"Ġsalary":8880,"ĠOK":8881,"Ġcontainer":8882,"Ġarrival":8883,"ĠAuto":8884,"Ġstylish":8885,"Ġglobe":8886,"Ġ65":8887,"ensus":8888,"Ġpic":8889,"Ġcomply":8890,"ME":8891,"Ġsegment":8892,"Ġbone":8893,"ĠCloud":8894,"ĠFinally":8895,"sell":8896,"Ġtargeted":8897,"ĠCC":8898,"Ġacquired":8899,"Ġbrush":8900,"Ġfest":8901,"Ġmedication":8902,"Ġinvesting":8903,"sole":8904,"Ġownership":8905,"Ġacquis":8906,"Ġappreciated":8907,"ĠIde":8908,"Ġcomputers":8909,"Ġconvert":8910,"ĠCou":8911,"ĠPut":8912,"Ġspeaker":8913,"ĠSher":8914,"Ġestimate":8915,"Ġdelivers":8916,"ĠModern":8917,"ĠHappy":8918,"Ġrubber":8919,"rug":8920,"inton":8921,"lix":8922,"ĠFoot":8923,"rets":8924,"Ġassigned":8925,"Ġpromoting":8926,"onymous":8927,"Ġdeemed":8928,"ĠCheapest":8929,"aret":8930,"ĠCorporation":8931,"Ġ]":8932,"Ġorganisation":8933,"Ġmoral":8934,"Ġstations":8935,"month":8936,"Ġnavigate":8937,"Ġshoulder":8938,"sem":8939,"heast":8940,"Ġexclusively":8941,"rix":8942,"Ġhappiness":8943,"ĠCountry":8944,"grade":8945,"Ġedit":8946,"Ġbehaviour":8947,"Ġexplanation":8948,"ĠRa":8949,"Ġkil":8950,"Ġpregnancy":8951,"Ġshirt":8952,"Ġaband":8953,"ĠSE":8954,"Ġexch":8955,"DP":8956,"Ġpanels":8957,"Ġfestival":8958,"cest":8959,"Ġware":8960,"Ġrated":8961,"Ġhoney":8962,"Ġabilities":8963,"ĠIce":8964,"Ġdamages":8965,"ĠFac":8966,"Ġdistributed":8967,"cycle":8968,"Ġhide":8969,"sis":8970,"ethe":8971,"Ġbold":8972,"\",\"":8973,"Ġhanging":8974,"Ġantib":8975,"Ġinstantly":8976,"Ġdeveloper":8977,"Ġparticipating":8978,"bow":8979,"Ġgene":8980,"NC":8981,"Ġdispl":8982,"Ġsubstance":8983,"Ġlegend":8984,"Ġkilling":8985,"Ġdemonstrate":8986,"Ġstood":8987,"Ġmechanical":8988,"Ġoral":8989,"Ġrepresented":8990,"eness":8991,"Ġfounder":8992,"ĠIraq":8993,"ĠName":8994,"ĠWeight":8995,"ĠForce":8996,"ĠÎ":8997,"Ġphotographs":8998,"author":8999,"Ġgolden":9000,"Ġunusual":9001,"Ġauthorized":9002,"looking":9003,"py":9004,"Ġimprovements":9005,"ĠHas":9006,"har":9007,"Ġinterviews":9008,"Ġ34":9009,"Ġscores":9010,"Ġequity":9011,"Ġsed":9012,"Ġbid":9013,"world":9014,"Ġsod":9015,"ĠFall":9016,"Ġsought":9017,"Ġhopes":9018,"Ġnights":9019,"Ġterr":9020,"Ġaged":9021,"riter":9022,"Ġsemi":9023,"Ġminds":9024,"Ġvirtually":9025,"Bec":9026,"ĠKong":9027,"ĠKim":9028,"ĠLO":9029,"Ġcancel":9030,"Ġheading":9031,"Ġproport":9032,"cker":9033,"ĠCapital":9034,"una":9035,"onda":9036,"Ġimplemented":9037,"Ġworn":9038,"ĠBooks":9039,"pany":9040,"Ġcompact":9041,"Ġladies":9042,"ĠMother":9043,"Ġletting":9044,"swered":9045,"unicip":9046,"Ġunexpected":9047,"iag":9048,"TV":9049,"Ġreaching":9050,"ĠTurn":9051,"Ġfulfill":9052,"ĠCru":9053,"ĠDonald":9054,"ulpt":9055,"Ġcurious":9056,"rooms":9057,"Ġseller":9058,"Ġbull":9059,"Ġtonight":9060,"ĠEquipment":9061,"Ġcomprom":9062,"Ġbills":9063,"Ġrepairs":9064,"books":9065,"Ġpublishing":9066,"olt":9067,"ĠHold":9068,"section":9069,"ĠAvailable":9070,"enny":9071,"Ġnutri":9072,"Ġstupid":9073,"limited":9074,"ĠSH":9075,"ĠJac":9076,"Ġfaced":9077,"Ġcow":9078,"Ġmeasured":9079,"atin":9080,"Ġspecifications":9081,"Then":9082,"Ġrenov":9083,"zona":9084,"ouston":9085,"ĠRay":9086,"Ġhung":9087,"ouses":9088,"Ġcatalog":9089,"ĠTal":9090,"Ġindoor":9091,"Ġdiagnosis":9092,"Ġought":9093,"ĠJob":9094,"ĠEastern":9095,"Ġblow":9096,"Ġensures":9097,"ĠSolutions":9098,"Ġhearts":9099,"style":9100,"Ġdeploy":9101,"zes":9102,"Ġstack":9103,"iffe":9104,"Ġrefers":9105,"ĠBE":9106,"rape":9107,"ĠDa":9108,"Ġmaps":9109,"Ġroads":9110,"power":9111,"Ġscreening":9112,"Ġregulatory":9113,"viously":9114,"Ġtransformation":9115,"ĠWilliams":9116,"ĠALL":9117,"Ġproposal":9118,"Ġshed":9119,"itative":9120,"ĠEvent":9121,"ĠPA":9122,"anguage":9123,"Ġremained":9124,"Ġfarmers":9125,"ERS":9126,"Ġpreferences":9127,"Ġhiring":9128,"Ġconsistently":9129,"MO":9130,"quiry":9131,"usal":9132,"Ġprofessor":9133,"\":\"":9134,"riculum":9135,"Ġreviewed":9136,"ĠEmer":9137,"Ġstayed":9138,"Ġspeakers":9139,"Ġdifficulty":9140,"Ġwisdom":9141,"aze":9142,"Ġdisag":9143,"ĠSpace":9144,"acher":9145,"Ġdeaths":9146,"sized":9147,"Ġcontracts":9148,"See":9149,"ĠMrs":9150,"ĠLooking":9151,"Ġinvite":9152,"ĠStudies":9153,"ĠSupreme":9154,"ĠConsult":9155,"urious":9156,"uan":9157,"ĠMinistry":9158,"Ġpets":9159,"Ġwestern":9160,"ffective":9161,"ĠWH":9162,"Ġnose":9163,"ĠStation":9164,"Ġworship":9165,"Ġflaw":9166,"Ġoils":9167,"aping":9168,"ĠSep":9169,"ĠDate":9170,"Ġsubstantial":9171,"adel":9172,"Ġslee":9173,"!\"":9174,"Ġ55":9175,"Ġcats":9176,"was":9177,"Ġcocon":9178,"Ġdiscounts":9179,"Ġgam":9180,"Ġhaz":9181,"Ġ1990":9182,"Ġnations":9183,"ĠSummer":9184,"Ġlens":9185,"Ġske":9186,"Ġka":9187,"Ġacquire":9188,"Ġmathem":9189,"Ġguides":9190,"85":9191,"Ġdil":9192,"Ġworried":9193,"Ġcouncil":9194,"Ġwaters":9195,"after":9196,"abil":9197,"Ġ120":9198,"Ġpersonnel":9199,"ibl":9200,"ĠNeed":9201,"Ġjun":9202,"Ġkeys":9203,"vania":9204,"ĠDrive":9205,"ĠFA":9206,"Ġbuff":9207,"Ġimmune":9208,"Ġmistakes":9209,"isa":9210,"Ġbalanced":9211,"Ġyards":9212,"Ġpeak":9213,"Ġmanufactured":9214,"Ġsoccer":9215,"Ġduties":9216,"Ġthemes":9217,"Ġexhibition":9218,"ĠPartners":9219,"ĠQuick":9220,"piece":9221,"Ġhits":9222,"Ġimmun":9223,"ĠRepublican":9224,"Ġyoga":9225,"Ġdiscretion":9226,"Ġrepresentation":9227,"Reg":9228,"Ġinitiative":9229,"ĠTrad":9230,"Ġstreaming":9231,"âĢĿ)":9232,"Ġuniform":9233,"ĠCase":9234,"ĠComments":9235,"Ġdelete":9236,"Ġroyal":9237,"ĠRoom":9238,"Ġediting":9239,"ĠEll":9240,"Ġterrible":9241,"Ġevaluate":9242,"Ġcontributions":9243,"Ġworkout":9244,"Ġcombat":9245,"ĠDue":9246,"ĠHong":9247,"Ġgrocer":9248,"TP":9249,"Ġenemy":9250,"Ġsurve":9251,"stein":9252,"Ġpersonalized":9253,"Ġmyth":9254,"Ġbrowse":9255,"ĠAL":9256,"ĠCome":9257,"Ġoverse":9258,"Ġclock":9259,"Ġrarely":9260,"!,":9261,"estone":9262,"inois":9263,"Ġnail":9264,"ourse":9265,"Ġsubsequent":9266,"ĠMess":9267,"Ġleaf":9268,"Ġdivided":9269,"Ġcourts":9270,"Each":9271,"ampion":9272,"ĠRs":9273,"ĠJoin":9274,"Ġ1999":9275,"Ġpoker":9276,",.":9277,"abeth":9278,"Fr":9279,"Ġboot":9280,"Ġbrowsing":9281,"ĠDivision":9282,"run":9283,"Ġax":9284,"ĠBC":9285,"giving":9286,"aha":9287,"atching":9288,"Ġsouthern":9289,"ĠModel":9290,"organ":9291,"Ġordinary":9292,"Gu":9293,"ĠDelivery":9294,"ĠMaterial":9295,"vity":9296,"omething":9297,"Ġplacing":9298,"Ġwrites":9299,"Ġservers":9300,"Ġlease":9301,"Ġtalented":9302,"Ġdeserve":9303,"Ġpitch":9304,"Ġemotion":9305,"Ġrecip":9306,"Ġcopies":9307,"Ġarmy":9308,"Ġattempts":9309,"Ġadditionally":9310,"ĠRemember":9311,"itis":9312,"Whether":9313,"SO":9314,"Ġlikewise":9315,"Ġbanking":9316,"62":9317,"ĠToy":9318,"ĠDark":9319,"Ġholes":9320,"Ġsmoking":9321,"Ġbub":9322,"Ġstom":9323,"Ġboards":9324,"Ġsurfaces":9325,"ĠEverything":9326,"ĠHT":9327,"Ġprecious":9328,"GA":9329,"Ġdies":9330,"leep":9331,"umbing":9332,"athered":9333,"Ġfoam":9334,"Ġmuscles":9335,"Ġrepeat":9336,"Ġfont":9337,"Ġcompatible":9338,"Aut":9339,"Ġmanif":9340,"ds":9341,"asty":9342,"ĠOp":9343,"Ġromantic":9344,"Ġassembly":9345,"Ġfranch":9346,"ĠHP":9347,"Ġsomebody":9348,"ĠSex":9349,"Ġregulation":9350,"Ġannoy":9351,"Ġreleases":9352,"Ġanswered":9353,"ĠTam":9354,"Ġopposed":9355,"Ġemerging":9356,"Ġdetect":9357,"Ġinspection":9358,"Ġcig":9359,"ifier":9360,"Ġcuts":9361,"Ġfemin":9362,"Ġconfiguration":9363,"Ġentrance":9364,"Ġscreens":9365,"Ġsurvival":9366,"Ġpepper":9367,"Ġlosses":9368,"Ġadvise":9369,"Ġwheels":9370,"igeria":9371,"',":9372,"acular":9373,"Ġresolve":9374,"Ġworkplace":9375,"Ġshapes":9376,"Ġrecall":9377,"Ġaluminum":9378,"Ġappli":9379,"Ġdocumentation":9380,"79":9381,"Ġpermitted":9382,"remony":9383,"ho":9384,"ĠReci":9385,"ĠOnt":9386,"Ġchemicals":9387,"Ġalarm":9388,"Ġmakeup":9389,"atell":9390,"Ġconsultation":9391,"Before":9392,"Ġsuffered":9393,"Ġamen":9394,"ĠCollection":9395,"Ġfewer":9396,"Ġjurisd":9397,"aylor":9398,"Ġbeautifully":9399,"Ġvintage":9400,"ĠTrade":9401,"ATION":9402,"Ġpointed":9403,"Ġpregnant":9404,"break":9405,"Ġproductivity":9406,"ĠToronto":9407,"Ġtoys":9408,"inar":9409,"ylvania":9410,"ĠEmail":9411,"sts":9412,"Ġmoisture":9413,"hesis":9414,"Ġbreaks":9415,"istent":9416,"orses":9417,"ĠKent":9418,"Ġofficially":9419,"Ġrefrig":9420,"Ġski":9421,"Ġlightweight":9422,"ĠEveryone":9423,"Ġwooden":9424,"thew":9425,"ĠUk":9426,"ĠAwards":9427,"ĠBush":9428,"gent":9429,"itched":9430,"Ġcircuit":9431,"Ġmountains":9432,"Ġsupplements":9433,"ĠSelf":9434,"alo":9435,"Ġgovernments":9436,"Ġdough":9437,"dep":9438,"acon":9439,"Ġexamination":9440,"âĢ³":9441,"ghan":9442,"Ġconversion":9443,"Ġ42":9444,"tail":9445,"ington":9446,"Ġdecrease":9447,"Ġregards":9448,"Ġengines":9449,"Ġverify":9450,"Ġdanger":9451,"63":9452,"Ġconcentration":9453,"Ġflights":9454,"ritten":9455,"ĠNic":9456,"Ġcelebration":9457,"Ġcher":9458,"Ġ250":9459,"Ġprime":9460,"hour":9461,"ĠArticle":9462,"iami":9463,"leg":9464,"Ġpowered":9465,"ĠNut":9466,"Ġsleeping":9467,"Ġmit":9468,"ĠDO":9469,"Ġenjoyable":9470,"Ġcoaching":9471,"Ġdual":9472,"Ġabund":9473,"âĢĭ":9474,"Ġelected":9475,"esides":9476,"Ġcement":9477,"ĠPerfect":9478,"Ġrolling":9479,"loved":9480,"UL":9481,"words":9482,"Ġabroad":9483,"lined":9484,"mat":9485,"ĠBudd":9486,"ĠGrow":9487,"Ġdiscussions":9488,"Ġangle":9489,"ĠHarr":9490,"doors":9491,"edge":9492,"rous":9493,"Ġoppon":9494,"Ġdesper":9495,"ĠBa":9496,"Ġdrives":9497,"osa":9498,"Ġvenue":9499,"Ġcoconut":9500,"rypt":9501,"Ġspell":9502,"Ġcasinos":9503,"Ġpainted":9504,"Ġcyber":9505,"Ġmatching":9506,"Ġgraphic":9507,"Ġresume":9508,"Ġresidence":9509,"bered":9510,"html":9511,"utter":9512,"vo":9513,"ĠPrivate":9514,"Ġenabled":9515,"ĠKitchen":9516,"Ġhighlights":9517,"Ġindicates":9518,"Ġaest":9519,"Ġformation":9520,"Ġweigh":9521,"Ġreferr":9522,"Ġfabulous":9523,"Ġprize":9524,"ĠPy":9525,"Ġsubscribe":9526,"Ġnegoti":9527,"ĠFinance":9528,"ĠTHC":9529,"ĠDrag":9530,"Ġcu":9531,"stra":9532,"Ġcorn":9533,"Ġobjectives":9534,"ĠVen":9535,"ĠHenry":9536,"ports":9537,"Ġfault":9538,"Ġtrem":9539,"Ġcontrovers":9540,"Ġspecialized":9541,"Ġbearings":9542,"Ġtort":9543,"Ġjudgment":9544,"Ġaer":9545,"Ġdrama":9546,"Ġinhib":9547,"adium":9548,"Ġfascinating":9549,"Ġlaser":9550,"Ġelsewhere":9551,"ĠSem":9552,"ĠStudent":9553,"Feb":9554,"ĠSir":9555,"ĠPsych":9556,"ĠLA":9557,"omic":9558,"Ġmanip":9559,"asted":9560,"Ġvertical":9561,"Ġsigning":9562,"61":9563,"Ġgarlic":9564,"Ġhyp":9565,"Ġimportantly":9566,"Ġvolunteers":9567,"Ġrestore":9568,"rer":9569,"ĠTreat":9570,"Ġthoroughly":9571,"iah":9572,"ĠWalk":9573,"Ġpossibilities":9574,"ĠArizona":9575,"ĠAnnual":9576,"function":9577,"ĠFox":9578,"aters":9579,"Ġgenetic":9580,"Ġconventional":9581,"Ġstocks":9582,"ieve":9583,"Ġexamine":9584,"Ġhadn":9585,"Because":9586,"Ġexpense":9587,"Ġheavily":9588,"hops":9589,"Ġhub":9590,"WS":9591,"Ġsolo":9592,"Ġlanding":9593,"Ġmeaningful":9594,"Ġexpanded":9595,"Ġcompletion":9596,"Ġstrike":9597,"Ġdowntown":9598,"Ġcul":9599,"Ġgonna":9600,"imp":9601,"ĠDaniel":9602,"ĠIndustry":9603,"Ġemployers":9604,"Ġcompan":9605,"ĠFL":9606,"uum":9607,"iatric":9608,"Part":9609,"Ġvulnerable":9610,"ĠTech":9611,"Ġraising":9612,"Ġimpression":9613,"Ġtargets":9614,"sylvania":9615,"ilty":9616,"gments":9617,"achelor":9618,"dney":9619,"Ġfingers":9620,"ĠApart":9621,"Ġfert":9622,"Ġprotecting":9623,"EP":9624,"ĠDespite":9625,"ĠProperty":9626,"ĠHawai":9627,"fers":9628,"Ġmineral":9629,"Ġranging":9630,"Ġcameras":9631,"ĠLabor":9632,"89":9633,"mod":9634,"enth":9635,"Ġchips":9636,"airy":9637,"Dis":9638,"Ġfrequent":9639,"ĠExchange":9640,"anwhile":9641,"Ġexplo":9642,"Ġsexy":9643,"olly":9644,"Ġremoving":9645,"ĠStrateg":9646,"Ġinstruments":9647,"Ġproduces":9648,"Ġshell":9649,"ĠAuthority":9650,"Ġtie":9651,"abling":9652,"American":9653,"Ġproducer":9654,"itu":9655,"Ġcarpet":9656,"Col":9657,"ĠSO":9658,"Ġactively":9659,"Ġamongst":9660,"Ġcampaigns":9661,"quire":9662,"Ġnewest":9663,"Ġunion":9664,"agen":9665,"Ġretain":9666,"Ġmovements":9667,"Ġlip":9668,"ĠHell":9669,"Ġadvised":9670,"Ġdesktop":9671,"ĠSA":9672,"Ġswing":9673,"à¥":9674,"Ġconversations":9675,"600":9676,"Ġwhereas":9677,"Ġracing":9678,"Ġwishes":9679,"Ġconnecting":9680,"kel":9681,"Ġnewspaper":9682,"don":9683,"Ġpollut":9684,"rong":9685,"erals":9686,"obe":9687,"Ġdistingu":9688,"ĠCateg":9689,"Ġcha":9690,"Ġbookmark":9691,"cs":9692,"Ġgenerations":9693,"Ġchecks":9694,"Ġcheaper":9695,"Ġrobust":9696,"foot":9697,"Ġfinancing":9698,"Ġanalytics":9699,"ĠMotor":9700,"mg":9701,"Ġtestim":9702,"Ġresident":9703,"fire":9704,"ĠDom":9705,"Ġflag":9706,"ĠSimply":9707,"ĠBath":9708,"ĠGolden":9709,"chers":9710,"ĠLas":9711,"Ġbacteria":9712,"Sec":9713,"aya":9714,"ĠAvenue":9715,"Ed":9716,"Ġsensor":9717,"Ġsupplied":9718,"Ġintegrity":9719,"ĠMom":9720,"winning":9721,"Ġactor":9722,"Ġenhanced":9723,"selling":9724,"ested":9725,"Sim":9726,"udes":9727,"Ġeliminate":9728,"dated":9729,"ortion":9730,"ĠFront":9731,"ĠForest":9732,"Ġfake":9733,"ĠHouston":9734,"ĠBuild":9735,"Ġinse":9736,"ĠBroad":9737,"Ġacknowled":9738,"ĠDoc":9739,"Ġartificial":9740,"cur":9741,"Ġduration":9742,"izabeth":9743,"Ġdecline":9744,"Ġscenario":9745,"through":9746,"Ġspecialists":9747,"ĠRub":9748,"Ġmodule":9749,"ĠBased":9750,"ĠRadio":9751,"ĠIllinois":9752,"oked":9753,"Ġ1980":9754,"Ġremarkable":9755,"Ġcomposition":9756,"Ġargue":9757,"Ġentity":9758,"ĠElectric":9759,"ĠChapter":9760,"Ġseasons":9761,"otion":9762,"Ġpoetry":9763,"Ġviewed":9764,"Ġconj":9765,"Ġhandy":9766,"Ġversus":9767,"ĠSize":9768,"ĠChristians":9769,"Ġnorthern":9770,")(":9771,"graduate":9772,"angle":9773,"ĠReviews":9774,"ĠAdam":9775,"xx":9776,"ĠCS":9777,"Ġalert":9778,"store":9779,"Ġpron":9780,"ĠEth":9781,"ipes":9782,"Ġdomin":9783,"Ġprincipal":9784,"even":9785,"Ġpig":9786,"%)":9787,"Ġuniversities":9788,"ĠLind":9789,"tains":9790,"ĠStaff":9791,"Ġaddressed":9792,"ĠVegas":9793,"150":9794,"Ġmodified":9795,"Ġ95":9796,"ĠSquare":9797,"Ġbeef":9798,"Tra":9799,"core":9800,"Ġcouples":9801,"87":9802,"Ġmirror":9803,"called":9804,"Ġhob":9805,"ĠCand":9806,"NS":9807,"ĠConditions":9808,"ĠAction":9809,"Ġanniversary":9810,"Pal":9811,"oric":9812,"ĠCapt":9813,"Ġaccum":9814,"Ġsorts":9815,"uating":9816,"Ġreverse":9817,"Ġouts":9818,"Ġextraordinary":9819,"ĠCopyright":9820,"wall":9821,"icked":9822,"Ġovercome":9823,"Ġoverview":9824,"Ġhopefully":9825,"Ġdirectory":9826,"ĠKorean":9827,"Ġoperational":9828,"Ġarbit":9829,"Ġfruits":9830,"ĠBad":9831,"Ġfantasy":9832,"ĠRod":9833,"Ġversatile":9834,"Ġfed":9835,"EG":9836,"olis":9837,"bourne":9838,"ĠAlp":9839,"ĠRV":9840,"Ġorganisations":9841,"ayv":9842,"Ġtender":9843,"hr":9844,"pled":9845,"Ġloads":9846,"ĠTransport":9847,"Ġsummary":9848,"Ġsurge":9849,"ĠMoreover":9850,"ĠMix":9851,"Ġaimed":9852,"health":9853,"Like":9854,"mic":9855,"Ġentrepreneurs":9856,"Ġcollections":9857,"Ġcompe":9858,"ilton":9859,"Ġvine":9860,"Ġencount":9861,"ador":9862,"itutes":9863,"Ġdear":9864,"ĠHollywood":9865,"ĠMeaning":9866,"ĠHarry":9867,"Ġgran":9868,"ĠAB":9869,"inet":9870,"ĠAz":9871,"Ġloaded":9872,"Ġbabies":9873,"Free":9874,"ĠCF":9875,"Ġtrademarks":9876,"ĠField":9877,"ĠChoose":9878,"Ġkiss":9879,"aine":9880,"ilation":9881,"Ġassault":9882,"Ġpor":9883,"Ġcustomized":9884,"Ġcharging":9885,"Ġloop":9886,"best":9887,"lects":9888,"Ġbands":9889,"ĠGP":9890,"Rem":9891,"Ġanalyze":9892,"ospel":9893,"Ġwider":9894,"osc":9895,"ĠKids":9896,"inson":9897,"Ġburning":9898,"Ġmoon":9899,"ishment":9900,"ĠRun":9901,"Ġfollowers":9902,"utical":9903,"ologists":9904,"250":9905,"iders":9906,"Ġnerv":9907,"Ġstamp":9908,"Ġappointed":9909,"Ġestimates":9910,"such":9911,"Ġefficiently":9912,"Ġbeliefs":9913,"undry":9914,"Ġcircle":9915,"Ġincorrect":9916,"Ġultra":9917,"Ġgrounds":9918,"Ġphotographer":9919,"ĠBoy":9920,"Ġfluid":9921,"Ġtimely":9922,"ĠStudy":9923,"ĠWales":9924,"rot":9925,"Ġasks":9926,"Ġbatt":9927,"orship":9928,"Ġphysically":9929,"Ġdivide":9930,"ĠBody":9931,"pire":9932,"Ġà¤":9933,"Ġcrack":9934,"athan":9935,"Ġcm":9936,"Ġnarrative":9937,"aska":9938,"Ġaudi":9939,"vi":9940,"Ġsuperb":9941,"ols":9942,"ĠBB":9943,"Ġadmission":9944,"Ġemployed":9945,"llers":9946,"omed":9947,"Ġadmin":9948,"Ġartwork":9949,"awa":9950,"Ġclubs":9951,"ordan":9952,"week":9953,"Ġcomplaint":9954,"ĠMoney":9955,"Ġutility":9956,"ĠDam":9957,"Ġdivorce":9958,"open":9959,"Ġlob":9960,"ĠGive":9961,"Ġtrials":9962,"Ġcooked":9963,"ding":9964,"anth":9965,"ultane":9966,"otes":9967,"Ġmeasurements":9968,"Ġcomplement":9969,"ĠOcean":9970,"ĠPolit":9971,"Ġinflamm":9972,"ĠPortug":9973,"Ġobligation":9974,"def":9975,"Ġcaut":9976,"ĠBase":9977,"Ġattending":9978,"Ġmad":9979,"Ġcogn":9980,"Ġpicking":9981,"Ġsequence":9982,"Ġengineers":9983,"ĠStudio":9984,"ĠMalays":9985,"Ġhospitals":9986,"ira":9987,"ĠParliament":9988,"Ġstrengthen":9989,"Ġhind":9990,"ousing":9991,"xygen":9992,"Ġparks":9993,"high":9994,"Ġcrash":9995,"ĠLess":9996,"Ġordering":9997,"gener":9998,"ĠPennsylvania":9999,"there":10000,"screen":10001,"Ġhunting":10002,"Ġreveals":10003,"ifted":10004,"Ġdevelopments":10005,"ĠKat":10006,"Ġfired":10007,"Ġmetab":10008,"Ġdifferently":10009,"Ġcaring":10010,"Ġauction":10011,"Ġseal":10012,"ĠOntario":10013,"annab":10014,"ĠUnivers":10015,"ĠPaper":10016,"Ġcharity":10017,"Ġbulk":10018,"Ġinspiring":10019,"Ġbass":10020,"Ñģ":10021,"ĠShort":10022,"Ġceremony":10023,"Ġcultiv":10024,"Ġfloors":10025,"ĠNS":10026,"Ġgallery":10027,"Ġharvest":10028,"ĠIndepend":10029,"Ġsculpt":10030,"Ġvariable":10031,"gel":10032,"ĠVictoria":10033,"Ġpractition":10034,"Ġinspire":10035,"pport":10036,"igious":10037,"Ġheaded":10038,"ĠClean":10039,"Ġelder":10040,"ĠPalest":10041,"Ġconfirmation":10042,"ĠStan":10043,"Ġlocally":10044,"Oct":10045,"Ġqualify":10046,"Ġabsence":10047,"MI":10048,"Ġarrangement":10049,"ĠPH":10050,"Ġ1998":10051,"ĠPast":10052,"Ġslots":10053,"ĠPrince":10054,"Ġmature":10055,"Ġspare":10056,"http":10057,"Ġconcert":10058,"ĠElement":10059,"Ġsituated":10060,"ĠKh":10061,"Ġmachinery":10062,"Ġrum":10063,"Ġmedic":10064,"Ġutilizing":10065,"rator":10066,"Ġhabits":10067,"Ġcopper":10068,"Ð½":10069,"ĠApplication":10070,"ĠDelhi":10071,"ĠAssistant":10072,"Ġpursue":10073,"Ġft":10074,"Ġthro":10075,"inals":10076,"Ġsoap":10077,"Ġinvestigate":10078,"ĠDead":10079,"Ġhonestly":10080,"Ġstops":10081,"Ġshit":10082,"Ġallerg":10083,"Ġcalculated":10084,"Ġsheets":10085,"guard":10086,"Ġbio":10087,"Inst":10088,"Ġrust":10089,"ĠSche":10090,"Ġunne":10091,"Ġ1970":10092,"Ġdesigning":10093,"Ġballs":10094,"Ġbedrooms":10095,"Ġlockdown":10096,"ĠDutch":10097,"ĠIC":10098,"amsung":10099,"Ġsmartphone":10100,"arents":10101,"Ġoccasions":10102,"Ġpushed":10103,"ĠGard":10104,"Ġcrushers":10105,"itzer":10106,"who":10107,"Ġmeasurement":10108,"ĠFast":10109,"Ġrug":10110,"Ġminister":10111,"ĠLarge":10112,"Ġdisagree":10113,"ĠMiami":10114,"etheless":10115,"PP":10116,"Ġempower":10117,"Ġovernight":10118,"link":10119,"Ġincent":10120,"wich":10121,"Ġinteractions":10122,"ping":10123,"eav":10124,"Ġenorm":10125,"ĠHor":10126,"Ġ600":10127,"afe":10128,"tech":10129,"Ġdismiss":10130,"Ġcarrier":10131,"Ġsne":10132,"Ġclip":10133,"76":10134,"Ġvibrant":10135,"Ġsinger":10136,"Ġbomb":10137,"Ġinjured":10138,"udi":10139,"ĠBlu":10140,"ĠPoly":10141,"Ġwins":10142,"ĠDream":10143,"Ġrhy":10144,"Ġtrigger":10145,"Ġdisaster":10146,"Ġ49":10147,"Ġalloc":10148,"ĠâĤ¬":10149,"Ġho":10150,"ĠWriting":10151,"they":10152,"ATE":10153,"Ġanytime":10154,"ĠFOR":10155,"MB":10156,"Ġcompassion":10157,"Ġapple":10158,"Ġcaps":10159,"ĠHR":10160,"ĠDeb":10161,"Ġamenities":10162,"ko":10163,"oper":10164,"Ġfur":10165,"People":10166,"osit":10167,"Ġboil":10168,"Ġbatteries":10169,"PD":10170,"Loc":10171,"ĠFlo":10172,"ĠEsc":10173,"inoids":10174,"Ġsuspend":10175,"esis":10176,"Ġstem":10177,"Ġcollective":10178,"Ġvib":10179,"Ġportable":10180,"Ġblame":10181,"allel":10182,"Ġinitiatives":10183,"Ġconstructed":10184,"Ġgal":10185,"pers":10186,"Ġidentification":10187,"ĠOak":10188,"ĠChange":10189,"cend":10190,"ĠFred":10191,"Ġque":10192,"post":10193,"Ġanybody":10194,"Ġintelligent":10195,"Ġscar":10196,"Ġnobody":10197,"Ġacceptance":10198,"ĠFurthermore":10199,"Where":10200,"Ġcord":10201,"Ġsuppose":10202,"Ġdump":10203,"Ġremem":10204,"?)":10205,"Ġpopularity":10206,"ĠAPI":10207,"Eng":10208,"vard":10209,"Ġpizza":10210,"ĠMethod":10211,"GE":10212,"urches":10213,"Ġphrase":10214,"Ġbrothers":10215,"ĠSave":10216,"plant":10217,"Ġriv":10218,"Ġhumanity":10219,"Ġassistant":10220,"John":10221,"emies":10222,"Ġdiscovery":10223,"Ġpushing":10224,"ĠJews":10225,"Ġstomach":10226,"ĠGrad":10227,"ĠThings":10228,"Ġhomeown":10229,"Ġchampions":10230,"Ġunderlying":10231,"Ġadministrative":10232,"ĠBaby":10233,"Ġ800":10234,"ĠMagazine":10235,"Ġderived":10236,"occ":10237,"ĠInterest":10238,"Ġtoilet":10239,"ĠNurs":10240,"Ġtremend":10241,"Ġlimitations":10242,"Car":10243,"Ã¼":10244,"ĠUSD":10245,"Ġdirt":10246,"Ġmystery":10247,"Ġgathering":10248,"Ġoccasionally":10249,"Ġdisplays":10250,"Ġgre":10251,"Ġwalks":10252,"ĠInnov":10253,"Ġcooling":10254,"ĠEmploy":10255,"Ġreserves":10256,"Ġhorm":10257,"Cons":10258,"Ġceiling":10259,"pur":10260,"Ġadj":10261,"72":10262,"lee":10263,"ĠEdition":10264,"ĠBrother":10265,"Ġprevention":10266,"Ġpatch":10267,"ĠPain":10268,"ĠSug":10269,"ummy":10270,"ĠSydney":10271,"kind":10272,"Ġedges":10273,"Ġlenders":10274,"Ġcompliment":10275,"Ð²ÐĤ":10276,"ĠNFL":10277,"Ġlasting":10278,"ĠStory":10279,"ictions":10280,"Ġentertaining":10281,"arest":10282,"ĠCreek":10283,"Ġgenerous":10284,"ĠReturn":10285,"Rep":10286,"ĠGro":10287,"sen":10288,"Ġgrain":10289,"ften":10290,"ĠTR":10291,"Ġvoting":10292,"Ġobligations":10293,"Ġbran":10294,"adelph":10295,"Ġconfused":10296,"Ġimpacts":10297,"ĠOx":10298,"bet":10299,"Ġrefe":10300,"cience":10301,"ĠChall":10302,"ĠTurkey":10303,"ĠMail":10304,"ĠIII":10305,"isticated":10306,"Ġprinter":10307,"Ġcloth":10308,"regon":10309,"Lear":10310,"ĠIron":10311,"Ġurg":10312,"istical":10313,"Ġsinging":10314,"Ġappliances":10315,"Ġcompleting":10316,"Ġreferences":10317,"2018":10318,"Ġsurrounded":10319,"ĠClear":10320,"Ġtransferred":10321,"86":10322,"ĠPers":10323,"Ġprescription":10324,"Ġcultures":10325,"osystem":10326,"Ġarrangements":10327,"ĠArm":10328,"Ġresistant":10329,"Ġcurriculum":10330,"ĠResources":10331,"only":10332,"Ġpadd":10333,"ĠRail":10334,"Ġmyster":10335,"Ġterritory":10336,"ĠCash":10337,"ropical":10338,"Ġcure":10339,"ĠPerson":10340,"Ġprotective":10341,"ĠColumbia":10342,"Ġgrey":10343,"Ġrepresentatives":10344,"Ġpilot":10345,"itutional":10346,"ĠCut":10347,"Ġsingles":10348,"scale":10349,"ching":10350,"Ġvisitor":10351,"Ġnervous":10352,"ao":10353,"Ġworker":10354,"Ġdestroyed":10355,"ictionary":10356,"Ġarrested":10357,"isms":10358,"ĠDun":10359,"ĠFab":10360,"ĠSD":10361,"Ġknowledgeable":10362,"ĠExperience":10363,"Ġweapon":10364,"73":10365,"rub":10366,"Ġgathered":10367,"ifer":10368,"Ġshame":10369,"iller":10370,"Ġstrive":10371,"Ġdrops":10372,"ĠSchools":10373,"Ġbasketball":10374,"yes":10375,"apse":10376,"Ġfifth":10377,"Ġexterior":10378,"Love":10379,"Ġinfections":10380,"Ġprofiles":10381,"Ġhip":10382,"Ġprofits":10383,"Ġtagged":10384,"aza":10385,"Ġemissions":10386,"Ġvolunteer":10387,"ĠJane":10388,"Ġles":10389,"ĠWelcome":10390,"ĠCT":10391,"ĠBern":10392,"ceive":10393,"Ġgrat":10394,"Ġships":10395,"ĠDemocratic":10396,"Ġdisabled":10397,"aceutical":10398,"QL":10399,"ĠRon":10400,"ĠLew":10401,"Ġendless":10402,"Ġhardly":10403,"Ġexplicit":10404,"oween":10405,"Ġheritage":10406,"Ġcrown":10407,"card":10408,"Ġsectors":10409,"?!":10410,"ILL":10411,"Ġvolt":10412,"Ġvitamin":10413,"ifferent":10414,"Ġadequate":10415,"oof":10416,"Ġassured":10417,"Ġpublicly":10418,"Ġplacement":10419,"ĠDVD":10420,"oli":10421,"Ġspectacular":10422,"ĠEX":10423,"ERE":10424,"avy":10425,"umm":10426,"Ġperformances":10427,"Ġtablet":10428,"Ġincom":10429,"Ġdependent":10430,"Ġine":10431,"ĠThink":10432,"rying":10433,"aware":10434,"Ġfeeding":10435,"Ġannouncement":10436,"Ġprosecut":10437,"ĠHomes":10438,"Ġsuite":10439,"pool":10440,"lope":10441,"ĠCarl":10442,"aug":10443,"allas":10444,"Ġlemon":10445,"Ġsimultane":10446,"ĠMap":10447,"Ġfinishing":10448,"intend":10449,"imm":10450,"ĠMu":10451,"Ġarguments":10452,"Ġestablishment":10453,"Ġbreed":10454,"elve":10455,"ĠPary":10456,"Ġbarely":10457,"ĠMs":10458,"Ġacquisition":10459,"Ġiconic":10460,"Ġdemonstrated":10461,"Ġopposition":10462,"ĠNigeria":10463,"Ġsoldiers":10464,"Ġperm":10465,"Ġbug":10466,"Ġguilty":10467,"izations":10468,"wa":10469,"Ġaccommodate":10470,"Ġcater":10471,"pton":10472,"Ġfuck":10473,"ĠGree":10474,"ĠDIY":10475,"minute":10476,"Ġtempt":10477,"Ġneutral":10478,"Ġeuro":10479,"Ġoperator":10480,"iley":10481,"ĠIntegr":10482,"Ġoldest":10483,"Ġfacilitate":10484,"verty":10485,"Ġearnings":10486,"Ġparameters":10487,"itivity":10488,"ela":10489,"cope":10490,"Ġprecisely":10491,"Ġharmful":10492,"Mr":10493,"Ġcapability":10494,"arts":10495,"RT":10496,"Ġignore":10497,"cure":10498,"ĠDiet":10499,"Ġaccused":10500,"ayvachi":10501,"Ġrecru":10502,"Ġuniversal":10503,"bally":10504,"rec":10505,"Ġtours":10506,"Ġoz":10507,"Ġresulted":10508,"ĠSciences":10509,"apes":10510,"ĠParyayvachi":10511,"FF":10512,"makers":10513,"ĠAlbert":10514,"ĠTaylor":10515,"adelphia":10516,"Ġthreats":10517,"Ġvice":10518,"ĠSure":10519,"Ġodds":10520,"Ġdifficulties":10521,"ĠFilm":10522,"Ġrib":10523,"ucks":10524,"iy":10525,"Ġdeclared":10526,"Ġbuttons":10527,"Ġmodify":10528,"Ġworkshops":10529,"Ġmerchand":10530,"Ġdisturb":10531,"ationally":10532,"Ġdiffer":10533,"Ġscored":10534,"Ġlogin":10535,"Ġfer":10536,"Ġ($":10537,"Ġ64":10538,"ĠTrail":10539,"Ġprospective":10540,"Ġfrozen":10541,"âĢİ":10542,"Ġlawyers":10543,"Ġoverwhelming":10544,"Ġprohibited":10545,"ĠStay":10546,"Ġoutdoors":10547,"Ġpoverty":10548,"forward":10549,"child":10550,"uuuu":10551,"Ġoptimal":10552,"aft":10553,"rapeut":10554,"Ġendeav":10555,"Ġmarketplace":10556,"Ġrou":10557,"Ġrefuge":10558,"IE":10559,"Ġcontacts":10560,"Ġfolder":10561,"BM":10562,"cessary":10563,"96":10564,"ĠTree":10565,"ĠBridge":10566,"HT":10567,"Ġcorresponding":10568,"Ġpup":10569,"Ġrelaxing":10570,"Ġhybrid":10571,"Ġ\\":10572,"Ġdess":10573,"ĠBell":10574,"Ġrepresenting":10575,"Ġeffectiveness":10576,"acles":10577,"ĠOrd":10578,"Wow":10579,"nell":10580,"ĠPod":10581,"Ġwrap":10582,"Ġunlikely":10583,"Ġcooperation":10584,"Ġcredits":10585,"View":10586,"Ġgir":10587,"Ġprominent":10588,"Ġdisorder":10589,"Ġcheckout":10590,"ĠElizabeth":10591,"ĠKit":10592,"Ġtempor":10593,"angers":10594,"Ġangry":10595,"umbled":10596,"Ġsettlement":10597,"ĠEC":10598,"Ġroller":10599,"Ġbund":10600,"Ġepisodes":10601,"Ġlawn":10602,"Stud":10603,"AND":10604,"ĠDemocrats":10605,"aved":10606,"ĠVietnam":10607,"Ġacceptable":10608,"ĠRyan":10609,"Ġventure":10610,"ĠAgr":10611,"atal":10612,"82":10613,"Ġcourage":10614,"Ġalike":10615,"odd":10616,"Ġtrailer":10617,"Ġappet":10618,"ĠVillage":10619,"ĠChem":10620,"Ġdigest":10621,"ĠComputer":10622,"Ġbinding":10623,"ĠCore":10624,"Ġplates":10625,"ĠImm":10626,"ĠLady":10627,"Ġstrain":10628,"Ġelections":10629,"Ġbrew":10630,"Ġreception":10631,"thon":10632,"Ġphysician":10633,"Ġmagical":10634,"Ġadoption":10635,"aron":10636,"Ġaffects":10637,"Ġtwe":10638,"ĠRepresent":10639,"Ġbeneath":10640,"irtual":10641,"Ġinval":10642,"Ġirrit":10643,"lfriend":10644,"Ġliable":10645,"Ġstopping":10646,"Ġwidth":10647,"ĠWorking":10648,"Make":10649,"Ġvegan":10650,"Ġsoup":10651,"Ġshade":10652,"ĠVit":10653,"ĠBud":10654,"abad":10655,"Ġunfortunately":10656,"onsin":10657,",!":10658,"Ġsatisfy":10659,"ĠImp":10660,"Ġindependently":10661,"ĠAdvent":10662,"ami":10663,"ĠNothing":10664,"Ġridic":10665,"iagra":10666,"Ġtries":10667,"Ġvotes":10668,"Ġtied":10669,"Other":10670,"Ġtong":10671,"plex":10672,"Aug":10673,"Ġbother":10674,"isconsin":10675,"ĠAh":10676,"acter":10677,"Ġbeds":10678,"Ġflavors":10679,"ĠOl":10680,"Ġrefuse":10681,"Ġconfidential":10682,"Ġutilized":10683,"name":10684,"Ġautomated":10685,"Ġfilters":10686,"Ġ00":10687,"Ġcontroller":10688,"74":10689,"Ġwaves":10690,"Ġrational":10691,"Ġspeaks":10692,"Ġtoy":10693,"Two":10694,"Ġpdf":10695,"Ġcompete":10696,"UD":10697,"ureau":10698,"ĠAlways":10699,"Ġhosts":10700,"Ġbeans":10701,"oln":10702,"Ġspectrum":10703,"ĠMust":10704,"Ġagenda":10705,"Ġtu":10706,"Ġsalad":10707,"aa":10708,"MM":10709,"ĠHem":10710,"ĠURL":10711,"ĠPerformance":10712,"Ġparad":10713,"Ġscratch":10714,"Ġstructural":10715,"Ġproductive":10716,"Ġprints":10717,"Ġcant":10718,"Ġhorses":10719,"ĠET":10720,"Art":10721,"Ġbaseball":10722,"Ġstrictly":10723,"Ġwhis":10724,"Ġslide":10725,"Ġdisrupt":10726,"ĠBitcoin":10727,"Ġward":10728,"ĠWars":10729,"Ġinnoc":10730,"ĠIndustrial":10731,"Ġhence":10732,"iology":10733,"ishers":10734,"ĠNob":10735,"Christ":10736,"Ġtroubles":10737,"atus":10738,"Ġproved":10739,"Ġkeyboard":10740,"Ġexcite":10741,"ĠRestaur":10742,"RP":10743,"ropri":10744,"Ġaccompan":10745,"Ġdramatic":10746,"Ġoperators":10747,"Ġvinyl":10748,"ĠLock":10749,"Ġresponsibilities":10750,"akh":10751,"Ġwildlife":10752,"Ġancest":10753,"emade":10754,"Ġlol":10755,"owers":10756,"igrants":10757,"ĠDiego":10758,"Ġcontractors":10759,"isted":10760,"Ġintervention":10761,"Ġlun":10762,"Ġbeloved":10763,"ĠSource":10764,"Ġadmitted":10765,"ĠTai":10766,"erving":10767,"Ġouter":10768,"ĠAnth":10769,"Ġrelate":10770,"Find":10771,"inator":10772,"nesota":10773,"ĠText":10774,"Ġpublications":10775,"Ġseparately":10776,"Ġdrum":10777,".'":10778,"ridge":10779,"Ġsophisticated":10780,"Ġactors":10781,"ĠHills":10782,"Ġflooring":10783,"vation":10784,"gov":10785,"Ġselecting":10786,"Use":10787,"ĠVice":10788,"ĠDoctor":10789,"Ġgoogle":10790,"cho":10791,"ĠBene":10792,"Ġlogic":10793,"uates":10794,"mother":10795,"ĠHig":10796,"Ġmouse":10797,"Ġhorror":10798,"ĠSeattle":10799,"Ġreliability":10800,"ĠSingle":10801,"oven":10802,"ART":10803,"rogen":10804,"ĠPhilippines":10805,"Ġ1996":10806,"Ġspacious":10807,"Ġranked":10808,"Ġloading":10809,"Ġ44":10810,"covery":10811,"ĠCreative":10812,"Ġconsulting":10813,"arma":10814,"Ġfranchise":10815,"Ġsink":10816,"Ġartistic":10817,"ĠManufacture":10818,"abs":10819,"mates":10820,"ĠCL":10821,"Ġoperates":10822,"oub":10823,"Ġparticipant":10824,"Ġinex":10825,"ĠNations":10826,"Ġcer":10827,"ĠPict":10828,"Ġpasses":10829,"71":10830,"rine":10831,"ĠBrad":10832,"fortable":10833,"ĠPurch":10834,"Ġverified":10835,"Ġexplos":10836,"ĠIndones":10837,"Ġpropri":10838,"aph":10839,"Ġcomplaints":10840,"Ġunem":10841,"ĠCourse":10842,"Ġinterpretation":10843,"Ġknife":10844,"bie":10845,"whe":10846,"Ġoutfit":10847,"Ġmeters":10848,"Ġnetworking":10849,"Ġdiscussing":10850,"ĠSarah":10851,"owned":10852,"rep":10853,"Ġroughly":10854,"ĠCart":10855,"UST":10856,"Ġdash":10857,"Ġencouraging":10858,"Ġspoken":10859,"Ġlegitimate":10860,"Ġrefriger":10861,"Ġdisappointed":10862,"itarian":10863,"Ġcaptured":10864,"igenous":10865,"ĠRome":10866,"oz":10867,"Ġwax":10868,"ĠAnalysis":10869,"Ġspan":10870,"Ġimmigration":10871,"Ġlinking":10872,"osph":10873,"ront":10874,"itty":10875,"Ġcone":10876,"Ġconsolid":10877,"iro":10878,"Ġportal":10879,"ĠSound":10880,"Ġreduces":10881,"Ġalternatives":10882,"ima":10883,"Ġcomposed":10884,"ĠiOS":10885,"Ġromance":10886,"Ġministry":10887,"ĠAk":10888,"ĠOregon":10889,"Ġstraw":10890,"Ġlegacy":10891,"Ġshaped":10892,"elling":10893,"Ġengineer":10894,"ĠFurn":10895,"Ġbackup":10896,"ĠSyn":10897,"bra":10898,"Ġcamping":10899,"Ġpromotions":10900,"nowned":10901,"Ġwholesale":10902,"iva":10903,"Ġexpanding":10904,"Ġaffiliated":10905,"ĠGas":10906,"Ġwellness":10907,"92":10908,"ĠLot":10909,"ĠNether":10910,"etts":10911,"ĠĠĠĠĠĠĠĠ":10912,"istance":10913,"Ġsubtle":10914,"aler":10915,"ctic":10916,"ori":10917,"bage":10918,"Ġsuits":10919,"Ġcorpor":10920,"ĠRand":10921,"Ġsynd":10922,"Ġsew":10923,"Ġclassified":10924,"Ġshortly":10925,"March":10926,"Ġoxygen":10927,"ĠContract":10928,"Script":10929,"Ġcontacted":10930,"Ġapartments":10931,"Ġfool":10932,"âĢ¦âĢ¦":10933,"Ġreceives":10934,"Ġradical":10935,"commerce":10936,"ĠAustin":10937,"Ġgently":10938,"Ġsli":10939,"ĠEnvironmental":10940,"mind":10941,"Ġenjo":10942,"Ġeager":10943,"ĠMoon":10944,"aux":10945,"Looking":10946,"Ġsettled":10947,"Ġchef":10948,"Ġdipl":10949,"Ġvendors":10950,"Ġmaker":10951,"ividually":10952,"Ġgenre":10953,"Ġuncle":10954,"Ġtemplates":10955,"Ġmixing":10956,"âĢī":10957,"adays":10958,"Ġthy":10959,"ĠCli":10960,"Ġpromised":10961,"unicipal":10962,"hou":10963,"Ġgardens":10964,"ĠJr":10965,"oen":10966,"ĠBrook":10967,"owed":10968,"bean":10969,"ĠBand":10970,"Ġtension":10971,"ĠReserved":10972,"Ġink":10973,"Ġinstances":10974,"Ġingredient":10975,"orneys":10976,"incoln":10977,"ĠSport":10978,"atellite":10979,"ĠNAS":10980,"Ġtournament":10981,"ĠClassic":10982,"Ġwherever":10983,"flix":10984,"Ġcompos":10985,"...,":10986,"ribution":10987,"ista":10988,"ÃŃ":10989,"Ġoh":10990,"Ġfitted":10991,"raine":10992,"ĠTen":10993,"ĠBrian":10994,"Ġbottles":10995,"Ġattempting":10996,"Ġarranged":10997,"seys":10998,"Ġtears":10999,"Ġassociate":11000,"ĠGallery":11001,"FT":11002,"Ġpriced":11003,"ĠEconomic":11004,"gets":11005,"ĠGrade":11006,"Ġvoters":11007,"aver":11008,"ĠEric":11009,"Ġsignals":11010,"Ġ1997":11011,"inction":11012,"Ġdimensions":11013,"Ġadventures":11014,"ĠCould":11015,"asion":11016,"idal":11017,"Ġdesignated":11018,"ounge":11019,"ĠComb":11020,"Ġpsychological":11021,"trans":11022,"ĠNick":11023,"apor":11024,"Ġsettle":11025,"idity":11026,"Ġretired":11027,"specific":11028,"Ġpour":11029,"heart":11030,"riven":11031,"building":11032,"ĠBh":11033,"Ġpants":11034,"achus":11035,"ĠBat":11036,"Ġpeer":11037,"ĠPick":11038,"Ġtreating":11039,"ĠJam":11040,"sembly":11041,"oning":11042,"ĠCoffee":11043,"Ġcinem":11044,"Ġrelaxed":11045,"Ġpainful":11046,"stop":11047,"Ġstruck":11048,"papers":11049,"owa":11050,"Ġpreced":11051,"Ġcontractor":11052,"Ġnurse":11053,"Ġcenturies":11054,"ennes":11055,"ĠHost":11056,"Ġscream":11057,"type":11058,"pson":11059,"ĠWinter":11060,"Ġsubscrib":11061,"Ġdelighted":11062,"owered":11063,"Ġjacket":11064,"Ġhesitate":11065,"Ġlean":11066,"Ġanch":11067,"Ġtravelling":11068,"itters":11069,"ĠLeave":11070,"High":11071,"Ġlocate":11072,"Ġanalys":11073,"Ġdys":11074,"Ġidentical":11075,"Ġbeings":11076,"Ġrealistic":11077,"Ġfigured":11078,"good":11079,"ascular":11080,"vance":11081,"Ġexcellence":11082,"ĠCommercial":11083,"ĠHom":11084,"ingham":11085,"Ġrescue":11086,"Ġdisorders":11087,"ĠNature":11088,"Ġ1960":11089,"ĠRegional":11090,"Ġcompetitors":11091,"ĠSafe":11092,"ĠPremium":11093,"Ġears":11094,"ulin":11095,"heim":11096,"2017":11097,"Ġsacrif":11098,"axy":11099,"ICE":11100,"Ġaggressive":11101,"table":11102,"Ġmechanisms":11103,"Ġrender":11104,"ÑĤ":11105,"ushes":11106,"ĠEmm":11107,"Having":11108,"\")":11109,"Ġcruise":11110,"Ġlyrics":11111,"Very":11112,"nut":11113,"Ġarom":11114,"Ġinev":11115,"ĠWisconsin":11116,"Ġrolled":11117,"ĠPhiladelphia":11118,"Ġcompound":11119,"ĠAmong":11120,"ĠHad":11121,"Ġoverseas":11122,"Ġliver":11123,"Ġtrails":11124,"Ġentities":11125,"Ġgrocery":11126,"ersion":11127,"ĠRound":11128,"Ġdensity":11129,"ĠTX":11130,"Ġemphasis":11131,"Ġspir":11132,"chain":11133,"PN":11134,"ĠConc":11135,"ĠGlass":11136,"Ġbreathing":11137,"Ġaging":11138,"Ġsnap":11139,"icating":11140,"essed":11141,"ocur":11142,"Ġintrig":11143,"Ġcust":11144,"93":11145,"ĠSong":11146,"Ġblessed":11147,"Ġvoted":11148,"Fe":11149,"Ġrecommendation":11150,"Ġassert":11151,"Ġcontinuously":11152,"Ġtent":11153,"Ġhandled":11154,"Ġdirectors":11155,"........":11156,"ĠWilson":11157,"gate":11158,"Ġlaboratory":11159,"ĠClinton":11160,"Ġnicely":11161,"Ġrecept":11162,"Ġexecution":11163,"Take":11164,"Ġshield":11165,"Ġunto":11166,"Ġpaintings":11167,"ĠPlanning":11168,"Ġagreements":11169,"Ġbits":11170,"Ġtexts":11171,"Ġviolent":11172,"ĠPhD":11173,"ificent":11174,"Ġecosystem":11175,"Ġchairs":11176,"Ġsits":11177,"Ġ43":11178,"Ġportra":11179,"inf":11180,"ailed":11181,"Ġgross":11182,"inates":11183,"Back":11184,"Ġfragr":11185,"Ju":11186,"achusetts":11187,"Ġdying":11188,"Ġbranches":11189,"ĠDJ":11190,"Ġpassengers":11191,"rend":11192,"stock":11193,"ĠSamsung":11194,"Ġcollecting":11195,"Ġdurability":11196,"Ġdiameter":11197,"hot":11198,"Ġacres":11199,"Ġfastest":11200,"Ġtiming":11201,"Ġpy":11202,"ĠJordan":11203,"Ġlender":11204,"Ġbacked":11205,"Ġtire":11206,"Ġofferings":11207,"ĠBelow":11208,"Ġretailers":11209,"Ġrect":11210,"Ġgreet":11211,"ĠMinnesota":11212,"ĠAgricult":11213,"writing":11214,"ĠAdvis":11215,"Ġlin":11216,"MD":11217,"91":11218,"EX":11219,"mn":11220,"Ġchip":11221,"anship":11222,"Ġspouse":11223,"Ġrewards":11224,"84":11225,"ĠThird":11226,"Ġshorter":11227,"ĠGovernor":11228,"ĠTrip":11229,"Ġrecon":11230,"Ġproducers":11231,"IVE":11232,"Ġslip":11233,"94":11234,"ĠAltern":11235,"ĠCla":11236,"Ġimagination":11237,"Ġconstra":11238,"Ġrefused":11239,"Ġhorn":11240,"edded":11241,"Ġtrace":11242,"stic":11243,"Ġentries":11244,"Ġadopt":11245,"Ġreflects":11246,"Ġprecision":11247,"Did":11248,"ĠTalk":11249,"Ġtear":11250,"isting":11251,"Ġblogger":11252,"Ġnotification":11253,"ĠAtlantic":11254,"Ġtransparent":11255,"ĠWW":11256,"Ġintu":11257,"Ġcombines":11258,"ĠiPad":11259,"ĠChen":11260,"Ġenormous":11261,"Ġdiagnosed":11262,"ĠSnow":11263,"ĠCancer":11264,"ECT":11265,"Ġconservative":11266,"Ġsubstitute":11267,"Ġmerchandise":11268,"Ġfitting":11269,"ĠDetails":11270,"Ġolive":11271,"Ġunlock":11272,"Ġrestricted":11273,"ĠEve":11274,"Ġspecially":11275,"ĠCertified":11276,"Home":11277,"Ġlying":11278,"ĠTotal":11279,"Ġresponded":11280,"ĠOpp":11281,"fish":11282,"Ġmedications":11283,"Ġmerg":11284,"Under":11285,"ĠOs":11286,"Ġidentifying":11287,"Ġdialogue":11288,"CL":11289,"Ġdealers":11290,"Ġlocked":11291,"Ġbloggers":11292,"ige":11293,"Ġcelebrated":11294,"inge":11295,"Gener":11296,"Ġreferring":11297,"Ġreven":11298,"ĠBuff":11299,"Ġbust":11300,"ĠPrior":11301,"ĠAG":11302,"acent":11303,"Ġpreserve":11304,"Ġgang":11305,"Ġaccepting":11306,"Ġenjoys":11307,"83":11308,"ĠHonda":11309,"worthy":11310,"ĠAdvanced":11311,"Ġmotivation":11312,"ĠUV":11313,"sl":11314,"Ġbiological":11315,"ĠTel":11316,"father":11317,"isure":11318,"ĠEmb":11319,"Ġnavigation":11320,"Ġrings":11321,"Ġcomedy":11322,"ĠLegal":11323,"ĠIV":11324,"Ġadverse":11325,"ĠUnit":11326,"ĠDy":11327,"agan":11328,"ĠBru":11329,"arring":11330,"ĠDiam":11331,"Ġ01":11332,"February":11333,"ĠEver":11334,"Ġcompounds":11335,"Ġathletes":11336,"ĠUsed":11337,"Ġvisa":11338,"iscal":11339,"NG":11340,"build":11341,"iffs":11342,"Ġglory":11343,"ouver":11344,"online":11345,"ĠTony":11346,"boards":11347,"ĠMind":11348,"personal":11349,"Ġtourism":11350,"ĠSaint":11351,"MT":11352,"Ġstones":11353,"irable":11354,"ĠRos":11355,"Ġcum":11356,"range":11357,"opping":11358,"zens":11359,"oids":11360,"ĠForum":11361,"roduction":11362,"Ġcountless":11363,"RO":11364,"ĠConstruction":11365,"Follow":11366,"Click":11367,"Ġdirty":11368,"Comm":11369,"FS":11370,"ockey":11371,"Ġpit":11372,"aga":11373,"Ġfacilit":11374,"CB":11375,"pling":11376,"Ġdetection":11377,"Who":11378,"Ġpeaceful":11379,"Ġstimul":11380,"Ġclinic":11381,"Ġsized":11382,"Ġtackle":11383,"ĠMuch":11384,"bound":11385,"imum":11386,"ĠPinterest":11387,"Ġcannabinoids":11388,"orious":11389,"Ġenabling":11390,"Ġcoupon":11391,"Ġbite":11392,"ustain":11393,"ĠLinux":11394,"ĠHalloween":11395,"Ġ72":11396,"PT":11397,"ĠLanguage":11398,"ĠMelbourne":11399,"ussy":11400,"Ġrequiring":11401,"Ġtoxic":11402,"Ġ46":11403,"Ġsecurities":11404,"Ġwarehouse":11405,"ĠSix":11406,"Ġexcitement":11407,"ammar":11408,"ĠMexican":11409,"Ġsubstances":11410,"ĠNa":11411,"web":11412,"closure":11413,"opt":11414,"ĠPhone":11415,"Ġblocked":11416,"Ġ[...]":11417,"Ġvacuum":11418,"adesh":11419,"Ġhired":11420,"rior":11421,"Ġlovers":11422,"Ġfavorites":11423,"Ġguns":11424,"ĠKir":11425,"ĠManchester":11426,"January":11427,"Ġhiking":11428,"ĠStephen":11429,"Ġstays":11430,"Ã¶":11431,"Ġagricultural":11432,"Ġmotivated":11433,"Ġindividually":11434,"Ġachieving":11435,"Ġvariations":11436,"Ġdesires":11437,"ĠMajor":11438,"Ġsustainability":11439,"commun":11440,"Ġtreats":11441,"Ġpromises":11442,"ĠMatthew":11443,"Ġelectro":11444,"Ġadjustable":11445,"Ġentrepreneur":11446,"natural":11447,"><":11448,"ĠDallas":11449,"Ġglasses":11450,"otype":11451,"Ġupset":11452,"semble":11453,"Ġpoem":11454,"ventions":11455,"Ġfiling":11456,"Ġlaundry":11457,"Ġkingdom":11458,"ostic":11459,"ĠAppro":11460,"Ġplugin":11461,"Ġframes":11462,"Ġacids":11463,"ĠMalaysia":11464,"Ġlawsu":11465,"Ġcleans":11466,"Ġgains":11467,"Ġcrimes":11468,"Ġtang":11469,"ĠKenn":11470,"Ġlocks":11471,"Ġincorporate":11472,"Ġtags":11473,"olen":11474,"Ġdisabilities":11475,"Ġtrucks":11476,"herent":11477,"Ġnit":11478,"ĠAnsw":11479,"Ġdesert":11480,"Ġtheore":11481,"Ġpiano":11482,"Ġbrick":11483,"check":11484,"ĠAli":11485,"Ġpassage":11486,"news":11487,"Ġdemocracy":11488,"gain":11489,"Ġdefect":11490,"olds":11491,"Ġfortun":11492,"orized":11493,"ĠNavy":11494,"Ġboring":11495,"Ġincur":11496,"ikip":11497,"Ġapolog":11498,"ĠCbd":11499,"Ġrocks":11500,"Ġdestruction":11501,"Ġautomation":11502,"Ġhandful":11503,"ancouver":11504,"Ġstroke":11505,"Ġenemies":11506,"Ġrehab":11507,"uns":11508,"ogy":11509,"Ġboots":11510,"Ġmoderate":11511,"aba":11512,"ĠPrimary":11513,"Ġintake":11514,"ESS":11515,"Ġplumbing":11516,"Ġbreach":11517,"Ġroutes":11518,"about":11519,"Ġ85":11520,"DC":11521,"sub":11522,"Ġster":11523,"Ġanger":11524,"Ġhitting":11525,"omatic":11526,"Ġparticles":11527,"Ġqualities":11528,"redited":11529,"Ġ>>":11530,"some":11531,"ontal":11532,"Ġhypot":11533,"ims":11534,"ĠLoss":11535,"Ġreasonably":11536,"Ġincorporated":11537,"Ġboundaries":11538,"ĠToyota":11539,"Ġkeen":11540,"Ġinstalling":11541,"Ġtires":11542,"lah":11543,"Ġstrip":11544,"Ġparallel":11545,"Ġcous":11546,"ĠNear":11547,"Ġcareers":11548,"ĠTitle":11549,"Ġexec":11550,"email":11551,"Ġ41":11552,"Ġendorse":11553,"Ġvariables":11554,"url":11555,"enger":11556,"ĠHair":11557,"ĠGreg":11558,"Ġmeasuring":11559,"Ġgrip":11560,"Ġspeeds":11561,"isode":11562,"Ġlabels":11563,"Ġmounted":11564,"Ġobserve":11565,"ĠIntell":11566,"Ġembrace":11567,"gra":11568,"Ġpad":11569,"Ġ52":11570,"Ġseparated":11571,"ĠGirls":11572,"ĠJenn":11573,"ĠResults":11574,"Ġexit":11575,"Ġnuts":11576,"Ġyeah":11577,"Ġcolored":11578,"Ġinspect":11579,"Ġjurisdiction":11580,"ĠSide":11581,"ĠLincoln":11582,"ĠInstall":11583,"Ġsurgical":11584,"ĠGh":11585,"Out":11586,"ĠMassachusetts":11587,"Ġagriculture":11588,"Ġsq":11589,"ĠCub":11590,"ĠAtlanta":11591,"Ġheadqu":11592,"Ġvarieties":11593,"Ġchurches":11594,"Ġbonds":11595,"ĠMagn":11596,"ĠDE":11597,"Point":11598,"81":11599,"Ġweakness":11600,"Ġkits":11601,"fulness":11602,"ĠAffairs":11603,"Ã³":11604,"ĠLux":11605,"ĠNation":11606,"aki":11607,"Ġgradually":11608,"ĠBreak":11609,"Ġisolated":11610,"Ġvoices":11611,"Ġgrows":11612,"laim":11613,"olves":11614,"ntil":11615,"ĠNetherlands":11616,"ahoo":11617,"Ġtailored":11618,"Ġfails":11619,"PG":11620,"Ġgut":11621,"ÑĢ":11622,"Best":11623,"Ġhack":11624,"prises":11625,"Ġtechnological":11626,"opher":11627,"Ġleak":11628,"Ġnotify":11629,"Ġgirlfriend":11630,"ĠIslamic":11631,"Ġgel":11632,"Ġcontributed":11633,",âĢĻ":11634,"enter":11635,"Ġthesis":11636,"Ġbeaches":11637,"arrass":11638,"itol":11639,"Ġspam":11640,"Ġconsiderable":11641,"Ġquantities":11642,"Ġdelays":11643,"ĠSpeed":11644,"Ġforgotten":11645,"Ġdozen":11646,"ĠDave":11647,"Ġcarries":11648,"Next":11649,"Bay":11650,"Ġlately":11651,"ĠBol":11652,"ANT":11653,"Ġsuspension":11654,"gly":11655,"Ġvaried":11656,"lete":11657,"amel":11658,"Ġdried":11659,"ĠImpro":11660,"bad":11661,"ĠBull":11662,"ouri":11663,"Ġwinners":11664,"ĠElementary":11665,"Ġunlimited":11666,"Ġzip":11667,"ĠInvestment":11668,"Ġlover":11669,"Ġdonation":11670,"Ġlegally":11671,"Ġexpecting":11672,"ateral":11673,"Ġsecured":11674,"Ġexcessive":11675,"Description":11676,"Ġconfront":11677,"Ġtowns":11678,"Ġspokes":11679,"Ġalph":11680,"Ġviolation":11681,"Ġalleg":11682,"ĠAsk":11683,"ĠGolf":11684,"Ġcyl":11685,"Ġminerals":11686,"Ġirre":11687,"Ġhood":11688,"Ġtatt":11689,"cip":11690,"Ġcomic":11691,"HL":11692,"Med":11693,"Ġpaste":11694,"Ġneighbors":11695,"ĠCreate":11696,"Ġaffiliates":11697,"ikipedia":11698,"Ġsupporters":11699,"Ġcrystal":11700,"lend":11701,"ĠAst":11702,"ĠDur":11703,"Ġamid":11704,"Ġpatience":11705,"ĠKevin":11706,"Ġdepartments":11707,"ĠBBC":11708,"isan":11709,"vable":11710,"Ġexempt":11711,"ĠDeep":11712,"iar":11713,"iple":11714,"Ġraces":11715,"Ġforums":11716,"ĠShab":11717,"Ġ1995":11718,"Ġaddiction":11719,"Ġtourist":11720,"Ġtablets":11721,"ĠDiscover":11722,"ĠRelations":11723,"ĠCraft":11724,"ĠComplete":11725,"Ġmainstream":11726,"bes":11727,"Ġknee":11728,"Ġpenalty":11729,"ĠRh":11730,"ĠRog":11731,"Ġachievement":11732,"HD":11733,"Ġcabinet":11734,"Ġmas":11735,"Ġfleet":11736,"cre":11737,"erior":11738,"Ġtweet":11739,"Ġslic":11740,"Ġwaist":11741,"lights":11742,"ĠYears":11743,"Ġconvinced":11744,"Ġnutrients":11745,"itzerland":11746,"Ġsevent":11747,"ĠEarly":11748,"Ġcosm":11749,"rative":11750,"Ġadjusted":11751,"Ġmarg":11752,"via":11753,"Ġgig":11754,"ĠForeign":11755,"Ġpione":11756,"Ġaggregate":11757,"agine":11758,"Ġours":11759,"ĠAttorney":11760,"June":11761,"ĠIndeed":11762,"Ġbegun":11763,"Ġbarrel":11764,"Ġaccomplished":11765,"Ġrefreshing":11766,"Rec":11767,"Ġindia":11768,"Ġpharmac":11769,"acco":11770,"umbai":11771,"Ġmanifest":11772,"atical":11773,"elle":11774,"Ġtransit":11775,"ĠDescription":11776,"Ġprovince":11777,"Ġactress":11778,"Ġguided":11779,"ĠMedic":11780,"Ġcups":11781,"ĠPractice":11782,"marks":11783,"Ġcriticism":11784,"Ye":11785,"Ġhass":11786,"Ġbikes":11787,"Ġsellers":11788,"ĠEdward":11789,"Ġpromotional":11790,"Ġprogressive":11791,"CP":11792,"Ġhill":11793,"ĠCape":11794,"ĠMand":11795,"Ġscal":11796,"code":11797,"conf":11798,"kg":11799,"test":11800,"Ġquery":11801,"Ġmemorable":11802,"Ġpotatoes":11803,"Ġcrafted":11804,"esy":11805,"imens":11806,"ĠBetter":11807,"Ġthirty":11808,"ĠJosh":11809,"Ġfunded":11810,"Ġessays":11811,"umble":11812,"Ġdancing":11813,"mers":11814,"ĠUlt":11815,"Ġfancy":11816,"ĠOrange":11817,"Ġshoe":11818,"Ġreactions":11819,"Ġinvolvement":11820,"Ġgray":11821,"ĠME":11822,"ĠCooper":11823,"Ġpockets":11824,"ĠMini":11825,"ĠIsraeli":11826,"ĠMaking":11827,"ĠPhotos":11828,"ĠCookies":11829,"ĠNorm":11830,"otte":11831,"FO":11832,"ĠApr":11833,"apters":11834,"your":11835,"Check":11836,"funnels":11837,"Ġtitled":11838,"Ġtale":11839,"Ġreads":11840,"rowave":11841,"Ġexploration":11842,"Ġdelayed":11843,"Ġliberal":11844,"othing":11845,"Ġhem":11846,"ĠHIV":11847,"ĠBear":11848,"esty":11849,"depth":11850,"Ġprocessor":11851,"Ġboyfriend":11852,"ĠCasino":11853,"vious":11854,"Ġproportion":11855,"ĠCool":11856,"ĠYouth":11857,"ĠCompet":11858,"Ġimplementing":11859,"ãĢ":11860,"sea":11861,"Ġranges":11862,"ressing":11863,"Ok":11864,"olk":11865,"ĠCastle":11866,"Ġindirect":11867,"Ġpant":11868,"Ġdenied":11869,"Ġsemin":11870,"ĠValent":11871,"ĠMale":11872,"Ġgrants":11873,"FP":11874,"Ġrack":11875,"Ġeasiest":11876,"green":11877,"Ġheal":11878,"Ġthrown":11879,"nie":11880,"inth":11881,"Ġrush":11882,"Ġscrap":11883,"Ġgrid":11884,"ĠSimilar":11885,"Ġdisclosure":11886,"ĠDays":11887,"lesh":11888,"wart":11889,"xide":11890,"Ġtrademark":11891,"VC":11892,"dale":11893,"Ġstere":11894,"Ġdeliber":11895,"ĠEntertain":11896,"Ġsuited":11897,"ĠPremier":11898,"Ġworkforce":11899,"Ġmarine":11900,"ĠCold":11901,"berries":11902,"ĠBM":11903,"Ġpurple":11904,"ĠImage":11905,"Ġdispute":11906,"Ġconsultant":11907,"ĠLewis":11908,"unting":11909,"Ġburden":11910,"Ġuk":11911,"Ġconsistency":11912,"Ġseeks":11913,"Ġ47":11914,"Ġworlds":11915,"Ġquit":11916,"dem":11917,"Ġclassical":11918,"ĠDouble":11919,"Ġoptional":11920,"otherapy":11921,"ĠRepublicans":11922,"user":11923,"Ġpulling":11924,"Ġwing":11925,"Ġintim":11926,"Ġdressing":11927,"Ġneat":11928,"thod":11929,"amins":11930,"keeping":11931,"Ġrod":11932,"ĠEditor":11933,"Ġsteady":11934,"aying":11935,"ĠSW":11936,"Ġgrades":11937,"ĠFuture":11938,"ĠTan":11939,"elect":11940,"immer":11941,"formed":11942,"plate":11943,"Ġoffensive":11944,"Ġconservation":11945,"oops":11946,"Ġprospect":11947,"Ġaccompanied":11948,"season":11949,"clusive":11950,"Ġfreely":11951,"Ġvoltage":11952,"ĠDeath":11953,"hist":11954,"Ġclim":11955,"Ġnovels":11956,"aneous":11957,"Ġsuicide":11958,"ĠEvents":11959,"Ġtennis":11960,"ĠHay":11961,"Ġhunt":11962,"ĠCorn":11963,"ĠBesides":11964,"Ġlips":11965,"Ġpassenger":11966,"plus":11967,"ĠFeatures":11968,"uru":11969,"Ġfallen":11970,"Ġdelicate":11971,"Ġcontrary":11972,"Ġdict":11973,"ĠScient":11974,"Ġhumor":11975,"dam":11976,"Ġdevast":11977,"ĠDavis":11978,"Ġtricks":11979,"mont":11980,"aughters":11981,"Ġmakers":11982,"Ġepic":11983,"agle":11984,"Ġinclusion":11985,"Ġfence":11986,"Ġcolorful":11987,"His":11988,"Ġfridge":11989,"Ġtraditions":11990,"cled":11991,"Ġfabrics":11992,".....":11993,"Ġprest":11994,"beat":11995,"ĠWithin":11996,"Ġcognitive":11997,"mediate":11998,"Ġwrapped":11999,"Ġdestinations":12000,"ĠDragon":12001,"got":12002,"Ġregime":12003,"Ġcush":12004,"arency":12005,"ĠPalestin":12006,"lu":12007,"ĠRat":12008,"lar":12009,"Ġdemanding":12010,"Ġliterary":12011,"Ġreserv":12012,"Ġrenowned":12013,"Ġpreference":12014,"Ġhomework":12015,"LD":12016,"writer":12017,"Ġpretend":12018,"ĠCompanies":12019,"ocratic":12020,"Will":12021,"ĠLiter":12022,"Ġdescriptions":12023,"Ġdeleted":12024,"Copyright":12025,"rylic":12026,"Ġgraduated":12027,"ãģ":12028,"ĠRus":12029,"fly":12030,"ĠMichel":12031,"ĠMortgage":12032,"Ġautomotive":12033,"ĠConstitution":12034,"Ġattractions":12035,"Ġdetermination":12036,"ĠRecords":12037,"Ġchampion":12038,"Ġsubmitting":12039,"Ġvariation":12040,"will":12041,"ĠVeter":12042,"oons":12043,"Ġampl":12044,"Ġunnecessary":12045,"ĠTurk":12046,"Ġreminded":12047,"Ġreflection":12048,"ĠScript":12049,"ĠES":12050,"pres":12051,"Ġ360":12052,"Ġveteran":12053,"isers":12054,"ĠPear":12055,"Ġlecture":12056,"ĠVA":12057,"Ġrecruitment":12058,"ĠAqu":12059,"Join":12060,"ĠBry":12061,"river":12062,"Ġdeadline":12063,"ĠHan":12064,"oker":12065,"arer":12066,"Ġstriking":12067,"Ġtoss":12068,"ĠFant":12069,"dog":12070,"Ġdocumentary":12071,"Ġfunctioning":12072,"Ġholder":12073,"forced":12074,"Ġpoliticians":12075,"Ġdiscipline":12076,"AAAA":12077,"Ġperpet":12078,"ĠCover":12079,"ĠReally":12080,"October":12081,"ĠBlock":12082,"Ġreset":12083,"Ġ(\"":12084,"onia":12085,"ĠHub":12086,"holder":12087,"Ġtasty":12088,"ĠRSS":12089,"ĠSK":12090,"normal":12091,"Based":12092,"Ġpays":12093,"Ġsubmission":12094,"Ġseasonal":12095,"Ġconce":12096,"ĠNetflix":12097,"About":12098,"ĠKansas":12099,"Ġshelf":12100,"Ġcolleges":12101,"ĠStainless":12102,"jud":12103,"Ġbuilds":12104,"Ġpills":12105,"Ġpropag":12106,"ĠDubai":12107,"ĠChannel":12108,"Ġgenes":12109,"jections":12110,"Ġgeneric":12111,"Ġdiscrimination":12112,"Ġaccurately":12113,"Cor":12114,"Ġprofound":12115,"Ġluxurious":12116,"Ġsimultaneously":12117,"azines":12118,"rapeutic":12119,"Ġmetals":12120,"December":12121,"ĠJay":12122,"Ġreminder":12123,"July":12124,"erto":12125,"Ġrevers":12126,"Ġattempted":12127,"Ġsecrets":12128,"gency":12129,"ĠLinked":12130,"Ġpresidential":12131,"Ġcelebrating":12132,"ĠScottish":12133,"maker":12134,"asket":12135,"ĠFollowing":12136,"Ġdupl":12137,"ĠMemorial":12138,"Sm":12139,"Ġglobally":12140,"ĠHyd":12141,"Ġod":12142,"Ġmusicians":12143,"ĠOrganization":12144,"Ġpossession":12145,"ĠBarn":12146,"Ġcub":12147,"Ð¾Ð":12148,"oded":12149,"unnel":12150,"Ġinvestor":12151,"UC":12152,"Ġembarrass":12153,"service":12154,"ĠFive":12155,"Ġinterpre":12156,"Ġtune":12157,"Ġpreventing":12158,"ĠRaj":12159,"ĠIssue":12160,"ishop":12161,"Ġtongue":12162,"ĠCry":12163,"Ġpopulations":12164,"Ġnationwide":12165,"walk":12166,"atar":12167,"Ġclarity":12168,"Ġtremendous":12169,"Ġgrasp":12170,"Ġstakeholders":12171,"Ġappreciation":12172,"Ġreadily":12173,"ĠMoo":12174,"ĠOcc":12175,"Finally":12176,"Ġmagnetic":12177,"Ġq":12178,"Ġtheatre":12179,"leading":12180,"Ġretreat":12181,"ennessee":12182,"asses":12183,"ĠBirth":12184,"Ġfreel":12185,"Ġdrove":12186,"Ġsons":12187,"Ġpoison":12188,"Ġinher":12189,"Ġintimate":12190,"cos":12191,"Ġsewing":12192,"quet":12193,"Ġfriendship":12194,"Ġjam":12195,"Ġclever":12196,"Ġvolunt":12197,"Ġworthy":12198,"ĠBelg":12199,"Ġdownloaded":12200,"mented":12201,"ĠWire":12202,"ĠTea":12203,"cat":12204,"ito":12205,"ĠQuestions":12206,"boy":12207,"quer":12208,"ĠJason":12209,"ND":12210,"ĠFile":12211,"IB":12212,"Ġmax":12213,"Ġaffecting":12214,"ĠMiller":12215,"ĠSab":12216,"Ġshelter":12217,"Ġexperiments":12218,"game":12219,"Ġrestoration":12220,"Ġconverted":12221,"mate":12222,"Ġimplications":12223,"Ġharsh":12224,"Ã¤":12225,"ĠTogether":12226,"ailand":12227,"Ġsupportive":12228,"Ġhomemade":12229,"ĠBeh":12230,"ĠCream":12231,"orient":12232,"Ġpasta":12233,"Ġpaths":12234,"Ġaccompany":12235,"ĠAnne":12236,"count":12237,"Ġdeciding":12238,"Ġintend":12239,"Ġcheer":12240,"Ġpond":12241,"Ġarmed":12242,"Ġinvested":12243,"Ġsignificance":12244,"Ġboats":12245,"Ġproteins":12246,"aration":12247,"ĠFat":12248,"Ġoverlook":12249,"LO":12250,"Ġnest":12251,"oting":12252,"kee":12253,"Ġjail":12254,"Ġgoodness":12255,"Ġstitch":12256,"ĠTheatre":12257,"ĠFootball":12258,"Ġviewers":12259,"Ġvaccines":12260,"ĠTrib":12261,"ĠNHS":12262,"ĠVancouver":12263,"Ġcrop":12264,"Ġsuggestion":12265,"Ġshine":12266,"uscript":12267,"Ġcit":12268,"itudes":12269,"Ġcomplexity":12270,"Ġconsciousness":12271,"ended":12272,"Ġaffairs":12273,"ĠLyn":12274,"Ġpatio":12275,"Ġregulated":12276,"amous":12277,"ACT":12278,"ĠTrue":12279,"Ġcryptocur":12280,"Ac":12281,"gmail":12282,"Ġhealthier":12283,"Ġaudit":12284,"ĠPed":12285,"IO":12286,"asm":12287,"ĠJavaScript":12288,"mouth":12289,"Ġreminds":12290,"ĠLOVE":12291,"Net":12292,"UM":12293,"ĠFresh":12294,"April":12295,"ĠParts":12296,"Ġepid":12297,"ĠUsers":12298,"ĠMagic":12299,"Ġfucking":12300,"ĠCoc":12301,"Ġfunnel":12302,"Ġbin":12303,"olitan":12304,"Ġreplacing":12305,"Ġbatch":12306,"Ġvalve":12307,"ĠMLS":12308,"Ġexplaining":12309,"IST":12310,"Through":12311,"ĠPeace":12312,"ĠRoss":12313,"ĠKate":12314,"erk":12315,"ĠJobs":12316,"700":12317,"Ġsuggesting":12318,"oria":12319,"ifiable":12320,"ĠEaster":12321,"Ġmobility":12322,"Ġpest":12323,"ĠHo":12324,"ĠInn":12325,"ritional":12326,"Ġtrauma":12327,"Ġradiation":12328,"Ġcustomize":12329,"itual":12330,"Ġracial":12331,"Ġcontainers":12332,"Ġconcluded":12333,"prof":12334,"ĠEmpire":12335,"Ġcharming":12336,"ĠBeautiful":12337,"Ġdozens":12338,"Ġmeditation":12339,"Ġpermits":12340,"ez":12341,"Ġinfluenced":12342,"ĠMaryland":12343,"ĠGreece":12344,"ĠWant":12345,"NE":12346,"erge":12347,"ateur":12348,"Ġnotion":12349,"Ġvegetable":12350,"Ġpublisher":12351,"asive":12352,"Ġcorrel":12353,"ĠPatrick":12354,"Ġdairy":12355,"roit":12356,"Ġhandles":12357,"Health":12358,"Ġrecipient":12359,"Ġtile":12360,"Ġexperimental":12361,"ciples":12362,"ĠCell":12363,"ĠSwitzerland":12364,"Ġlighter":12365,"Ġpartial":12366,"Ġadvances":12367,"ĠExp":12368,"ighth":12369,"Ġcurve":12370,"ĠMove":12371,"Ġfundra":12372,"Ġdetermining":12373,"Ġorganize":12374,"ĠLaur":12375,"Ġspecialty":12376,"raul":12377,"ĠLuc":12378,"Ġmutual":12379,"Tags":12380,"erest":12381,"Ġrede":12382,"ĠMars":12383,"Ġassumed":12384,"ĠAssociate":12385,"Ġgenuinely":12386,"Ġcanvas":12387,"iche":12388,"ĠFinal":12389,"ĠApply":12390,"ĠFriends":12391,"ãĥ":12392,"ĠHarris":12393,"bably":12394,"rup":12395,"VA":12396,"ĠLib":12397,"ĠBurn":12398,"ĠSimon":12399,"security":12400,"September":12401,"Ġcandy":12402,"Ġcitizen":12403,"Ġclosest":12404,"ĠPath":12405,"Ġcere":12406,"Ġsymbols":12407,"Ġcorporations":12408,"shine":12409,"ACK":12410,"ĠLicense":12411,"Ġhal":12412,"Ġmanually":12413,"CS":12414,"ĠIndiana":12415,"mentia":12416,"Ġflags":12417,"Ġdevoted":12418,"Ġpenet":12419,"quo":12420,"Ġcleaned":12421,"ĠArchitect":12422,"Ġapplicants":12423,"ĠUnlike":12424,"oples":12425,"alling":12426,"Despite":12427,"rons":12428,"Ġsake":12429,"lihood":12430,"Ġattorneys":12431,"ĠAssembly":12432,"Ġcoupons":12433,"quiries":12434,"Ġmater":12435,"ivities":12436,"Ġclaiming":12437,"Ġevaluated":12438,"Ġshadow":12439,"Ġherein":12440,"Ġconditioning":12441,"sal":12442,"Ġsisters":12443,"onge":12444,"direct":12445,"cr":12446,"pread":12447,"izable":12448,"Ġcharts":12449,"Ġelite":12450,"ounding":12451,"ensed":12452,"Ġethical":12453,"ĠPO":12454,"ulent":12455,"Ġnearest":12456,"pectives":12457,"GBT":12458,"GO":12459,"driven":12460,"verages":12461,"ĠHung":12462,"brew":12463,"Ġpicks":12464,"ixed":12465,"ĠSpot":12466,"Ġelectronics":12467,"ĠBureau":12468,"Ġweld":12469,"abama":12470,"ĠResort":12471,"vit":12472,"ĠDise":12473,"ĠOxford":12474,"Ġdefic":12475,"Ġstraightforward":12476,"mega":12477,"Ġsurviv":12478,"Ġhandmade":12479,"Due":12480,"lishing":12481,"Ġscholarship":12482,"Mon":12483,"ĠIndex":12484,"Ġmagnificent":12485,"ĠAdditional":12486,"Ġquilt":12487,"llar":12488,"Ġsooner":12489,"Ġarising":12490,"Ġconfusion":12491,"Ġindependence":12492,"Ġessence":12493,"ĠFeat":12494,"Ġcompelling":12495,"Ġfacial":12496,"Ġtastes":12497,"hu":12498,"ĠTechnical":12499,"Ġtends":12500,"Ġteaches":12501,"ĠIowa":12502,"Ġ1994":12503,"Ġvocal":12504,"Ġuncomfortable":12505,"Ġcreatures":12506,"LP":12507,"Ġrejected":12508,"bies":12509,"ĠDiamond":12510,"ĠHousing":12511,"may":12512,"ardless":12513,"Ġnu":12514,"Ġghost":12515,"rue":12516,"Ġcustoms":12517,"Ġintensity":12518,"Ġwage":12519,"ĠPosted":12520,"ĠFDA":12521,"oving":12522,"Ġpupp":12523,"ĠActive":12524,"Ġpollution":12525,"Ġthrowing":12526,"ĠSweden":12527,"Ġelderly":12528,"Ġstabil":12529,"ocus":12530,"ĠGi":12531,"Ġbadly":12532,"ounced":12533,"Ġcamps":12534,"ĠED":12535,"ending":12536,"ĠPitt":12537,"phan":12538,"Ġaudiences":12539,"ĠWonder":12540,"ĠNaz":12541,"Ġdonations":12542,"addy":12543,"lahoma":12544,"ĠJess":12545,"Ġreaches":12546,"Ġaddressing":12547,"Ġdecreased":12548,"UB":12549,"ĠMarine":12550,"Ġcree":12551,"ĠGift":12552,"Ġpacking":12553,"Ġinfected":12554,"Ġfut":12555,"arity":12556,"ĠLes":12557,"rett":12558,"ĠBab":12559,"Ġbrace":12560,"urdy":12561,"Ġrhyth":12562,"ebook":12563,"edu":12564,"Ġfootage":12565,"Ġarise":12566,"Ġbol":12567,"uming":12568,"master":12569,"TR":12570,"ĠSac":12571,"Ġherbs":12572,"ĠCurrently":12573,"Ġdivers":12574,"2016":12575,"à¸":12576,"Ġcoating":12577,"Ġsnack":12578,"!).":12579,"plan":12580,"iper":12581,"Ġobtaining":12582,"ĠHum":12583,"ĠDenver":12584,"ĠMath":12585,"payday":12586,"ĠEle":12587,"ĠMetal":12588,"liest":12589,"ylon":12590,"ĠSweet":12591,"Ġ110":12592,"town":12593,"Ġreloc":12594,"Ġtemple":12595,"ĠServer":12596,"Ġfolk":12597,"icular":12598,"emn":12599,"ĠRent":12600,"Ġignor":12601,"ĠVirtual":12602,"ĠIslands":12603,"ĠHE":12604,"ĠHu":12605,"ibbean":12606,"ĠEntertainment":12607,"Ġtwitter":12608,"Ġdresses":12609,"ĠSeveral":12610,"ĠThanksgiving":12611,"ĠAssociates":12612,"KE":12613,"gic":12614,"ĠClickfunnels":12615,"amine":12616,"Ġneeding":12617,"abul":12618,"2015":12619,"Ġpresenting":12620,"Ġaqu":12621,"Ġterminal":12622,"ĠCu":12623,"attan":12624,"Ġenroll":12625,"Ġvalued":12626,"Ġpetition":12627,"Ġmandatory":12628,"ĠSprings":12629,"bled":12630,"ĠSant":12631,"Ġblade":12632,"Ġevident":12633,"etooth":12634,"backs":12635,"Ġshout":12636,"Ġcontinually":12637,"idespread":12638,"Ġclue":12639,"Act":12640,"ĠClark":12641,"ĠPlatform":12642,"ĠImages":12643,"ĠImpact":12644,"ĠBowl":12645,"Ġalbums":12646,"Ġinternationally":12647,"Ġseparation":12648,"Ġconstitute":12649,"Ġresponsive":12650,"Ġsweat":12651,"Ġtheater":12652,"El":12653,"Ġremed":12654,"ĠFellow":12655,"oubted":12656,"ĠAlong":12657,"ĠIndividual":12658,"entials":12659,"oenix":12660,"Ġunp":12661,"Ġwines":12662,"ĠCars":12663,"ĠSaudi":12664,"Ġlimitation":12665,"Ġrounds":12666,"Ġunpre":12667,"Ġbasics":12668,"Ġwelcoming":12669,"arness":12670,"Ġeastern":12671,"Ġdetected":12672,"ĠReserve":12673,"Ġneglect":12674,"Ġradi":12675,"asant":12676,"Ġseemingly":12677,"Ġniche":12678,"ĠGA":12679,"ĠCollect":12680,"ĠTennessee":12681,"Ġhorrible":12682,"loans":12683,"Ġshades":12684,"Ġflows":12685,"Ġbullet":12686,"ĠCurrent":12687,"Ġdarkness":12688,"ey":12689,"also":12690,"Ġwheat":12691,"uations":12692,"Ã¨":12693,"Ġmothers":12694,"forming":12695,"ĠBron":12696,"ĠVar":12697,"Ġgluten":12698,"Ġ1950":12699,"Ġphysics":12700,"Ġdivine":12701,"Ġcrafts":12702,"Ġmush":12703,"mad":12704,"Ġorientation":12705,"wind":12706,"ĠBag":12707,"Ġthereby":12708,"Ġdedication":12709,"Ġsolving":12710,"Ġrobot":12711,"ĠRO":12712,"ĠFashion":12713,"XX":12714,"rint":12715,"Ġearning":12716,"ĠBoys":12717,"Ġpix":12718,"ĠAdvert":12719,"Ġinflammation":12720,"ĠMission":12721,"Ġedited":12722,"ĠIdent":12723,"pert":12724,"Ġperception":12725,"ĠCompl":12726,"Cur":12727,"Ġhills":12728,"Ġexhibit":12729,"Ġneighbour":12730,"Ġeducated":12731,"ĠHi":12732,"ĠRegister":12733,"ĠSyria":12734,"elta":12735,"Ġhassle":12736,"Ġlibraries":12737,"TE":12738,"vid":12739,"Ġbout":12740,"thur":12741,"outheast":12742,"Ġportray":12743,"PE":12744,"Ġsponsored":12745,"Off":12746,"tit":12747,"ika":12748,"November":12749,"PL":12750,"Ġtouched":12751,"ĠWy":12752,"Ġthermal":12753,"Ġuncertainty":12754,"ancer":12755,"Ġannoying":12756,"Ġbankrupt":12757,"Ġharass":12758,"ĠPL":12759,"ĠAnton":12760,"Ġdressed":12761,"Ġdated":12762,"Ġformats":12763,"Ġcoins":12764,"Ġlenses":12765,"ĠRap":12766,"Ġbaked":12767,"Ġdeserves":12768,"Ġtroops":12769,"Ġbrut":12770,"Ġdefeat":12771,"Ġbicy":12772,"ĠDefense":12773,"Ġattributes":12774,"Ġna":12775,"Ġmills":12776,"Ġthankful":12777,"Ġscary":12778,"overs":12779,"Ġtropical":12780,"rowing":12781,"Ġregarded":12782,"Ġties":12783,"ĠPharm":12784,"Ġsla":12785,"mann":12786,"Ġpersu":12787,"auge":12788,"Ġdistinctive":12789,"Ġembedded":12790,"Ġlinear":12791,"ju":12792,"around":12793,"ĠToo":12794,"Ġchains":12795,"ĠVent":12796,"August":12797,"Ġbones":12798,"Ġpenis":12799,"ĠScreen":12800,"km":12801,"Hz":12802,"lay":12803,"Ġprospects":12804,"Ġfiscal":12805,"Ġserial":12806,"Ġcomputing":12807,"hill":12808,"tic":12809,"ignment":12810,"nected":12811,"arios":12812,"oubtedly":12813,"ĠRain":12814,"reedom":12815,"ptic":12816,"Ġtourists":12817,"sk":12818,"Ġholy":12819,"burn":12820,"ĠKa":12821,"athon":12822,"ĠPin":12823,"Ġexcuse":12824,"Ġbay":12825,"Ġpine":12826,"ĠCulture":12827,"Ġcoaches":12828,"Ġfailing":12829,"Ġtheories":12830,"ĠSimple":12831,"inburgh":12832,"Ġcleaner":12833,"ritical":12834,"Ġcontributing":12835,"Tech":12836,"Ġcalculate":12837,"Ġwelf":12838,"Ġutter":12839,"Ġproceedings":12840,"Ġrepeatedly":12841,"ĠAmend":12842,"Ġracism":12843,"ĠDefin":12844,"Ġconsisting":12845,"ĠBalt":12846,"Ġadjustment":12847,"Ġdealt":12848,"eous":12849,"Ġbackpack":12850,"Ġcuis":12851,"Ġfet":12852,"Ġinstitutional":12853,"Ġsatellite":12854,"ĠDraw":12855,"Ġshoulders":12856,"ĠGrant":12857,"ĠKelly":12858,"Ġamer":12859,"Ġscared":12860,"Ġbugs":12861,"ptions":12862,"neath":12863,"ĠAssess":12864,"ĠMorgan":12865,"speed":12866,"ĠMissouri":12867,"Ġinclusive":12868,"-)":12869,"azy":12870,"Ġdoses":12871,"001":12872,"Ġspreading":12873,"Ġprayers":12874,"ocy":12875,"unes":12876,"ĠHur":12877,"onom":12878,"Ġsilent":12879,"Ġwelfare":12880,"Ġpresentations":12881,"Ġethnic":12882,"Ġchina":12883,"opes":12884,"ĠIndependent":12885,"Ġintegrate":12886,"ĠAlliance":12887,"claimer":12888,"Ġconsole":12889,"Ġ02":12890,".|":12891,"pace":12892,"Ġshowc":12893,"ĠAllen":12894,"ĠHal":12895,"Ġjournalist":12896,"stick":12897,"ĠHoliday":12898,"Ġfoster":12899,"ĠAfghan":12900,"Time":12901,"Ġwarming":12902,"ĠIL":12903,"ĠStra":12904,"ĠFurniture":12905,"Ġanx":12906,"Ġparcel":12907,"Ġcho":12908,"Ġanticipated":12909,"size":12910,"Ġstolen":12911,"Ġdisclose":12912,"Ġminimize":12913,"Ġcorruption":12914,"Ġretrie":12915,"Ġstatistical":12916,"ĠVolume":12917,"Ġbesides":12918,"Ġadvocate":12919,"Ġpraise":12920,"Ġcompanion":12921,"Ġtomatoes":12922,"zo":12923,"Ġbooked":12924,"Ġimproves":12925,"ographical":12926,"Ġsquee":12927,"Ġexecuted":12928,"ĠRot":12929,"Ġabandoned":12930,"Ãł":12931,"ĠWE":12932,"jar":12933,"Cal":12934,"Ġannually":12935,"Ġexams":12936,"Ġinhab":12937,"ĠNative":12938,"azing":12939,"Ġreson":12940,"Ġdistancing":12941,"Ġlabour":12942,"ĠREAL":12943,"idth":12944,"ĠSlo":12945,"ĠMining":12946,"Ġcloset":12947,"ĠPayPal":12948,"ĠJoy":12949,"archy":12950,"Ġ54":12951,"Ġ2022":12952,"Ġfuneral":12953,"Ġcorners":12954,"ĠBond":12955,"Ġcollaborative":12956,"\\/":12957,"hh":12958,"Ġshowcase":12959,"ĠDra":12960,"ĠOriginal":12961,"Ġruling":12962,"Sign":12963,"ĠBus":12964,"orted":12965,"advant":12966,"Ġmaximize":12967,"Ġcomparable":12968,"Ġow":12969,"ĠBeauty":12970,"Ġvanilla":12971,"ĠCos":12972,"onde":12973,"Ġoccasional":12974,"Ġignored":12975,"Ġmagazines":12976,"ĠPuerto":12977,"ximity":12978,"robe":12979,"igue":12980,"Ġmetabol":12981,"Ġsentences":12982,"Ġcounts":12983,"Â´":12984,"Ġacute":12985,"INE":12986,"ĠBattle":12987,"Ġsensors":12988,"Pres":12989,"Ġpreview":12990,"Ġnevertheless":12991,"Ġgiveaway":12992,"ĠUtah":12993,"culation":12994,"Ġconducting":12995,"Ġ350":12996,"ĠStyle":12997,"Ġdigit":12998,"rencies":12999,"aul":13000,"ĠValue":13001,"Ġyarn":13002,"ĠRick":13003,"Ġfears":13004,"ustral":13005,"ometer":13006,"ĠAnalytics":13007,"Ġislands":13008,"reach":13009,"Ġteens":13010,"Ġsearches":13011,"Ear":13012,"ĠRA":13013,"Ġgem":13014,"lette":13015,"Ġhazard":13016,"UK":13017,"Ġairline":13018,"Black":13019,"Ġmodules":13020,"idding":13021,"Ġwidespread":13022,"Ġappointments":13023,"Ġpics":13024,"ĠEspecially":13025,"ï¸":13026,"arel":13027,"ĠDesigned":13028,"Trans":13029,"ĠManual":13030,"ĠAbs":13031,"Ġemerged":13032,"Ġdot":13033,"ĠCher":13034,"Ġinflation":13035,"Ġclay":13036,"ĠMeeting":13037,"cam":13038,"ĠEpisode":13039,".</":13040,"ĠThailand":13041,"Ġexamined":13042,"Ġprivilege":13043,"isons":13044,"Ġdive":13045,"Ġrif":13046,"Ġbenefic":13047,"Ġnotified":13048,"God":13049,"ĠMarsh":13050,"ĠProp":13051,"Ġapprox":13052,"ĠSad":13053,"Ġresolved":13054,"Ġoffense":13055,"Ġunderground":13056,"Ġhomeless":13057,"Ġmargin":13058,"Ġhike":13059,"Ġestablishing":13060,"ampoo":13061,"Ġsincere":13062,"Ġgaining":13063,"ulator":13064,"Those":13065,"Ġcontrolling":13066,"Ġacadem":13067,"Ġinquiry":13068,"ioxid":13069,"ĠLaure":13070,"school":13071,"China":13072,"ĠAve":13073,"cium":13074,"Ġshipment":13075,"ĠBerlin":13076,"Ġtwin":13077,"ugg":13078,"ĠISO":13079,"ere":13080,"Ġaesthetic":13081,"Ġsail":13082,"Ġanth":13083,"ĠAnthony":13084,"Ġrolls":13085,"ĠBird":13086,"Ġinfring":13087,"nai":13088,"rors":13089,"Ġstumbled":13090,"Ġoutbreak":13091,"ĠCommunications":13092,"ĠBS":13093,"ĠAlabama":13094,"ilitation":13095,"ĠBrowse":13096,"ĠEnh":13097,"Ġheated":13098,"Ġjazz":13099,"ĠChicken":13100,"Ġaug":13101,"ĠKy":13102,"Ġsuspended":13103,"Ġvig":13104,"UI":13105,"aired":13106,"ĠSym":13107,"Ġinjection":13108,"Ġ51":13109,"Ġric":13110,"Ġembra":13111,"Ġlogical":13112,"ĠQueens":13113,"Start":13114,"ĠOffer":13115,"Ġpairs":13116,"Ġciv":13117,"ĠFan":13118,"Ġoutlet":13119,"Ġfeas":13120,"Ġsilence":13121,"ĠDat":13122,"Ġtiles":13123,"Ġdaughters":13124,"Ġcorporation":13125,"Ġunderstands":13126,"Ġflip":13127,"ITY":13128,"Ġshore":13129,"ĠSwiss":13130,"Ġdropping":13131,"Ġgest":13132,"pin":13133,"Ġgy":13134,"zech":13135,"Ġseating":13136,"ĠLGBT":13137,"Ġnewer":13138,"appropri":13139,"ĠVeh":13140,"Ġintr":13141,"ottage":13142,"ĠCaribbean":13143,"Ġaccordingly":13144,"ĠChallenge":13145,"compass":13146,"Ġdentist":13147,"Ġlegendary":13148,"UE":13149,"Ġweekends":13150,"Ġpeers":13151,"AE":13152,"CR":13153,"Ġflesh":13154,"Ġdoct":13155,"Keep":13156,"Ġrecur":13157,"have":13158,"ĠHeritage":13159,"ĠNJ":13160,"Ġmanuscript":13161,"Ġrespected":13162,"Ġmart":13163,"Ġposter":13164,"Ġthrilled":13165,"Ġalgorithm":13166,"Ġeco":13167,"ttes":13168,"Ġborders":13169,"News":13170,"Ġsporting":13171,"Ġmigration":13172,"ĠCentury":13173,"ĠDrug":13174,"ĠBarb":13175,"Ġhanded":13176,"ĠBright":13177,"Ġtanks":13178,"Ġpla":13179,"Ġreflected":13180,"Ġpel":13181,"Ġextrem":13182,"ĠPortland":13183,"Ġappealing":13184,"etics":13185,"iere":13186,"ĠGre":13187,"Ġbasement":13188,"ĠAw":13189,"ĠRather":13190,"ĠChampionship":13191,"ĠPills":13192,"ĠUltra":13193,"ĠFo":13194,"ĠUpdate":13195,"Ġpear":13196,"ĠSi":13197,"Ġpremises":13198,"Ġpsychology":13199,"Ġthumb":13200,"Ġperceived":13201,"ĠBlood":13202,"Ġprofessionally":13203,"andal":13204,"ĠFeel":13205,"Ġfinishes":13206,"hard":13207,"Ġ03":13208,"giene":13209,"BO":13210,"illance":13211,"Ġchemistry":13212,"Ġbehaviors":13213,"Ġphenomenon":13214,"ĠPil":13215,"Ġclosure":13216,"Ġwings":13217,"Ġabstract":13218,"ĠSuccess":13219,"Ġhammer":13220,"ĠYellow":13221,"Look":13222,"Ġfraction":13223,"ĠWoman":13224,"Ġalien":13225,"ĠHTML":13226,"Ġhobby":13227,"when":13228,"ĠDS":13229,"Ġsprink":13230,"ĠGene":13231,"ĠNort":13232,"ĠLuck":13233,"ĠLoan":13234,"ĠOklahoma":13235,"Ġaccidents":13236,"Ġ1992":13237,"mentation":13238,"Ġpromising":13239,"naments":13240,"Ġawful":13241,"matic":13242,"oved":13243,"Ġpremier":13244,"ĠWA":13245,"ickets":13246,"Ġloyalty":13247,"Ġbreakdown":13248,"ĠCapitol":13249,"ĠFle":13250,"ontin":13251,"ierce":13252,"ĠPT":13253,"Ġclimbing":13254,"ĠRegistered":13255,"Ġskip":13256,"âĢĶâĢĶ":13257,"Ġtower":13258,"Ġsacrifice":13259,"ĠBrew":13260,"Ġfloral":13261,"Ġrecycling":13262,"orph":13263,"ĠNotice":13264,"ĠFem":13265,"ĠLeon":13266,"Ġsells":13267,"omer":13268,"Ġconsume":13269,"Ġrab":13270,"Ġconsiderably":13271,"ĠNik":13272,"ï¸ı":13273,"Sub":13274,"Ġmales":13275,"Ġobservation":13276,"Ġpuppy":13277,"ributed":13278,"built":13279,"ĠGiven":13280,"ĠAnti":13281,"Ġencountered":13282,"Ġfought":13283,"Bel":13284,"thrit":13285,"breaking":13286,"Ġgeomet":13287,"Ġpunch":13288,"Ġbarrier":13289,"Ġwithdrawal":13290,"ĠCorporate":13291,"Ġgerm":13292,"ĠTell":13293,"Ġcorre":13294,"attered":13295,"Ġcoin":13296,"raulic":13297,"Ġtargeting":13298,"bird":13299,"âĢ¦âĢĿ":13300,"Ġevolved":13301,"Ġstartup":13302,"Ġwarned":13303,"hole":13304,"Ġhomeowners":13305,"Ġadapted":13306,"Ass":13307,"atility":13308,"ĠStop":13309,"ĠHawaii":13310,"ĠEP":13311,"Ġnurses":13312,"placement":13313,"Ġsyndrome":13314,"ĠLiver":13315,"Ġchapters":13316,"Ġleisure":13317,"Ġforming":13318,"ĠZoom":13319,"Dav":13320,"Ġritual":13321,"Ġjoke":13322,"Ġtransformed":13323,"Form":13324,"apolis":13325,"Ġsafer":13326,"Ġoptimization":13327,"Ġtemporarily":13328,"FR":13329,"Ġ56":13330,"umbers":13331,"Ġpension":13332,"Ġpracticing":13333,"ĠCaptain":13334,"blo":13335,"Ġexped":13336,"Ġnegl":13337,"Ġnotifications":13338,"Ġtestimony":13339,"ĠDor":13340,"ĠLeadership":13341,"shore":13342,"held":13343,"ĠStri":13344,"ĠAnimal":13345,"ĠImport":13346,"ĠSteam":13347,"ĠGR":13348,"Ġbonuses":13349,"Ġremod":13350,"opic":13351,"Fl":13352,"Ġpharmaceutical":13353,"ĠMC":13354,"ĠðŁĺī":13355,"Ġinvitation":13356,"ussion":13357,"ĠKings":13358,"ĠEmergency":13359,"Ġmysterious":13360,"ĠAmb":13361,"Ġadvisor":13362,"arms":13363,"mary":13364,"ĠTemple":13365,"ĠWine":13366,"ĠTarget":13367,"Ġlobby":13368,"avor":13369,"Ġthickness":13370,"Ġdistribute":13371,"Ġpuzzle":13372,"uary":13373,"Ġimmense":13374,"Ġtranslated":13375,"Ġenglish":13376,"Ġpreval":13377,"Ġvendor":13378,"ĠNep":13379,"Ġpressing":13380,"istically":13381,"Ġprescribed":13382,"Ġthereof":13383,"Ġsynthetic":13384,"Ġ1993":13385,"Ġcostly":13386,"ĠRegion":13387,"gie":13388,"Ġdimension":13389,"nals":13390,"Ġstruggles":13391,"DI":13392,"Ġate":13393,"ĠLad":13394,"Ġmonetary":13395,"GS":13396,"vada":13397,"\\\\\\\\\\\\\\\\\\\\\\\\\\\\\\\\\\\\\\\\\\\\\\\\\\\\\\\\\\\\\\\\\\\\\\\\\\\\\\\\\\\\\\\\\\\\\\\\\\\\\\\\\\\\\\\\\\\\\\\\\\\\\\\\":13398,"names":13399,"Ġregret":13400,"Ġpointing":13401,"ĠBoo":13402,"ĠInsp":13403,"ĠFine":13404,"ĠWat":13405,"ĠCoach":13406,"Ġshaft":13407,"âĺ":13408,"Ty":13409,"ĠFlash":13410,"Ġdynamics":13411,"bey":13412,"Ġtransparency":13413,"Ġonion":13414,"Ġtravels":13415,"ĠLut":13416,"Ġcancellation":13417,"ï¼":13418,"orical":13419,"aria":13420,"bin":13421,"rings":13422,"BR":13423,"Ġmesh":13424,"isp":13425,"ipper":13426,"ĠPrices":13427,"categ":13428,"Ġvenues":13429,"Ġsubsequently":13430,"Ġviagra":13431,"offs":13432,"Ġscenarios":13433,"Ġremembered":13434,"Ġvisibility":13435,"ĠCoal":13436,"Ġpalm":13437,"Ġbias":13438,"Ġkiller":13439,"Ġembod":13440,"Ġtops":13441,"ommy":13442,"onyms":13443,"Ġwatches":13444,"Ġadorable":13445,"Ġexecute":13446,"Day":13447,"Ġtreasure":13448,"Ġassignments":13449,"Ġabsorb":13450,"Ġmolecular":13451,"eron":13452,"oline":13453,"ĠComment":13454,"Ġcakes":13455,"Ġpork":13456,"Ġpussy":13457,"ĠMumbai":13458,"Ġpickup":13459,"Ġclips":13460,"Ġunemployment":13461,"Ġnerve":13462,"ĠMine":13463,"Ġmicrowave":13464,"rell":13465,"ĠPresent":13466,"Ġinstructor":13467,"Ġmarking":13468,"ĠMeanwhile":13469,"ĠCareer":13470,"ĠShabd":13471,"Ġshr":13472,"Ġenzy":13473,"Ġhighway":13474,"ĠRevolution":13475,"ĠChristianity":13476,"Ġappetite":13477,"achers":13478,"Ġmoder":13479,"Ġhungry":13480,"Sometimes":13481,"Ġvessels":13482,"ĠeBay":13483,"ĠCambridge":13484,"ĠDad":13485,"Ġcargo":13486,"Ġcreator":13487,"Ġpriorities":13488,"Ġpencil":13489,"ĠAth":13490,"ĠConvention":13491,"Ġminority":13492,"hew":13493,"Ġpursuant":13494,"Ġwondered":13495,"rin":13496,"iph":13497,"Ġprogrammes":13498,"Ġnurt":13499,"ĠSL":13500,"Ġtherapeutic":13501,"Ġmetall":13502,"cca":13503,"ĠAnderson":13504,"bn":13505,"Ġcrossed":13506,"Ġsensitivity":13507,"sight":13508,"ioned":13509,"Ġreservation":13510,"ĠRemove":13511,"uz":13512,"Ġtwelve":13513,"Ġhemp":13514,"Ġfrustrating":13515,"ĠChairman":13516,"Ġcancelled":13517,"Ġbree":13518,"ĠRace":13519,"ĠBott":13520,"Ġjet":13521,"ĠRepair":13522,"bian":13523,"Ġdisk":13524,"ĠAnyway":13525,"Ġcabinets":13526,"ĠSov":13527,"pring":13528,"authorized":13529,"Ġdistinction":13530,"Ġbroader":13531,"ĠTurkish":13532,"nered":13533,"Ġ53":13534,"ĠPoland":13535,"Ġmice":13536,"Ġlbs":13537,"ĠGrace":13538,"Ġsteep":13539,"ĠSorry":13540,"Ġcozy":13541,"Ġprevents":13542,"Ġvolumes":13543,"Ġfarming":13544,"Ġstiff":13545,"Ġparticipated":13546,"Ġvitamins":13547,"ĠRout":13548,"Ġdeparture":13549,"Ġproposals":13550,"ĠIndonesia":13551,"ĠAy":13552,"Ġprotects":13553,"quisite":13554,"Ġrenewable":13555,"annah":13556,"ĠSett":13557,"roller":13558,"vet":13559,"ĠDoor":13560,"Ġnutritional":13561,"Ġceramic":13562,"anne":13563,"ĠBeat":13564,"Ġpartially":13565,"Ġcycling":13566,"Ġquarry":13567,"Ġtransfers":13568,"Ġcoastal":13569,"Ġinbox":13570,"Ġexplores":13571,"ĠPra":13572,"Ġwars":13573,"Ġprosper":13574,"Ġ180":13575,"Ġarrives":13576,"ĠHence":13577,"Donald":13578,"ĠMoore":13579,"Ġmotorcycle":13580,"Using":13581,"Ġeconomics":13582,"Ġobservations":13583,"Ġinnocent":13584,"Ġscent":13585,"Ge":13586,"ĠHop":13587,"ĠSurvey":13588,"path":13589,"Ġbackyard":13590,"ASE":13591,"ratulations":13592,"ĠGO":13593,"Ġwinds":13594,"Ġgad":13595,"ĠML":13596,"Ġhighlighted":13597,"Ġwool":13598,"DR":13599,"ĠOverall":13600,"Ġconfusing":13601,"obs":13602,"ĠVac":13603,"Ġcraw":13604,"help":13605,"Ġqueries":13606,"wellery":13607,"Ġsketch":13608,"Ġbathrooms":13609,"Ġramp":13610,"ĠCorp":13611,",,":13612,"ĠCV":13613,"Ġverification":13614,"ĠCookie":13615,"Ġcorrupt":13616,"ĠPayment":13617,"Ġeducate":13618,"Ġaccessed":13619,"Ġdeny":13620,"asma":13621,"abulary":13622,"ĠTagged":13623,"Ġkinda":13624,"Her":13625,"ĠMetro":13626,"ĠGPS":13627,"Ġlogistics":13628,"Mod":13629,"Ġdrawings":13630,"ĠCommerce":13631,"ĠKentucky":13632,"ĠGround":13633,"Ġimpe":13634,"Ġdesp":13635,"Ġappearing":13636,"Ġtoll":13637,"ader":13638,"position":13639,"Ġdraws":13640,"ĠConsumer":13641,"ĠMas":13642,"Ġrally":13643,"ĠMilitary":13644,"pically":13645,"Ġassessed":13646,"Ġundoubtedly":13647,"Ġburst":13648,"anean":13649,"ĠHarvard":13650,"Ġquoted":13651,"Ġcited":13652,"Ġencourages":13653,"ĠHit":13654,"Ġpatent":13655,"Ġsturdy":13656,"ĠGT":13657,"ĠAnyone":13658,"Ġfertil":13659,"OK":13660,"Pay":13661,"Ġbot":13662,"Ġrides":13663,"Ġleverage":13664,"ĠRestaurant":13665,"900":13666,"Ġsilly":13667,"ĠEV":13668,"ensively":13669,"Ġtechnicians":13670,"ĠÂ§":13671,"Ġpriorit":13672,"Ġgloss":13673,"ĠConsider":13674,"Ġdecorative":13675,"Ġretailer":13676,"Ġintroducing":13677,"ĠHealthcare":13678,"ĠNYC":13679,"Ġhint":13680,"ĠNotes":13681,"ĠCertain":13682,"ĠGrey":13683,"Ġbeta":13684,"Ġcompeting":13685,"ĠTaiwan":13686,"Ġsemester":13687,"ĠFish":13688,"Ġ),":13689,"Ġridiculous":13690,"Ġheater":13691,"cedented":13692,"hesive":13693,"ikes":13694,"Ġlid":13695,"comed":13696,"Ġelabor":13697,"oooo":13698,"Ġprofitable":13699,"ĠAdult":13700,"ĠGetting":13701,"Ġunderneath":13702,"Ġcomparing":13703,"ĠChi":13704,"Ġexcluded":13705,"Ġlongest":13706,"izers":13707,"Ġfemales":13708,"Ġdistricts":13709,"ĠHart":13710,"ĠWiFi":13711,"ĠUniversal":13712,"ĠMulti":13713,"atched":13714,"oni":13715,"Ġbelongs":13716,"ĠRoll":13717,"Ġinsure":13718,"Ġattendance":13719,"Ġenhancement":13720,"Ġic":13721,"Ġrepay":13722,"flu":13723,"Ġimaging":13724,"ĠExcellent":13725,"ĠLatest":13726,"onal":13727,"Learn":13728,"Ġrevel":13729,"Ġvaries":13730,"Ġupdating":13731,"Ġtravelers":13732,"ĠInnovation":13733,"Ġbarriers":13734,"Ġrend":13735,"ĠGab":13736,"ĠFro":13737,"Ġrape":13738,"ĠMechan":13739,"Ġdessert":13740,"ĠTower":13741,"Ġantioxid":13742,"Ġperspectives":13743,"ORD":13744,"âĤ¬âĦ¢":13745,"Ġtactics":13746,"Ġanimation":13747,"Ġconferences":13748,"Custom":13749,"ĠGraph":13750,"Ġguarantees":13751,"Ġbake":13752,"Ġthresh":13753,"Ġdistract":13754,"Ġstructured":13755,"Ġvarying":13756,"ĠAlaska":13757,"Ġgovernance":13758,"ĠSri":13759,"Ġgrandmother":13760,"Ġbored":13761,"ivals":13762,"Ġdonate":13763,"Ġinvention":13764,"________":13765,"ificates":13766,"Ġaccessing":13767,"Ġ700":13768,"Ġgenerating":13769,"Em":13770,"soever":13771,"Ġpacks":13772,"Ġdisappear":13773,"Ġconjunction":13774,"Ġcomplimentary":13775,"ĠEnterprise":13776,"ĠMississ":13777,"ĠWhatever":13778,"ĠMedicare":13779,"Ġchamber":13780,"Ġphysicians":13781,"eman":13782,"ĠParticip":13783,"enery":13784,"ĠArk":13785,"Ġmodes":13786,"ALL":13787,"ĠSupply":13788,"Ġdiscusses":13789,"oriented":13790,"Ġproprietary":13791,"uity":13792,"ĠTrain":13793,"ĠSustain":13794,"ĠBL":13795,"belie":13796,"Ġstating":13797,"Ġfrost":13798,"ĠSens":13799,"Ġdamn":13800,"Ġhoped":13801,"rise":13802,"ĠOtherwise":13803,"Ġcrisp":13804,"Ġunwanted":13805,"Ġtob":13806,"rac":13807,"reated":13808,"Ġranks":13809,"ĠGulf":13810,"Ġadjustments":13811,"ĠUpon":13812,"ĠGB":13813,"ĠDetroit":13814,"Ġscoring":13815,"ĠGate":13816,"Ġwore":13817,"vens":13818,"ologically":13819,"Ġamazed":13820,"ĠEngineer":13821,"Gr":13822,"Ġpractically":13823,"Ġsolved":13824,"ĠScholars":13825,"large":13826,"Ġcrust":13827,"Ġshirts":13828,"gger":13829,"ĠResp":13830,"Ġremotely":13831,"iaries":13832,"olph":13833,"Ġarchitectural":13834,"Ġdefensive":13835,"Ġcounting":13836,"ĠCow":13837,"ainted":13838,"ĠUC":13839,"Ġstrengths":13840,"ĠArabic":13841,"ĠBR":13842,"Ġunre":13843,"ĠFrancis":13844,"eals":13845,"Ġbacking":13846,"atherine":13847,"ĠSomething":13848,"ĠBor":13849,"Ġspecializes":13850,"leans":13851,"ĠMT":13852,"ĠRange":13853,"Ġphrases":13854,"iated":13855,"ĠOthers":13856,"Life":13857,"Ġattraction":13858,"Ġmetres":13859,"Ġnonprofit":13860,"Ġrentals":13861,"Ġpriest":13862,"ĠChrome":13863,"ĠSept":13864,"ĠOd":13865,"âĢ¦..":13866,"Ġsheep":13867,"Ġarc":13868,"Ġboasts":13869,"Ġreviewing":13870,"Ġmock":13871,"Ġrelaxation":13872,"Ġbron":13873,"enna":13874,"Ġjar":13875,"white":13876,"TER":13877,"ĠGM":13878,"Ġattacked":13879,"Ġcreamy":13880,"Ġwoods":13881,"NY":13882,"Ġchrist":13883,"1000":13884,"ella":13885,"Ġpipes":13886,"ĠDuke":13887,"ĠNice":13888,"Ġpartnerships":13889,"ĠOlympic":13890,"Ġopponent":13891,"ĠSony":13892,"Ġ08":13893,"ogenic":13894,"Ġcommands":13895,"posed":13896,"Ġconnects":13897,"Ġdefects":13898,"Ġundergraduate":13899,"ĠClinical":13900,"Ġports":13901,"ĠOften":13902,"allow":13903,"bsp":13904,"ĠPrize":13905,"Ġtherapist":13906,"Ġtv":13907,"Ġebook":13908,"group":13909,"Ġextraction":13910,"ĠSM":13911,"Ġdietary":13912,"ĠDry":13913,"stairs":13914,"oca":13915,"Ġspirits":13916,"cap":13917,"iments":13918,"Ġflavour":13919,"letters":13920,"ĠLif":13921,"Ġsteering":13922,"ĠUsually":13923,"Ġtrash":13924,"arding":13925,"ĠLinkedIn":13926,"ablished":13927,"fund":13928,"ĠRules":13929,"cin":13930,"ĠBachelor":13931,"ĠRespons":13932,"closed":13933,"ĠSolar":13934,"))":13935,"ĠRab":13936,"Ġnotable":13937,"ĠAngel":13938,"Ġprotocols":13939,"ĠDer":13940,"Ġtar":13941,"Ġconvince":13942,"Ġconcentrate":13943,"Ġexchanges":13944,"igma":13945,"gered":13946,"Ġowns":13947,"ĠChamber":13948,"Being":13949,"ĠCelebr":13950,"prote":13951,"ĠCertificate":13952,"Ġstrap":13953,"Ġconsuming":13954,"Ġcheapest":13955,"Ġanonymous":13956,"Ġfunn":13957,"Ġindicator":13958,"Ġargued":13959,"Ġmeth":13960,"Ġcycl":13961,"Ġol":13962,"ĠMaria":13963,"Ġpractitioners":13964,"ĠOrganic":13965,"Ġpermanently":13966,"Ġconsecut":13967,"Ġviral":13968,"ĠSom":13969,"eddings":13970,"Ġresponding":13971,"ĠBuck":13972,"Ġoutline":13973,"kyo":13974,"Ġthrive":13975,"ĠNT":13976,"Ġretro":13977,"Ġholders":13978,"Ġhed":13979,"Ġdescribing":13980,"Ġlone":13981,"Ġequality":13982,"strong":13983,"Down":13984,"oft":13985,"ĠWhit":13986,"Star":13987,"Ġdominant":13988,"Ġgrind":13989,"Ġoptimize":13990,"ĠUrban":13991,"eland":13992,"Ġpresum":13993,"Ġgloves":13994,"ĠNursing":13995,"php":13996,"veland":13997,"Ġmounting":13998,"Ġconnectivity":13999,"Ġmailing":14000,"ĠLocation":14001,"ĠMuslims":14002,"Prof":14003,"Ġsmoothly":14004,"Ġisolation":14005,"uced":14006,"anka":14007,"Ġcardi":14008,"Hel":14009,"eks":14010,"ĠDental":14011,"--------":14012,"available":14013,"Ġgluc":14014,"Cle":14015,"vol":14016,"chant":14017,"ĠLam":14018,"ciplinary":14019,"ĠMultiple":14020,"Ġaccent":14021,"Ġfond":14022,"div":14023,"Ġquart":14024,"acht":14025,"shirt":14026,"Ġpose":14027,"Ġperfection":14028,"ĠTechnologies":14029,"Both":14030,"Ġcommod":14031,"Ġavoiding":14032,"ĠSurg":14033,"Ġreceiver":14034,"Ġshake":14035,"ĠYeah":14036,"Ġrefrigerator":14037,"Ġcommentary":14038,"ĠJudge":14039,"ĠTips":14040,"opl":14041,"Ġslim":14042,"opath":14043,"Ġcoinc":14044,"ĠDynam":14045,"eded":14046,"Ġchick":14047,"ĠArgent":14048,"ĠIM":14049,"Ġaccessibility":14050,"Ġlightly":14051,"Ġjudges":14052,"ĠRidge":14053,"Ġmonster":14054,"ordon":14055,"ĠUntil":14056,"ĠStorage":14057,"Ġunprecedented":14058,"Ġexpend":14059,"Äģ":14060,"ieval":14061,"Ġprovin":14062,"Ġrespir":14063,"ĠLuke":14064,"Ġprobability":14065,"Ġdrying":14066,"WA":14067,"adi":14068,"Ġcontroversial":14069,"Online":14070,"Ġber":14071,"ĠDick":14072,"Ob":14073,"aco":14074,"Ġpuzz":14075,"ĠLots":14076,"ĠThai":14077,"Ġcontacting":14078,"ĠAlexander":14079,"Ġbump":14080,"2014":14081,"Ġtrains":14082,"ĠStandards":14083,"ĠPython":14084,"Ġjunk":14085,"ĠPhoenix":14086,"Ġsatisfying":14087,"shot":14088,"Ġcombining":14089,"ĠFalls":14090,"Ġoutlets":14091,"Ġsunny":14092,"Ġreass":14093,"Ġpredictions":14094,"Ġkeywords":14095,"Yeah":14096,"Ġlining":14097,"Ġcaf":14098,"Ġeternal":14099,"Ġprost":14100,"Ġelastic":14101,"Ġchol":14102,"Ġinfin":14103,"fare":14104,"ĠSkin":14105,"ĠAnna":14106,"Ġfloating":14107,"Ġdesperate":14108,"Ġbrass":14109,"Ġfundament":14110,"points":14111,"Ġlaunching":14112,"Ġfinan":14113,"Ġpredicted":14114,"thritis":14115,"Ġdictionary":14116,"Only":14117,"ĠPink":14118,"issa":14119,"ĠSF":14120,"Ġmeter":14121,"chair":14122,"Ġpharmacy":14123,"Ġturb":14124,"Ġups":14125,"Ġpotato":14126,"Ġrelatives":14127,"ingle":14128,"ĠOw":14129,"Ġtens":14130,"ĠBetween":14131,"ĠMall":14132,"ĠEither":14133,"KS":14134,"ĠTa":14135,"ova":14136,"iblical":14137,"fox":14138,"Ġchrom":14139,"ĠHeat":14140,"ĠHoll":14141,"Ġtalents":14142,"Ġsegments":14143,"ĠRetail":14144,"Ġsofa":14145,"Ġkindness":14146,"Ġdimin":14147,"Ġinfant":14148,"iterr":14149,"ĠLane":14150,"afood":14151,"Ġattracted":14152,"Ġsends":14153,"Ġgovernor":14154,"fi":14155,"Ġnaked":14156,"Ġseamless":14157,"ymph":14158,"Ġdeposits":14159,"irates":14160,"ĠDelta":14161,"ĠFigure":14162,"Ġtaxi":14163,"ĠPhotography":14164,"Ġterrific":14165,"Ġ101":14166,"ĠBrazilian":14167,"ĠFR":14168,"Ġquarant":14169,"eled":14170,"Ġcompetent":14171,
[...]
